#version: 0.2 - Trained by `huggingface/tokenizers`
t h
i n
e r
a n
th e
o u
o n
a t
r e
i s
e n
t o
e d
o r
in g
a l
a s
i t
e s
an d
a r
o f
h e
y ou
m e
l e
s t
l l
i c
o w
s e
v e
b e
w h
h a
r o
a y
th at
er e
a c
l y
i on
i d
o t
g h
en t
f or
w as
l d
c h
u t
v er
w i
a d
s o
l i
r i
. .
c o
e t
w e
i r
k e
n d
a re
gh t
a m
al l
o o
T he
i m
d o
t er
a b
wi th
ou t
u s
n e
u r
on e
c e
n ow
a g
T h
m o
u n
p e
th er
ha ve
d e
th is
n ot
g o
s h
W h
ou ld
i l
an t
u p
l o
a in
u st
at ion
t r
Y ou
t e
i f
m y
p o
I t
h is
c on
H e
m an
c t
k now
p l
.. .
u l
ro m
c an
wh at
f e
th ing
es t
a p
ou r
b y
the y
s a
n o
h er
ar t
re s
co m
i ll
o p
b ut
you r
er s
f rom
es s
th ere
u m
so me
c a
W e
ha d
w or
t i
at e
al ly
p ro
q u
h im
li ke
ar d
e x
s u
g et
w ay
a h
i g
ac k
A nd
ver y
b o
d on
in d
en d
g e
s he
k ing
1 9
oo d
i ght
ab out
r y
is t
on g
a ke
w ere
i e
y e
i ve
m ent
ou nd
ic h
wh o
it y
as t
u se
2 0
j ust
ow n
in k
c k
h ere
an y
ri ght
S o
oo k
Wh at
se e
d id
f o
b er
n a
e l
h o
the m
w o
in e
g r
N o
I n
w ould
is h
w ant
v en
wi ll
p er
id e
r a
o ther
or t
g ot
ou s
ac t
h as
e p
ic e
wh ich
c i
a k
th ink
o m
ou gh
b l
d ay
wh en
ti me
u re
sa id
d i
s ay
ou n
it t
B ut
ag e
o l
an s
a f
be en
mo re
ac e
c l
of f
O h
Y e
t y
as s
an g
op le
o ver
the ir
s p
the n
co me
i es
b r
i a
ic k
re e
to o
it e
Ye ah
u nd
go ing
p le
ac h
Th at
- -
wh ere
re d
b ack
p p
pe ople
c ould
ca use
p art
h ow
ar y
at ed
le t
f ir
to r
S t
ar s
se l
u d
b le
g ood
C h
a v
m er
th an
t wo
l ook
u e
The y
p r
ad e
v ed
or d
Th is
as e
d own
in to
we ll
fir st
wor k
e m
S he
an ce
We ll
c all
fo re
re at
en ce
k ay
a ve
ab le
o h
al so
it s
i p
a u
g u
p ut
d is
ne w
d y
itt le
in t
s i
l and
ou ght
on ly
s er
at er
f er
ion s
0 0
pl ay
ag ain
e very
p ort
po s
re t
l ittle
m u
m in
sel f
re n
be t
or n
ur n
b u
t al
m ber
e ver
s to
v ing
be cause
st r
re ad
a w
p res
i an
an k
U n
af ter
for m
ne ed
s pe
i ld
o b
ca me
t ake
v es
m ake
te ll
p t
. "
Th ere
sh ould
mo st
m on
o se
s c
tr y
m a
f a
p h
t ain
re ally
l ong
m ar
o d
ha pp
h i
und er
Y es
th r
o ld
the se
i z
ic al
i le
ig n
do es
g on
20 1
c oun
m en
C o
mu ch
en s
H ow
me an
in ter
some thing
w r
at es
f l
A n
d u
us ed
t ing
gon na
e ven
m ay
a th
m ade
w ent
man y
is s
I f
u h
t s
n g
D o
c ar
he l
B e
i re
c r
ct ion
p s
' '
as k
` `
f u
be fore
h and
ne ver
w on
t a
it ed
c ent
did n
20 0
m s
s ide
R o
f t
y s
am p
m ed
bo dy
s s
y es
con t
d if
l es
M r
ou se
at t
u ally
f in
li fe
it ion
li e
at ch
ic t
ri ed
oo l
g reat
ver s
p re
i ly
d es
i ous
thr ough
d er
c es
ye ars
f ul
o kay
ation s
d r
A l
st and
A ll
M ar
is e
he ad
R e
N e
c le
s up
c our
I s
com p
th ought
st ill
th ose
c ess
thing s
s on
n ight
th ree
c er
a way
call ed
f ound
f f
t im
c lo
st art
D e
co l
1 8
B r
c re
way s
in ce
l ast
li ght
g ive
v is
ye ah
lo ve
s m
ll ow
w ard
t on
m ust
t en
sh ow
one y
N ow
A r
sh ip
do ing
be ing
Wh y
f ind
al s
ho me
f r
con d
f ri
l ess
an ge
na me
e ar
g en
ul t
l ot
s y
p ri
hel p
" .
b it
pl ace
D on
c he
c ed
b ro
su ch
g an
su re
Wh en
f am
S e
ing s
ir l
fri end
c are
wh y
re g
F r
en ed
u ck
se t
po l
mer ic
id ent
A meric
k ind
g i
n or
O n
res s
k ill
p ar
l a
sa me
com m
A s
p ers
un t
dif fer
L e
u g
po int
b ig
s ch
s ur
p u
as h
a it
b ab
A t
n um
v ie
L et
I N
c ur
a ir
as ed
tim es
wor ld
v ent
ch ild
n ing
h ouse
M y
m ight
j e
Co me
i al
e le
fe el
j o
at ter
k s
t urn
s ing
me mber
ow er
v al
ou th
wor d
F or
x t
ation al
u b
ye ar
a me
l ed
ar ound
ct ed
at ing
es e
c tor
as on
read y
m ain
hi gh
) .
er ed
m p
an other
b re
ur ing
O kay
" ,
lo g
g l
tal k
c y
know n
al ways
er m
in s
con s
r un
He y
T H
f our
) ,
g irl
Th ank
w ar
i th
n er
re al
Th en
we en
S h
ro om
M o
v i
ke ep
b all
le ft
bet ter
wh ile
m oney
ic s
be lie
Un ited
any thing
Ne w
pers on
c ha
c ord
ul ar
T o
th ough
ut e
i o
n ess
or s
19 9
G od
l ar
or ry
m us
to ld
t ri
J u
differ ent
b orn
c ity
d one
w ater
bet ween
b ook
in cl
c ap
re st
al e
E R
are d
C an
M ay
ter n
st e
b us
l oo
se cond
r is
ir d
, "
ent s
ci al
H is
en g
sch ool
o s
m b
su b
w n
f ar
too k
r ow
u al
fu ll
s ha
ish ed
C on
ad d
a il
J ust
e f
Wh o
E ng
ter s
ch ar
p ass
pro du
we e
Wh ere
St ates
cour se
J oh
fa ther
a z
A N
l t
b ed
v ol
to ry
g g
am es
1 0
I nd
it ies
fo llow
fe ct
l ist
bo th
at ive
ne xt
So me
sa w
C om
re l
to p
no thing
e ach
mo ther
A re
com ing
c al
m or
Americ an
Joh n
f ace
unt il
num ber
ro ss
m ind
s l
b est
ce pt
N ot
G o
so l
v o
pl an
qu est
l ater
ar k
sm all
p ed
act ually
de c
di ed
f un
ge ther
h ard
ak es
g in
B o
po p
N or
h al
l ine
er al
does n
are n
G ood
ap pe
t ed
i vers
u ary
m iss
on ce
au ght
to gether
O ne
le g
st u
h u
st ate
to wn
u res
19 8
w ait
want ed
us h
w al
n y
je ct
el se
fam ily
sh o
again st
c ri
un g
pres ent
v id
p ret
se en
1 5
n ed
b and
is ter
c ut
ment s
li ve
L ook
en ough
pro ble
op en
loo king
d ri
bo y
be came
ho ld
bl ic
O r
f i
on s
fe w
f ive
s im
say s
every thing
ar ch
r ound
with out
you ng
d en
b ad
1 7
ser v
z e
qu ite
if ic
st ay
l ad
E r
im port
s ign
mo ve
pe ct
si x
A f
19 7
s ince
i gh
s orry
he ar
in ess
C ar
under stand
l s
s it
me et
pres s
ll o
g er
G er
e as
f act
m m
ag o
a ther
w er
P ro
R ight
day s
on es
co ver
g re
w an
di re
n am
C oun
D id
ne ar
k id
orn ing
d uring
belie ve
l aw
M a
re member
le ave
get ting
te am
child ren
mus ic
st em
s k
v il
ant s
happ ened
re am
tr ans
G r
is n
le y
bu ild
to day
ur y
t re
who le
l ing
wo man
K ing
a ut
p ower
U h
ple ase
i ke
inter est
ask ed
hal f
s ir
c us
s le
as ter
a i
he ard
incl ud
n ice
b ar
re le
m il
ve lo
IN G
it al
ord er
on d
e yes
e at
on t
him self
pos si
j ob
h uh
k ed
coun try
f il
is m
ha ving
gr ou
le ad
ch ange
o c
in a
s ort
P r
he art
c ase
vie w
an e
at ure
O N
T r
sh all
1 2
h our
is ed
y et
O U
sto p
up on
ist s
g ave
m orning
w atch
ie ld
i ther
E x
G et
do or
p ain
de ath
You r
00 0
per i
Af ter
m atter
import ant
vis ion
M e
en e
it ch
p ay
i er
de ad
com es
d ist
l ish
u de
19 6
ivers ity
in es
g ame
al ready
M m
at or
ut ion
1 6
ag es
ex am
k new
en se
H ere
s ong
h y
cer tain
l ay
? "
r al
w in
fo ot
wr ong
w ind
sy stem
I I
aught er
so on
say ing
c or
go ver
m ill
qu i
st ud
all ow
g t
me ans
f ac
ap p
me t
qu e
gu y
H o
tal king
. ”
off ic
be gan
ur ch
mon th
le ar
r ing
A R
f all
pos ed
h ur
ic ally
of ten
G e
et y
ret urn
f ight
or k
at i
re cord
r an
start ed
al ong
br ing
try ing
pp ed
ch ang
et er
cont in
com ple
s ent
ri es
M an
l ow
g one
i ed
A h
T e
wi fe
A b
W ill
ur al
te m
wee k
bro ther
ch o
ide a
ward s
s we
iz ed
pol it
p rom
cl ass
bab ly
ro ad
in king
for t
play ed
re ason
n ment
c ot
end ed
3 0
A d
su c
A T
st er
d ad
wan na
l ate
h or
d ra
il ity
et s
at s
Be cause
C ol
s ound
J o
happ en
p ie
an n
B l
so ci
sto ry
u ro
pret ty
str u
g y
gr am
1 4
ma king
u c
ion al
cle ar
go es
pl ac
mar k
ne y
f ine
hu man
op er
it er
de velo
col le
wo men
J an
gr ound
f ic
v ar
pl ain
mo ment
ke y
tr ain
ve l
gr ap
ak en
Eng lish
F o
proble m
C ha
de p
an im
P le
are a
P o
Br it
some one
F e
d ro
lo st
in o
pr of
E very
or gan
sle ep
lar ge
H er
or ig
J ap
w he
19 4
W or
bus iness
was n
part ic
ap er
D r
f re
cont ro
ic es
wor king
pro bably
ard s
look ed
in v
sh ort
Jap an
v ide
comm un
t est
h m
W ar
O R
be aut
tr ue
po se
bl ood
your self
h on
b um
o k
H ar
ate ly
h ar
gu ys
f ree
! "
1 3
gi ven
P res
f ire
19 5
ho pe
bre ak
TH E
P e
i li
may be
ang u
be come
al most
orig in
Ple ase
be h
bab y
e qu
re w
f ield
am a
ex p
C al
ul ation
Fr ance
is on
Th ese
happ y
W ith
possi ble
il t
tr u
S outh
er y
c as
Un iversity
would n
ren t
lo ck
Mr s
p en
st it
U S
de al
p a
ag ed
k es
p ur
re ce
mo vie
em p
hand s
ha ven
g ent
word s
i x
re ach
clo se
pu blic
mo m
ear ly
res p
L o
won der
j or
id es
au gh
friend s
us ing
rele ased
grou p
2 2
do g
quest ion
c ra
w ood
Y ork
in ed
kill ed
C l
r u
ou ble
bl ack
an ces
ll y
Jan uary
ou ch
e vent
comp any
b ur
t aken
is tr
my self
h ot
on y
br ought
d aughter
cons id
w ish
le ast
stu ff
E S
fa ir
st ation
se ver
P ar
f ood
d ie
log y
li m
un ch
lo c
wh ite
ap pro
v an
li g
fr ont
gover nment
f ast
l angu
m id
g ar
a king
b as
full y
c ast
se ason
se arch
Coun ty
mill ion
to m
E uro
if ul
c u
m al
beh ind
sel ves
s qu
ll ed
G u
Ch ar
ta king
ha ps
gu ess
J e
ac ti
A ust
p ick
et e
exam ple
mar ried
gr ow
i k
ha m
S ch
ren ch
n ational
He llo
e ight
B ar
al one
S er
g un
str ong
form ation
than k
ra ther
M iss
al th
ph one
ste ad
E N
S p
suc cess
O f
c ret
i ver
so ld
tr a
v ious
char ac
sever al
S te
f ig
m akes
turn ed
nor th
ic a
we l
des ign
i b
ll ing
s ed
re et
M ic
d am
e ither
Mar ch
g n
act ion
S cot
spe ak
c ou
c king
i am
ar ing
bu y
H ave
for d
it ing
Wor ld
s um
p ict
und red
th or
part y
st ep
ser ies
ex t
r id
end ing
re port
, ”
2 1
ro ck
pro gram
2 5
att ack
Nor th
nam ed
ou d
or y
al ity
Euro pe
he ld
li ving
r ist
k en
Brit ish
m ag
s at
qu ick
ang er
C ap
S ep
An y
m ing
th inking
itt en
te le
ure d
some times
d ream
l er
ut es
P er
ci ent
1 1
other s
re main
g ed
at ic
Ge or
pos ition
K e
ch es
sup port
Ch ris
a im
m and
f le
um p
gen er
list en
mo ved
h undred
n et
look s
dr ink
A L
iz e
could n
th ird
bu ilt
Ger man
F l
b ot
al bum
p ast
min ute
p ly
v ill
p or
s ou
s po
ag ue
us ually
sh ot
ie f
his tory
se ven
te mber
J ack
be gin
D an
s w
Pres ident
act ly
C H
P l
with in
S ha
po or
M in
is su
u es
work s
M on
I S
Ju ly
b ased
z y
beaut iful
c ir
b or
r ad
itt ing
B y
v ir
Sep tember
m ess
bo x
Q u
a x
g est
went y
r on
go d
F rench
bo ard
s outh
T om
go ld
R E
want s
pro te
get s
ow s
s un
s il
play ing
O c
includ ing
b ird
t le
pol ice
2 4
f ish
build ing
do m
spe cial
ther n
ci es
co st
A ug
fil m
in side
5 0
O K
h it
se a
mb ers
L on
i ved
A c
m ur
de ar
m is
er ing
t it
d le
ac ross
form ed
sing le
se x
che ck
Ju ne
ab o
l augh
es tern
le av
f ur
f lo
s al
ha ir
for mer
en ces
May be
N ational
b ri
month s
ans wer
Lon don
lo cal
h us
out side
min utes
too d
t w
id ed
Aug ust
de l
ber t
c tr
in cre
L ike
an a
m it
st ar
wr itten
ot e
got ta
cent ury
ct ions
fe ll
li ved
tor s
wal k
am ong
Se e
con cer
ef fect
H i
jo y
mor row
W est
d ark
ous and
E d
id ge
de part
ar r
S ir
t ouch
pri l
A pril
i ans
ar m
m atch
prof ess
il ed
ra id
t ried
E m
com mon
T ake
R ep
C ent
ce ll
fe lt
off ice
Eng land
t ill
D ad
co p
tr act
ma jor
w est
c ry
to ber
How ever
pop ulation
E n
L A
pro cess
ir th
end s
r ain
It al
follow ing
Oc tober
i me
fl u
W al
Y OU
ly ing
D av
cover ed
ter ri
he ll
| |
De ce
oun tain
sp ir
c up
ro y
hus band
land s
comple te
vo ice
S y
att le
langu age
te en
f av
in st
any one
Dece mber
F rom
L a
th ousand
No ve
G en
B u
wor ry
0 s
do ctor
ro te
c amp
c ross
p aren
t able
co ld
Nove mber
v in
bo ys
m ine
ex peri
tri es
chang ed
A m
Ro man
Thank s
c um
wr ite
partic ular
d ing
pro per
work ed
d a
tr ad
me mbers
C ity
dra w
f if
ul ti
pr act
pl es
cle an
I T
r ic
d est
en n
li ves
C or
w rote
whe ther
gr and
con f
p al
can not
develo p
P ri
Ch rist
ch ance
hour s
P a
19 3
E ar
L u
br uary
201 3
st ra
Fe bruary
2 3
W ait
p aper
every one
ser ved
in vol
wor th
m un
serv ice
i or
dif fic
d ress
coun t
Americ a
eas y
see ms
mu ne
in formation
to morrow
c li
it ions
.. ..
S u
i um
un k
po st
new s
cou ple
w all
f ill
pl ic
s ense
how ever
L E
fe et
swe et
know s
B er
t ro
Ind ian
J ames
t wenty
b es
i v
an c
cur rent
g es
M c
re co
m ad
sup er
b al
I ll
201 0
b irth
b ers
g ain
n at
P h
oun t
fu ck
de f
pie ce
mp ion
ir st
ex actly
te ch
lad y
a ven
ul a
p ho
ty pe
ar ri
contro l
z er
long er
ent ly
ex c
gen eral
Geor ge
al right
cl aim
d in
re lig
li es
ad v
com mune
let ter
sup posed
pri v
di es
m ach
ound s
cour t
charac ter
con ne
co s
b urn
at a
them selves
ot s
ke pt
G reat
t ree
as ure
ti an
gr ad
per haps
peri od
tru th
u blic
re en
au thor
sp ace
A S
the s
P eter
S up
b an
sh it
run ning
grap h
ir ty
by e
1 00
d et
ha el
tr ave
pop ular
miss ion
w ed
if ied
af raid
reg ion
A fr
care er
appe ar
o re
de fin
C a
P art
ci ally
s ister
ed uc
qu ar
des cri
I C
n on
s n
for ce
c ried
re fer
le vel
b s
id a
c il
hur t
ac her
ant i
e ye
com put
li ed
v ince
l uck
y a
ac cept
kid s
lo y
j ud
R us
Te ll
cord ing
lear n
se cret
ch urch
tr ouble
ci ence
V ir
t our
us es
rece ived
need s
en cy
sh op
S orry
pu bl
vide o
foot ball
te e
see med
2 8
am ent
u ation
tele vision
av y
mur der
m ist
ac c
pict ure
cl ub
R ich
m ic
s end
ri an
k y
il o
m outh
appe ared
ent ire
abo ve
H en
L ord
ex cept
ton ight
h ang
r ich
At l
incl ude
sho ot
resp on
2 6
s of
per fect
E ven
il ar
what ever
Pe ople
P ol
ser ious
en er
res pect
ans w
S top
c reat
in stead
T O
tr ack
hor se
gre en
ag ree
z a
play er
f ut
vill age
2 7
m ir
d den
u ght
tr ust
cre ated
ent ion
wait ing
d ue
g as
re present
G H
Cap tain
in de
ad a
pr ison
T wo
r ul
it self
Will iam
m es
bl ue
fam ous
book s
t ar
dep end
k a
st ri
St ate
ship s
p ot
some body
2 9
n ine
u ne
T V
H igh
b i
ct s
fu cking
b ow
b ill
ch an
cha ir
depart ment
H ouse
Q ue
coun tries
comp et
Er m
re p
ri but
su gg
sol ute
cr it
sugg est
com b
E D
ac y
Fr ank
ro le
ex plain
su dden
every body
Aust ral
r or
t ic
p ush
ho st
R O
b on
d ou
r ap
S al
ll s
S an
p ati
reco gn
B ro
M ary
sp ital
A ct
S pe
b a
t reat
ff ic
stud y
p es
er a
b ag
J im
ra il
t akes
Vir gin
c at
G ive
it ive
ain t
pass ed
c atch
ex ist
girl s
B en
D istr
ct ure
pr in
sur pr
cap ital
Mic hael
con tain
sa fe
C our
he alth
stra ight
ti red
tell ing
tem pt
me mor
be ar
pres ident
s tood
de ep
feel ing
dec ided
ho l
0 1
wee ks
Distr ict
fi x
w ide
see m
ele ctr
im ag
in c
mo der
sl ow
ter m
F irst
j our
y r
A M
s us
eng ine
M us
car ry
in ation
te ach
Dav id
even ing
gi ving
mo ving
fun ny
paren ts
E L
so cial
Japan ese
201 1
fam ili
ex pect
gent le
b t
fut ure
4 0
L ist
op ened
contin u
E ast
g a
ne cess
origin al
b en
f ro
g ames
for get
plac ed
rel ation
w ise
ag on
ill y
dis tr
ear th
fur ther
n ia
p et
lo se
ow ers
air s
l in
s es
me ant
if e
proble ms
fig ure
mil it
Sch ool
se qu
thr ow
i ally
n al
be at
co ol
ri age
ap point
Ind ia
h oney
200 6
gl ass
meet ing
return ed
a head
spe c
ay s
K en
her self
No thing
201 2
med i
ash ing
L ou
stand ing
pho to
th y
coun ty
follow ed
mom my
p an
S ar
c orn
m ale
comm and
who se
any way
vi ol
spe cies
c ult
y le
F in
Ger many
ce ed
we ar
iz ation
part s
D uring
m i
he y
dri ve
vil le
P ark
f ed
n i
ct ive
st at
inv est
z z
th ou
fore st
be y
ag er
te acher
st ick
flo or
M ed
m ass
be l
pro ject
A P
Rep ublic
f ing
est ab
Re ally
ino is
vious ly
s en
T ER
anim als
d anger
allow ed
st reet
M al
b ank
sa ve
pa id
acti v
e con
is land
au di
res ult
who m
ne l
nat ural
He l
fin ished
b oo
happ ens
S m
sim ilar
plac es
h op
dec is
sub ject
cra zy
m as
ac tor
mark et
Gen eral
do ll
AN D
b ly
ph ys
w estern
S am
s ick
y er
In tern
certain ly
begin ning
se par
A le
fin al
Ill inois
m ater
w it
de v
p ack
ic ian
var i
m ountain
Virgin ia
C he
V i
is ing
ic an
Mo st
f fer
k iss
s itting
Hen ry
interest ing
S ure
ri ver
ens ive
S T
ent er
for ward
li ver
comp an
il s
b ul
en joy
i ent
mid dle
h ung
fe e
ord in
quick ly
to wards
bo at
ck s
n in
ment ion
pp ing
en a
lo ad
answ ered
ann oun
W as
m ulti
t in
itt ed
Fl or
G over
M om
sh ut
Pa ul
B al
d ate
v a
dire ct
L i
to tal
ri a
f ly
ic y
gl ad
diffic ult
am ount
i ble
pl ant
int ro
Cal i
leav ing
H a
Wh ich
fe llow
quest ions
g ri
h ood
J es
polit ical
dad dy
Ch urch
m aster
B el
h ed
j u
in flu
st age
vers ion
moder n
qui et
be ll
be long
M ad
N O
lo ved
ob ject
( "
B et
O ur
s ess
oo se
er t
qu es
vid ed
loc ated
experi ence
es pe
Cali for
consid er
M any
b ra
at o
ind ust
sup pose
reach ed
ta x
D i
g ing
stud ents
s co
R iver
r up
ne igh
form s
W ould
ic o
On ly
commun ity
. ,
ter ms
s tor
Bl ack
C ong
ca pe
Califor nia
l am
c and
wi ld
ad y
ab ad
if y
publ ished
ab ility
M u
si an
st one
intro du
S en
p ing
br idge
var ious
espe cially
w a
n ature
ch ief
ition al
a po
num bers
ho spital
I D
V al
e gg
s pl
an ch
E l
R ed
ex press
201 4
wr iting
vol ution
H u
O ther
d ed
ti e
dis cus
Chris tian
c ro
wind ow
S im
ul ts
si ze
bro ad
mil es
U N
se ll
r ate
un i
clo thes
Gr and
g le
re f
log ical
pe cted
il ing
equ al
b ase
ci ous
se at
Le ague
ca ught
ens us
fe ar
any more
v ict
im p
200 7
col or
str ange
oc cur
O F
su ffer
invol ved
V ery
n s
B ur
pe ace
show s
stit ution
ind i
solute ly
G ree
M E
b our
s wi
fe at
B C
B ob
b lock
m ot
ar ms
im ent
c am
tit le
T ur
sim ple
gi ves
fin ish
l eng
f it
for got
some where
Que en
jo in
S ince
D u
o de
need ed
Col le
fav or
Flor ida
P al
List en
M ac
f und
dest roy
R ob
pro ve
201 6
val ue
? ”
M art
end er
produ ced
Scot t
h at
al ive
st on
fin ally
ener gy
" )
con stru
your s
din ner
h um
p ath
re cent
a ver
d ance
we ight
ab or
ant ic
M er
s our
Un ion
c ing
not e
any body
bl es
su it
add ed
priv ate
st ant
ti es
respon si
k i
nd er
ap art
profess ional
Part y
u el
pt ion
Do es
l iter
up id
ie l
g ress
consid ered
dr ug
sit uation
M or
re search
P ort
sp ent
lead er
see ing
fer ence
spe aking
A ir
C r
ab ly
gre w
play s
h id
co ach
um b
h ill
m hm
fir m
than ks
pl us
ak er
fo l
li p
vir on
Ale x
ar my
inde ed
acti ve
im medi
sto pped
sum mer
D es
G ot
ra ised
Ro bert
C am
spir it
G l
b ought
d ig
r out
av ail
D ar
c ul
bro ke
d ry
h ate
r ace
19 0
l ines
200 9
leng th
c ard
Rich ard
D O
g ard
vid ence
b ud
Ex c
r ough
id ay
n ames
bl ow
lar gest
e ase
s cience
al though
te a
no on
add ress
id s
develop ment
v ic
te xt
It s
Ro y
A C
mo cr
W H
spe ed
ear li
U m
k no
at tempt
200 8
Th om
mean ing
st airs
att ention
bro ken
O k
point s
sof t
e ast
ps y
O ly
201 5
Th ree
ep is
br ain
ens ion
P re
e h
ver t
Wh ite
squ are
milit ary
20 00
ous ly
pr int
jo ined
co ok
di o
person al
comput er
reg ular
Char les
f an
s mo
ers on
An ge
grou ps
de cl
sim ply
dou bt
s ight
re y
op port
th us
clo sed
nor mal
issu e
Exc use
B E
R es
as king
um ent
p age
ill a
indi vid
D ick
b attle
j i
know led
p ic
6 0
i ers
re ct
sp ort
car ried
ur a
C O
med ic
colle ge
A D
l ic
ap ers
ex per
cap tain
mar riage
viron ment
re ed
distr ict
b ility
Al an
includ ed
opport un
Wh ile
dam n
D ep
h ous
differ ence
ph y
it es
offic er
ex tra
war m
educ ation
as te
complete ly
a e
n ie
F ather
d ut
tr ade
op s
reg ard
J er
u ce
in it
lo s
ist ic
Cour t
D am
W ashing
of fee
m at
m ix
char ge
k er
v ies
he avy
found ed
wr iter
200 5
watch ing
appro ach
c ab
l ower
r ac
el s
Washing ton
f ool
clo ck
tem per
cas es
me th
should n
ll i
co ll
com fort
as soci
co ast
sy m
y n
be low
at ors
ne g
Jes us
P ut
ac cess
St reet
Fo ot
anim al
lo ss
ite ly
sha re
s me
continu ed
20 22
tre es
V E
e cut
s ite
Cha mpion
r am
in depend
H ill
s ad
x im
st ates
ri al
like ly
Is land
ben ef
g or
near ly
Europe an
rad io
Ear th
F er
s cient
ut ter
D is
s and
man age
y o
ter day
man ce
sudden ly
P an
read ing
pre p
u it
her o
M aster
talk ed
hon est
h an
sh ar
qui red
le br
ca used
Sp an
det ail
on to
R I
f at
dire ctor
sk y
famili es
a ha
mil k
bird s
Mar k
ce lebr
ic ed
are as
ord ers
sc ene
interest ed
V ic
st upid
af f
high er
R a
as se
ic ip
ro ll
prom ise
happen ing
develo ped
H am
ar g
S id
e vidence
fe ed
Re g
Intern ational
ir t
C up
G old
b ath
M ex
p ir
st yle
ast ic
pu ll
c ensus
an al
C ath
o me
ass ist
leg al
song s
l ished
r at
s now
cur ity
Ab out
necess ary
P at
b right
ap ped
Ch ina
pr ay
Colle ge
th ro
Mo re
pie ces
Afr ica
U p
th reat
ask et
ati ves
fre sh
avail able
prote ct
M il
N ever
e ating
per for
o il
we ather
Austral ia
is es
es h
mar ry
announ ced
show ed
bl ed
b ound
c offee
n es
if t
right s
av es
light s
produ ction
T er
ch ed
ick et
S E
n é
as ing
sp ot
econ om
ck et
ta il
cre w
hu ge
mo vies
bur g
ar row
per cent
move ment
chang es
se le
S tr
v or
th o
was h
W il
l f
The ir
His tory
C ould
sto re
cent er
Th ose
help ed
i tor
wonder ful
Ital ian
Par is
n ut
p ig
op in
off er
spo ke
ilo so
M ike
r ub
ab s
vis it
v ot
bot tom
G O
s ens
d ata
p un
us ion
ck ed
knowled ge
O ut
i als
18 9
wer en
Ma j
M AN
S at
sc ared
B ill
M ag
in te
for ced
sto ries
ele ction
r ation
fa ith
comm it
e k
g ro
n ation
r ide
s ac
sound s
H on
I ran
o v
de mand
our s
bl ing
put ting
aw ard
Jo e
soci ety
M id
S a
call ing
en vironment
Be fore
success ful
let s
ren g
aw are
start ing
acc ident
polit ician
O ver
p at
ne ck
ce an
min us
care ful
spec ific
B ig
P E
wor se
200 4
I m
o x
use um
wal ked
train ing
A ward
ar rest
for th
dist ance
lear ned
prin ci
K ar
k n
G E
grap hy
Oly mp
cho ice
decis ion
A no
four th
offic ial
Cent ral
birth day
no body
Sup er
con tract
let ters
Ch in
av o
Lo ve
G irl
L aw
th irty
ll a
tr uck
min istr
cre ate
g s
Cath ol
e en
ch ick
most ly
par k
S ing
p air
t all
ex tre
yes terday
cap t
3 1
c ow
h all
3 5
M et
d ouble
ac count
im press
do cum
a ign
l ord
in n
re view
ang ry
H old
com ed
200 1
mo on
Thom as
M ur
T im
e ch
n one
20 20
form ula
cr ow
school s
H ur
belie ved
oc cas
R ad
u k
re pe
Min ister
ide as
ict ion
meth od
8 0
c ities
plan e
m um
on a
un iversity
om en
the ory
li ked
est s
event s
Ano ther
S ou
g ree
h un
ent ial
fa il
An ne
T or
g lo
an cient
se ction
sp end
em ot
‎ .
us ual
Ar my
Every thing
blood y
st ars
ic le
St u
On ce
bus y
ru le
A p
Car ol
P yr
li ament
sk in
ene my
mess age
immedi ately
after noon
K ore
it ude
ro se
Pr in
dro p
Ital y
estab lished
D ay
st reng
ab les
if f
love ly
sou l
M at
S H
co de
il ities
there fore
dis ease
ser ve
201 8
far m
Pro vince
Pr of
v ere
sc ri
Can ada
Cong ress
gu ard
hold ing
fight ing
con du
wel ve
. '
7 0
z en
ha bit
A u
S us
op t
pur pose
Ke ep
Y o
t ur
bo mb
contin ue
fort un
e v
lot s
arri ved
L O
l ink
s light
sa il
ash ion
b io
um mer
fa ult
Do ctor
As soci
discus s
Roy al
earli er
d ish
ut en
we ap
B ye
E le
n ur
er o
sp ring
Al right
Le e
W ow
b ing
for ces
wel come
fe ature
terri ble
cont act
4 5
J ud
as ant
am az
201 7
Span ish
G reen
p ound
al o
it ation
ac qu
ose ph
A K
we ak
rel ated
no logy
sat is
Lou is
K ent
U nder
al ed
k in
ar a
he at
18 6
u ll
in ct
set tle
Ac cording
mun icip
( )
j ump
m ate
dire cted
system s
W E
mo del
sign ific
M other
Per haps
appoint ed
k ick
ye llow
pol icy
d eter
ab solutely
P hi
e mer
p ical
s ides
pr ice
O oh
sh ire
part ner
Scot land
relation ship
B ay
i val
é né
own ed
fl owers
his tor
pract ice
T S
T ex
Z e
es cape
sh own
inter national
commun ic
invest ig
ar ies
se y
ber g
sign ed
pati ent
act ing
corn er
S aint
ele cted
Bo y
L at
la unch
leav es
camp aign
T ony
in i
ex ecut
King dom
mach ine
c red
the e
ist an
ator y
resp ond
min al
tell s
wal king
grad u
al i
We l
sc reen
set t
anti ques
extre me
F re
S how
ar i
est y
ph iloso
med ia
open ing
cor rect
relig ious
le ep
fun ction
j a
un less
D el
V er
d é
n ers
Pyr éné
Pyréné es
I L
n ic
w ound
ive ly
call s
To day
fi ed
cra ft
N E
p ounds
miss ed
fill ed
bey ond
B ra
ed ge
f ant
pl at
la id
Atl antiques
f ashion
cons cious
stit ute
bri ef
con stant
ho le
kind s
serv ices
tw ice
O ld
ap s
gr own
leg s
dog s
I F
w inter
des er
rele ase
F our
c ars
dis covered
grow ing
t u
sc ar
an o
al d
dro pped
fif ty
j ack
fe male
has n
sing er
imag ine
de liver
w ing
be g
no se
coun ter
pre ci
aver age
W estern
ac cording
sold iers
ch all
st ream
pos sess
mater ial
L ife
en ced
and er
li a
ach ie
cha mpion
Some times
hous es
H all
ro t
new sp
ma id
big gest
B re
F red
ro b
Al though
high est
produ ct
opportun ity
M ill
sur face
current ly
9 0
c it
i red
l or
ent ered
art s
sym bo
A ss
L ittle
S il
Com p
dri ving
Chin ese
B ab
am ed
aren t
H al
b read
r ay
doll ars
n u
v ice
to t
ain ed
any where
200 3
Coun cil
f ra
vict im
fol k
v ia
li ft
fore ign
memor y
p ill
li ber
ul ations
ris k
. --
E li
S ay
s an
ind ic
min ated
Ro ck
pl ants
issu es
danger ous
gard en
b asket
i ves
old er
De mocr
relig ion
T ime
sp read
Some thing
Pr ince
origin ally
epis ode
R ay
bo ss
think s
und ers
pr oud
Sh ut
fre qu
mist ake
D a
G ar
H as
w ine
ri e
pos itive
cond ition
Bro ther
ain e
will ing
br own
t welve
sur vi
defin itely
luck y
neg ative
i us
in j
small er
eas ily
charac ters
in no
com mer
dire ction
is ters
wh is
res our
ade my
str ate
200 2
through out
team s
, --
r ange
am s
te mp
miss ing
pict ures
Sm ith
E mp
S un
ir on
not ice
z ed
my ster
sur round
ors es
! ”
N A
b its
v on
sy mp
re ve
ri ous
ex pected
ang le
indust ry
F ine
I r
k o
se c
il es
Ch ic
gen cy
dut y
p he
play ers
cent ral
sol ution
5 00
b ac
th in
ed s
st re
we aring
qu al
includ es
lead ing
remain ed
c ate
ag reed
uck y
tri p
fac es
particular ly
electr ic
B O
ut ch
rul es
Cathol ic
Associ ation
ast y
cour age
Jack son
A Y
N a
br and
B a
N ext
g ather
for ty
de fe
de gree
ti ght
bo ther
keep ing
h ide
se curity
y an
he llo
est ival
cri me
claim ed
C ro
H y
R u
cont ent
18 8
Prof ess
B est
F uck
L in
r ank
cult ure
mention ed
S to
l ack
II I
k ins
r ush
re fle
ad o
sw itch
y ard
ci vil
streng th
I R
P et
S and
me tal
co o
ra ise
oc cup
P lay
S pain
main tain
D ou
R ail
v ote
Bo th
G or
P ak
Y u
f light
p i
gr ave
pre vent
trave l
Chic ago
C E
fo cus
he aven
tr ick
iz ing
emp loy
Hel p
ch er
ch oose
per or
ty pes
ord ered
crit ic
uten ant
you th
mo b
Ch ief
head s
dream s
jud ge
slow ly
e ld
sto ck
Ro ad
ific ation
pick ed
fing er
formula _
m ere
al ing
are t
con cept
um ber
AL L
M ass
t es
st aff
ag ing
20 21
law yer
zer o
egg s
sour ce
3 6
S und
c ere
in stru
ver se
pro vide
20 19
act ions
stud ent
partic ip
3 2
j am
de mon
di vided
lar ger
design ed
C le
r it
pres sure
ta pe
ash ed
bre ath
H aw
m ary
id er
wor ried
plan et
brother s
oper ation
hon or
L ady
M el
N ice
d im
g ate
ye h
power ful
Tr ans
L ake
a ur
d rew
on ed
ma il
Co s
main ly
Com mun
cor por
individ ual
Tex as
O ff
ro of
produ ce
exp lo
B ud
li f
add ition
south western
Afr ican
quar ter
deter min
o st
Al so
itch en
record s
compan ies
tot ally
S O
ad es
sing ing
prom ot
gener ally
perfor mance
signific ant
iver se
influ ence
U R
as es
st ro
se vent
sa ke
Christ mas
ordin ary
Gree k
H uh
i ot
re quest
ple asure
big ger
cop y
tro ops
tee th
L y
N at
t aught
be comes
ve y
St ar
emp ty
Indian a
Prin cess
as y
it ar
cond itions
cons ist
wed ding
co hol
Ro me
sm art
Ar ab
report ed
Rus sian
stor m
temp or
( ,
L ong
me asure
was te
... ?
record ed
re placed
med ical
Se cret
comple x
cast le
step s
M ont
T al
n est
in str
am i
bl ess
spe ech
k ne
et c
pl ans
ist ics
F ort
l u
w et
mo de
per formed
bit ch
199 9
medic ine
; /
I V
l oud
ar ily
arch ite
bas ically
anc is
C all
sm ile
rup t
but ter
od d
fl at
Ma jor
le ct
ob viously
p in
con vers
fin an
wit ness
Maj esty
oo m
In ter
off ered
event ually
rep lied
Champion ship
H ot
L os
h orses
co at
po ly
clear ly
B ang
L ater
e li
as tern
... "
ph en
ow a
ur s
cal m
Ph il
descri bed
compet ition
O pen
e vil
n ative
id ence
ul ous
par te
B ack
C ast
st uck
be coming
kill ing
pain ting
L ine
p ool
ve ls
sh i
tr ay
concer ned
feat ures
M ake
b id
f right
ne ither
St ill
fa iled
sha pe
ou red
re ck
to ol
as c
You ng
act ress
great est
Jim my
E gy
T ri
re mind
it a
inter view
hand le
prep ared
s ia
me at
ad ministr
pro vid
ard on
cr u
anc ing
parte ment
s am
but ton
nor thern
hot el
one l
con cl
nam ent
Cl ub
cry ing
3 4
T y
w ow
res ults
qu ire
room s
stru cture
dé partement
M en
d ar
go al
sh out
break fast
opin ion
m n
ap plic
offic ers
cit iz
E ach
k itchen
l an
man ager
ul ty
pro gress
str ug
Br own
cir cum
T ai
me chan
con tr
fo ld
Un cle
great er
Ac ademy
sex ual
proper ty
r are
t aste
ch i
po ll
sa ved
af fe
bu ried
cont ribut
S C
r um
in y
li kes
im possible
po et
com plain
So vi
hur ry
Gover nment
bl ind
stu dio
o my
re me
ll er
pe l
no vel
TH AT
sho es
reason s
p apers
v ation
stand ard
Fr ancis
real ize
stu died
adv ant
D or
H O
f lying
r ang
we ird
sc rew
start s
lear ning
trad itional
W ood
d are
f are
l unch
op pos
fl ower
pal ace
direct ly
cam era
H E
M ah
d ete
g al
r ise
s had
w ick
so le
li ps
ant a
run s
surpr ised
gentle men
; &
th ick
be ach
un cle
Sh ar
tech nology
' .
dr ag
comfort able
W omen
it z
ic les
art ist
wor st
val u
eas ier
Je ff
Mex ico
A B
I owa
in ing
belie f
second s
S on
s que
qu ality
bre a
az ine
build ings
Foot ball
Emp ire
6 4
l N
s illy
sc ream
Is lam
cons um
dec ide
hed ron
D ire
F il
c ise
m ut
can cer
ign ed
vi li
appe ars
incre ase
surpr ise
l at
v ac
po cket
ap preci
cli mb
municip ality
al cohol
be ha
dr inking
18 7
constru ction
3 8
S hi
p ian
fl ow
ete en
net work
recent ly
I M
p ite
en ing
our selves
act ual
aw a
dist ribut
sleep ing
fro g
D own
im age
tell ig
arent ly
3 7
F ar
as leep
Re member
Americ ans
sme ll
C la
e e
pro vince
cr ack
Se cond
law s
suc ceed
jour ney
H an
f al
g ue
p atter
s or
ow e
ac he
ct ing
sy n
199 7
N an
b at
che m
Mus ic
Bl ue
Profess or
. ]
ip s
18 5
Mart in
docum ent
O ri
U T
W on
t end
un it
vent ion
199 6
199 8
sho re
lad ies
hung ry
me ter
dr unk
turn s
stay ed
Every body
sil ver
t un
cl es
coun cil
organ ization
separ ate
Gover nor
amaz ing
c ash
m itted
fore ver
Fr an
multi ple
L D
ou l
Po pe
listen ing
th rew
gr ant
ans as
cost s
jour nal
Sat ur
Comp any
G i
whe el
sold ier
avo id
r ated
pro ved
ig an
ish op
Ar t
prom ised
fre ed
cent re
cre am
Pri me
ffic ient
R B
S w
is to
as ha
Ca use
Act ually
c ards
im a
av ing
Can ad
cho col
loc ation
D E
K o
l it
p ure
s ar
u me
re ven
mo tor
de light
possi bly
dress ed
exc use
econom ic
Sovi et
A gain
T urn
l en
p up
re quired
sa f
str uck
B on
D en
L ie
b ury
pre vious
Is n
plan ning
langu ages
fav our
Sund ay
J ane
is her
bu b
broad cast
favor ite
O b
e per
p il
st ret
Wh ate
lo ves
bo dies
St ay
program s
Any way
appear ance
spl it
V an
e ars
own er
real ity
rock s
sport s
U K
W ay
t ough
u fact
w ake
pro of
turn ing
L ast
to ms
fr uit
sch ol
introdu ced
Whate ver
C amp
M em
z ing
st al
ch os
un its
di vision
ple ased
-- &
num er
har m
phys ical
S ub
W atch
ac es
ad ed
co ck
Car ter
Ken ned
O w
al tern
be th
pl a
Se a
trans fer
beaut y
spo ken
Ange les
M i
and a
lo sing
te x
man aged
gr ass
pre fer
sol ve
responsi ble
3 9
L ight
br ary
sc en
find ing
trans l
win ning
Sus an
stre ets
F C
L is
O x
S l
w ave
th s
al ty
de b
cy cle
smo ke
S qu
k m
et te
un ivers
ious ly
Par liament
Cent er
P enn
m ap
t ick
per form
trans port
mic ro
nin eteen
destroy ed
Rob in
rout e
S ho
me as
No body
ris on
sou thern
fix ed
M ich
ve h
de but
state ment
app ing
B or
we alth
oo h
sh irt
199 5
Ma x
J ac
d irty
to ward
be gg
do ors
sc ale
independ ent
Kenned y
C K
re tired
un iverse
red u
si gh
after wards
sc he
dra wn
arr ange
conne cted
H ans
g ay
af ford
mar ked
Fr iday
gi ant
rel ative
hard ly
accept ed
treat ment
EL L
F ed
f ought
ti re
So ci
bu ll
show ing
understand ing
fall ing
comed y
F ive
b ast
not iced
res ist
Le ave
Com mand
human s
F OR
W ind
ci vili
dy ing
ser ving
min ister
az z
sweet ie
C are
c ous
g ers
s word
ri er
feel s
tri al
Scott ish
o logy
t ong
ha mm
ap t
Brit ain
e th
re quire
hi b
lim ate
audi ence
3 3
4 8
G al
se lling
ot a
com plic
produ cts
Every one
bot tle
, '
D aw
j ail
ou p
Th ink
As ia
ste in
bra ve
Di vision
G R
G y
R am
W o
p red
gh ost
quar ters
neigh bor
occas ion
C ur
R ose
p her
ag ent
ant ly
St ation
Did n
laugh ing
activ ity
finan cial
S wed
d an
d ess
s in
on ic
ar med
est im
af fair
dr ama
help ing
Dad dy
cand id
r ab
v ous
as su
un ion
had n
af fect
Ch ild
gu il
199 4
ER E
Dan iel
thro at
N ick
s kill
pr ince
C lar
co al
port s
Tom my
laugh ed
Dam n
unders tood
K at
R un
ca ke
ge ant
act ed
AN T
drug s
Canad ian
" ?
t il
re lie
al and
bre aking
matter s
wall s
chem ical
B at
S ummer
know ing
king dom
Ch uck
pu lled
Sh ould
ball s
Satur day
A y
J oseph
S it
v est
sp in
Sh it
tar get
fing ers
Val ley
saf ety
D utch
P ac
the ast
ain s
um ents
min or
nor m
young er
job s
temper ature
manage ment
Lat in
m ort
y ing
im prove
man ufact
ct ic
199 0
Some one
fi red
swe ar
Rus sia
GH T
rail way
teach ing
tin y
C e
V e
W ater
Mo ve
eng er
bar r
polit ics
cir cle
Ear ly
entire ly
S I
T en
pl ate
res er
ti ed
sp here
199 2
G ri
I re
M ir
l ab
ch ant
et ch
Mar ia
Ho ly
sil ence
sett led
cere mon
9 9
K oh
ay e
op h
ass um
iss ion
198 0
remain s
fif th
gentle man
crow d
thousand s
tour nament
psy cho
W all
i tors
j un
re moved
ad or
ke ys
ce l
wo re
dr am
hon our
b are
j um
se es
ad vent
An n
chocol ate
L and
bring ing
gun s
Eli za
oppos ite
l van
t ask
at re
act s
199 1
mus ical
defe ated
C ra
M ountain
e qui
r and
du ck
Ar ch
pass ing
bas ic
del ic
enter tain
kn ife
Met ro
symbo l
V ER
en ge
Ch an
dri ver
exp ensive
lim ited
cell ent
forgot ten
detail s
T R
U GH
b in
the tic
re ign
ut ions
-- "
ys is
Ju li
ef fort
attack ed
rap id
C ho
M um
T re
an x
ent al
pro ceed
qu id
aw ful
set ting
rece ive
C as
R ural
S ur
U L
f aster
s li
t ts
w itch
ir k
tr ail
pro vided
sel s
every where
col our
jo ke
199 3
Who a
cal cul
comple ted
colle ction
author ity
Sou thern
R ick
ac com
com ment
some what
mar ks
night s
que en
A sh
B ad
an i
not es
mon d
Con stitution
Austral ian
estab lish
cred it
C i
D un
M ust
T ed
in tellig
man ner
don s
hamm ad
A pp
S ix
al es
st ances
car bon
sol id
slight ly
newsp aper
convers ation
3 00
g il
l abor
ple asant
clo ser
high ly
match es
major ity
draw ing
advant age
H or
w is
ic ts
id ing
tr af
est ic
ap ple
su gar
ach ed
contain s
chick en
b ang
t t
tr ou
ca uses
De ath
Har ry
Secret ary
traf fic
7 5
A wards
T ele
u als
u yeh
use ful
good s
pri me
tre m
A ri
ach use
dis ci
att end
Fr ances
press ed
Gr oup
allow s
shoot ing
sco re
pun ish
P S
S pr
T own
th ur
pl ent
feel ings
keep s
stat us
Republic an
commit tee
achuse tts
g all
p ha
bl ank
ick s
pres ence
Geor g
gold en
is l
ag an
lo m
br anch
hel ps
rest aur
pass ion
Je an
extreme ly
Mass achusetts
o cean
stu dies
cus tom
chang ing
Dep art
A A
K ansas
S i
re comm
pri or
plan ned
hor ri
LA UGH
H ung
g ang
v ine
spe ct
trad ition
fif teen
Pak istan
beha vi
lvan ia
ex er
ex cl
min ation
eas tern
ON E
represent ed
prin cess
vic tory
Wel come
guil ty
t one
w ings
ar ian
ch est
ele ment
mix ed
Mich igan
Soci ety
F ire
G ames
ad s
cl oud
fl ag
suggest ed
Vic to
H mm
N az
w rest
at tract
cha in
Carol ina
G ra
K im
are s
Bo ston
field s
bas is
hang ing
D ave
T ry
St and
adv ice
B as
T am
es cap
ro ot
qu it
has e
sha me
Ho me
Cl ass
Pri ze
benef it
commer cial
P en
g ment
str ict
vis ions
Ad dons
def end
is y
no ise
port ion
north west
resour ces
B es
c ute
um n
other wise
back ground
part ies
ste am
perfect ly
Sen ate
express ion
G ard
T oo
V ol
me al
up stairs
kill er
dam age
fle w
roy al
whis per
n arrow
v y
as tr
for ts
ri g
we b
In stitute
Oh io
St an
sc r
Br ad
award ed
L ar
br ush
care fully
occur red
chos en
Depart ment
V en
c ation
ak ed
des ire
sign al
exp and
4 4
H ad
N ight
h es
h ook
st ations
oo ps
should er
198 9
present ed
watch ed
fed eral
P O
j an
z o
in sur
de vil
work ers
Re cord
inst ance
conne ction
bud get
B road
P ete
T ra
d ancing
p y
me l
con cent
ian a
ob tain
loo se
John son
remember ed
Sha kes
En ter
neigh bour
Olymp ics
M az
ad mit
up per
gr av
hear ing
fall en
Any thing
. )
M hm
le ague
qu ant
Ar thur
par al
Ex actly
effect s
ric ane
bill ion
cab in
shar p
D om
S c
g ift
w are
te ars
gover nor
exc ited
freed om
p it
w s
w id
th ri
pro test
And rew
gl er
sign s
grow th
respon se
Shakes pe
O ffic
S her
S el
r ick
r ug
re action
st ated
ac le
di ag
mag azine
A unt
E ll
G ame
R on
i ation
th a
at ers
at om
be er
just ice
che ese
ele ven
incre ased
carry ing
famili ar
viol ence
decl ared
Shakespe are
" "
E s
S PE
V o
ch ing
co re
gr ade
mag ic
teacher s
mountain s
Penn sy
Pac ific
Koh gil
Kohgil uyeh
4 7
l aughter
se vere
son s
col on
la x
Ed ward
bul let
fortun ately
Bra z
fra me
F am
S B
ve ctor
gu itar
Ste ve
bes ide
nin ety
kno ck
F ree
he ight
uni que
A li
b one
h orn
ic king
dis co
head ed
sha red
Fo llow
Su ch
Hur ry
Kent ucky
4 6
G il
h mm
p owers
t ap
ly n
for give
gr ab
dr agon
thought s
vis ible
Or der
William s
achie ve
norm ally
A sian
P u
b ene
p itch
ad vert
wor n
ind a
So on
cha p
cept ion
inv ited
hid ing
histor ical
tempor ary
Ire land
d ust
f urn
up set
ind u
ish ing
di vor
Sh all
fall s
dro ve
fan cy
plent y
J ones
c limate
m useum
v ad
po ison
ul ate
res ent
bl ame
av a
ma them
198 8
kid ding
fac tory
fig ures
da ily
fail ure
Democr atic
4 9
K u
M P
M useum
l atter
s lo
v ig
pres er
Br and
jo int
stay ing
bur gh
uni form
capt ured
" ).
5 5
E du
F ound
G reg
H it
P ap
r ant
con ference
support ed
mot ion
A my
C at
E h
T u
she ep
see k
pres ents
Al ice
wind ows
Em peror
fed er
b unch
p ow
s ust
ter ror
om a
wr it
des c
atter ed
follow s
Look s
197 9
stru ct
fair ly
Sid ney
sac ri
scri pt
Pennsy lvania
r as
s ie
z es
in habit
ed ing
au to
sup ply
oper ations
prote ction
vari ety
pian o
C y
Y et
c ig
u x
v ive
on ia
en do
st ab
st able
ch uck
we et
some how
organ is
god s
to ri
he av
198 7
class es
sil ent
adv ance
NO W
apo log
inte gr
K ong
W end
p on
ent ially
un known
con fl
pro pos
dis appeared
des per
tre ated
sle pt
pay ing
b order
p urch
as ide
ic ide
ust ration
Ye ar
str ing
ste el
eat en
lock ed
Mid dle
inno cent
Cast le
Lie utenant
tong ue
M A
l one
m ig
r ings
in ch
pro posed
old est
inc ident
associ ated
C ross
b ite
r ance
me ters
ak i
inter pret
pur su
squ ared
stri ke
sus pect
scient ific
launch ed
H ard
T ro
d un
g am
r ice
or ange
as pect
art ists
pre gn
pre viously
pri ze
log ist
list ed
sk i
C D
ab and
br ide
che er
produ cer
198 2
sal t
anal ysis
Tim es
settle ment
K ill
di p
put s
cle ver
Ad am
prof it
ches tra
Kore a
feature d
mob ile
ch ose
so il
ple ment
hol iday
beg ins
I E
I ON
J en
f ile
p ink
ro les
oo th
ho mes
pri mary
ner vous
mb ly
198 4
ond s
arrest ed
S ong
Z ig
or m
ve get
Th us
ren ce
att ended
cy cl
Atl antic
pati ents
glass es
Lin col
dar ling
Wend y
4 1
i to
i res
to wer
ad van
us er
em barr
aw n
An na
mor al
gener ation
tw are
chan nel
bast ard
F L
G a
H ol
ang ers
pri est
sha ke
appro xim
Bu ll
cross ed
mater ials
embarr ass
L augh
P op
m ama
le an
end ment
19 th
ma xim
Is ra
18 0
friend ly
real ized
Nor thern
six ty
Ser geant
exper iment
basket ball
determin ed
Lincol n
A k
H A
I sa
W in
k it
w ich
in vent
ul tim
tor t
sto mach
sch ed
boy friend
lead ers
season s
plat form
B ank
W O
t um
comm only
eng aged
Com mission
mm ing
Ad mir
ju ice
Bab y
Ir ish
insur ance
E astern
m ud
hold s
incre asing
profess or
conf ess
agree ment
suffer ed
suffer ing
responsi bility
weap ons
instr ument
SPE AK
M O
P ic
T ING
t ub
is try
ad ium
ti ve
ah o
ak s
di a
ang ed
198 6
burn ed
exist ence
hop ing
weap on
philoso phy
K han
al ous
gr ace
cr ash
pre par
je cted
char ged
197 6
fac ed
Wal es
econ omy
Jac ob
l ake
on line
il a
pl ot
gu est
dis cover
thr own
town s
wonder ing
hundred s
crit ical
health y
Vi et
arg ument
Bes ides
4 2
de lay
app arently
activ ities
apart ment
I d
T ha
b un
p ul
le vels
king s
happ iness
comm ission
Le g
198 1
week end
fort une
Ass y
circum stances
Fil m
appreci ate
B attle
F estival
U r
b atter
o logical
ur ally
con serv
con sequ
br ings
ph r
fil ms
Fo x
P or
v it
re place
ar gu
st a
am b
am an
ul ated
res ident
got ten
may or
stand s
AR R
Te ch
Je wish
rid ing
sal es
serious ly
ffic i
sus pic
Ci vil
K a
K er
g ust
re mark
art icle
girl friend
cap ac
offic ially
lN G
Eliza beth
pow der
S of
c ue
not ed
con ce
John ny
press ion
AR E
ches ter
Dan ny
Em ily
fal se
E P
W ere
m ers
n asty
w ished
ad op
mo ves
con ver
ig er
good ness
ear ned
ug ly
point ed
pain t
contin ues
Dire ctor
9 5
B rian
R ac
l ap
m ile
re lax
ment al
too th
int ended
hand ed
find s
197 1
app y
lim it
Ser vice
Zig gler
F air
W ant
is lands
or a
st ones
fe ather
wor ship
che ap
appro pri
recogn ized
( ;
g ie
li brary
ir a
br id
-- --
dis play
Be ll
cont est
198 5
photo graph
Jer sey
O cean
S even
T op
ing u
ist ed
who a
hand some
Con feder
vir t
cli ent
tech ni
comb ination
Ze aland
4 00
C er
K now
T wenty
Y ep
h unt
ol a
fl ed
fl ash
vo c
15 0
Cal vad
wa ited
Ox ford
Calvad os
B ook
D ie
F all
G rey
N avy
R yan
o graphy
p atch
p ension
r d
sol ved
197 8
rid ic
wound ed
H and
e y
e volution
Un til
mon t
For ce
add itional
repe ated
cous in
c ats
s ion
comp on
ult ure
sur vive
Col onel
concer n
sen ior
chall enge
B A
m art
in fl
re nd
or ing
ac id
man n
ex change
av ar
od es
An ton
bit ter
sent ence
tech n
ref used
hun ting
B ush
m am
at mo
st ir
st ress
sh al
au tom
ef forts
EN T
C ab
L es
d ers
er k
so m
mo d
bre ast
import ance
hid den
m ood
z ation
en em
to ries
ic ated
do min
do zen
ci a
dist ur
Alex ander
assist ant
l on
t ank
po em
min im
Ro ger
ather ine
refer ence
recogn ize
lli ant
Rad io
L Y
T an
n ap
st y
se ts
se cut
wh ist
ex ped
ig no
form al
Com mit
sit es
196 4
fish ing
Pol ice
decis ions
Viet nam
M un
T on
t ack
ac coun
con vict
ob vious
ele ments
cap able
pret end
Ho lly
Sim on
Tur k
liter ature
F a
est ate
197 0
sort s
Gu ard
effect ive
A is
B us
B illy
K h
T em
X X
h r
l ion
he im
we bs
fl ood
dr um
Er ic
197 5
Ber lin
creat ing
sevent y
' ,
E ver
U P
W ol
p ity
mo le
sh ook
con vin
ak a
sure ly
Bo ss
cus to
Cha ir
bene ath
6 5
P erson
W he
d s
g reg
n ick
u le
u ries
de ck
pro ced
ex cellent
di et
Re volution
gre es
With out
dark ness
terri tory
Sar ah
Du ke
J ill
e z
f li
se ed
ag ric
un able
ant e
bo ats
per ial
comm itted
New s
Com mon
gar age
Egy pt
complic ated
. [
N one
d oo
i as
p ages
id iot
we igh
att itude
cer t
incre di
refer red
6 7
F ri
P ower
g ian
she l
sp are
pos itions
cre ation
ER S
Bo ard
cri minal
appoint ment
hib ition
1 st
V ice
v ul
v ity
in sp
ow l
ear n
val ues
bur st
Mon day
proper ly
explain ed
sele cted
communic ation
Commit tee
M D
P R
de grees
pl astic
br an
spe ctor
Good bye
197 2
197 4
win ner
deal ing
concer t
Sup reme
nut s
C T
C ub
G lo
L ab
N ar
S wit
T est
er n
re m
to i
as sa
over all
sho ck
Er as
Col umb
Mic hel
Roman ized
scient ists
enem ies
N ic
p ent
r hy
as ion
gr at
197 3
oper ating
emp ire
wood s
touch ed
Ber n
Swit zer
K al
M S
S ab
d read
f ate
s lip
ou ri
re tire
ro l
20 th
ph ant
hi red
Be at
Is lands
col ors
ste al
hard er
198 3
six th
ger y
near by
mill ions
train ed
IF A
scar ce
disci pl
] .
s ale
the me
Be ach
comp ared
reg ret
196 9
buy ing
report s
u ri
be ast
su icide
she ll
So cial
cr uel
sup p
reg ister
Tr ust
pain ted
dom estic
belong s
schol ar
rand om
Switzer land
4 3
C L
J r
N et
W r
no d
di am
ree k
med al
Coun t
ai red
dep ends
organ ized
commun ities
tru ly
Wal ter
sof tware
citiz ens
Record s
P LA
W ork
en cies
le m
com posed
ca hedron
ex act
when ever
sp ending
De ar
Po int
equ als
fle et
creat ure
liter ally
eld er
Francis co
horri ble
Maz ra
k ilo
s isters
re volution
Co ast
Ne ther
Just ice
fun eral
196 0
rul ed
Sen ator
patter n
Eras mus
" ),
B asse
D in
T our
a unt
s ne
at tr
or ies
ro de
ent ed
wi re
ag u
no minated
In stead
ak h
dri ven
road s
close ly
CH AP
paren t
boo m
Tur key
Mazra eh
CHAP TER
G oo
O per
a id
c ular
in fin
re put
im ents
ti p
wo ke
per man
Char lie
German s
Bet ty
emer gency
Bud d
G un
P ers
k h
l est
ter ed
ce ler
ak ers
ile y
du de
Mar g
organ iz
eight y
chall eng
advan ced
F IFA
m ant
He ad
ex plan
ep ing
sto le
ob served
dec or
Nor mand
196 8
Ah mad
bor row
.... ....
swi m
Phi lip
numer ous
H un
K ur
b ones
st ance
ad vis
are st
sa ving
19 30
pos es
high way
cha mber
view s
descri be
enjoy ed
imp act
independ ence
Georg ia
B ah
I P
m ates
p ants
swi mming
bud dy
review s
investig ation
inj ury
instru ctions
applic ation
Wo man
Child ren
Victo ria
A ye
B S
L ES
h ast
ir ing
Th rough
un te
ill ust
Br ing
Le on
Some body
Car l
OU T
contro lled
Qu ick
satis fied
sec ure
M ind
R ab
se as
ad el
et ic
um es
An im
air port
je ction
ris ing
met ro
tit les
burn ing
fol ks
tool s
M od
l ung
to ys
ed ition
he m
ip ment
la bel
vol ume
rel ations
197 0s
gre y
record ing
train s
strong er
coo king
G re
J ess
N i
T A
an ne
ot ic
am ing
tal e
ange l
air craft
serv ant
met res
oper a
track s
Gree ce
regard ed
affe cted
adop ted
H ong
U D
g ig
g ory
t ag
ch art
tal ks
gl ing
bad ly
lad der
bal ance
lone ly
F u
G ro
H aven
M Y
T a
t icket
w aves
re form
sh ine
rom antic
fu el
vis ited
sm ith
par ish
sl ide
possi bility
hy dro
Miss ouri
pract ical
fright ened
Command er
appropri ate
B ha
I ra
S S
T ot
T ang
p our
ac tors
pl ed
cent uries
appe al
leg isl
197 7
Me an
exc iting
stat istics
Wil son
method s
Kore an
Off ice
atmo sphere
Columb ia
9 8
H ay
J un
O liver
P ublic
b ike
in come
li ar
co vers
cr is
ident ity
je alous
196 3
issu ed
pot ential
engine ering
inte l
restaur ant
webs ite
C ON
S ud
t ab
w and
in fe
ti ans
pro vin
tor n
gl as
app ly
mag n
check ed
diffic ulty
dev ice
indust rial
environment al
succeed ed
6 8
B an
B BC
C ut
G on
p ale
v ain
ack s
ult ural
app lied
Man ip
ann ual
194 5
necess arily
reve aled
ridic ulous
F ind
N umber
R od
s ending
t ender
y ards
be ating
ad ult
ag ues
gr ate
ens es
Con ne
cor respond
Bang lad
D ON
M orning
i est
un usual
sh ed
ud ed
des ert
pu zz
bab ies
Pro bably
exam ples
Po or
Ed die
inst all
cult ural
Dis ney
A V
O t
en de
ac cur
ac celer
op posed
itt y
equ ipment
Sy stem
gain ed
Stu art
opt ion
surround ed
pi pe
shad ow
Daw son
Ais ne
A w
S cience
b age
g ic
se m
ul ting
age ment
pr on
interest s
Ab solutely
eight een
fig ured
impress ion
Swed en
Fam ily
" ...
B i
W ed
b ust
th ir
ne ut
ex pl
than iel
ear ch
Pro test
196 7
emp lo
cu rious
author ities
shop ping
Gor don
paral le
B Y
L uc
T ar
T enn
g ur
on om
re ward
ag ger
de mocr
Re ady
Ind ians
vo ices
Te am
194 4
god dess
inst ant
Bet ter
WH AT
exper t
capt ure
scr atch
mathem at
Marg aret
K E
f ans
j ury
v ast
an na
en velo
ad er
sp ite
ens ions
cr own
lead s
conf idence
symp toms
9 7
C ir
M and
h ip
the d
be an
ro pe
ent rance
Th ough
de feat
res to
want ing
per mission
ask s
vers ions
des k
music ian
Ste phen
conf used
Ca pe
push ed
separ ated
Hu man
victim s
Dou glas
confl ict
H ang
st ers
ud es
How ard
clo thing
ident ified
sub sequ
cut ting
mal es
remain ing
laugh s
murder ed
mass ive
Li ber
block s
anal y
GR UN
dram atic
accom pl
D al
J ay
K r
ven ue
cr icket
Ro ber
Al bert
De an
Br uce
Con tin
add ing
196 5
194 7
init i
pil ot
assu me
M as
S k
e ager
o on
st all
sh ift
ath y
des tru
reg ions
ident ify
val ent
allow ing
bow l
Gold en
bath room
scen es
skill s
jum ped
R A
S in
U E
W I
oo p
com po
ho c
ph ia
bri lliant
mach ines
sour ces
sac red
reven ge
approxim ately
5 7
6 00
L ad
N int
R h
R el
d umb
t les
ke eper
am in
ass ign
gu ar
spe ll
Co le
cr ap
att les
person s
eral d
Tr u
fac tor
dra ft
Ill ustration
conne ct
veh icle
escap ed
B I
C u
O D
P ho
z u
ο u
in her
st im
ac ed
ri x
su ck
av an
Mar ie
pass age
sit u
hy po
Jo y
sw ing
doctor s
comb ined
doll ar
Tai wan
Chan nel
E M
T i
d ates
o bey
th ouse
is er
en cour
it ary
ro g
ch oo
go als
He alth
no ble
pro bab
str anger
mon ster
ph an
Br idge
Ar ts
Ar gent
might y
hor ror
arr anged
bes ides
study ing
Tal k
provid es
Won der
Nint endo
B all
b oun
f id
f asc
an cy
am o
ag ents
te l
con ven
ye p
ty pical
should ers
val ley
fect ure
dist inct
cu it
Pl at
YOU R
tro pical
Rail way
sust ain
inhabit ants
pregn ant
Nether lands
G ul
s ang
be c
ad mir
li pp
Th urs
she et
spe cially
An ti
mir ror
wide ly
distr icts
object s
Mu hammad
spl end
kno cked
deser ve
administr ation
disco very
Isra el
b ach
f lies
re in
es ome
ro s
was hed
ide al
comp ar
reg ional
leg end
tem ple
polit an
oper ated
exp los
fair y
ib i
worth y
redu ced
R i
S anta
s ought
ro lled
lo an
na ked
ph ones
ele ct
cha e
cop ies
hop ed
ceremon y
K an
T ay
b ent
ve t
ha ust
co ps
ne got
bl ast
sp an
An th
Ro ss
cons ists
Sh ort
colle ct
short ly
drink s
prison ers
earth qu
apo re
Sing apore
discuss ion
deliver ed
maid en
demon str
strug gle
H oney
M s
u ff
the w
lo ver
person ally
person ality
eng ers
ons ense
vide os
club s
invest ment
spirit ual
individ uals
benef its
wash ing
tu be
Edu cation
insp ired
A ma
F i
M ain
S A
li quid
con stitution
19 20
tor ney
aw s
ton s
196 2
Bl ood
Ste ven
program me
Rep resent
Grand ma
Tor onto
toi let
B uck
L I
o graph
in ary
an no
re ar
to ast
as er
it ure
mo ments
tr am
her s
ex haust
ask a
gen e
sha ped
heart s
sn ake
quiet ly
Dar ling
gradu ate
gradu ated
jack et
Normand ie
intel lect
grate ful
8 6
B and
F ord
M organ
T E
b ay
d um
w aters
su fficient
ra w
ite ms
gu ests
sto len
clo th
aught ers
cri pt
pur ple
coll ap
princi pal
mere ly
Phil adel
recomm end
bran ches
Philadel phia
8 5
P ier
re vol
to s
to mb
al leg
be tray
us s
He aven
ict ed
All en
De f
Ar k
ctor s
194 1
equ ation
sou p
Mill er
kne es
brea thing
relie f
Braz il
emplo ye
H im
P A
W ild
n it
p unch
v ant
le af
ot ed
ain ts
ex tr
St art
int on
Don ald
sur gery
AT OR
ext ended
experi enced
Cor por
Bro ok
Spe cial
nu clear
frequ ently
stro ke
archite ct
altern ative
neighbor hood
Goo gle
Thurs day
8 9
8 00
H appy
f ab
f estival
r ating
in ations
re move
ce ased
can o
int end
cr ush
Aust ria
IS T
grand father
answ ers
exist ing
kiss ed
Hon or
nur se
grant ed
Offic er
M mm
M ount
u gu
y gen
de bt
ill ness
pro to
let ting
iz es
dist ingu
iam i
step ped
def ense
dev ices
Mex ican
valu able
meter y
compo ser
6 6
S weet
m oun
in al
the less
at ically
en na
or row
im plement
de mo
pr ise
des pite
mind s
196 6
Po st
Ke vin
claim s
descri ption
phys ics
emot ions
Phi lipp
Cro at
B ul
W inter
f ond
in se
re ver
be gun
ad ing
um ph
sm iled
sm iling
Ind ones
list ened
cross ing
defin ed
load ed
execut ive
occup ied
A ld
A ren
E nd
J am
M aine
R om
c ant
k u
r age
s id
er ror
to y
le cture
be lt
ch at
ut s
con fir
dis put
mar gin
thr one
As se
child hood
198 0s
along side
oper ate
profess ion
Pal ace
glo bal
poll ution
punish ment
aband oned
explan ation
hoc key
D y
G all
L L
P ret
b ishop
z i
is k
Th ings
na thaniel
sp it
Ch i
dis gust
cre te
Con ference
reason able
late ly
195 4
cra w
mis try
Cent re
capac ity
8 3
E con
M iami
P ad
S ly
d ict
g ies
j oseph
u ous
le ap
im ages
sh r
sa iled
gr ay
red uce
pre h
fr ag
four teen
attack s
vill ages
champion ship
electric ity
maxim um
E ight
R illa
e u
f iction
s ul
u a
ó n
er ation
ag a
lo d
con qu
We b
St one
au x
lot te
pers u
ele ctions
dri ves
return ing
command er
Fin ally
gri m
sco red
pir ate
emot ional
strate gy
gather ed
Asse mbly
F ace
H L
L ive
L aughter
d ating
p iss
w oo
re ci
al pha
ch ess
us ive
ur ban
tr ic
colle cted
bor ough
shop s
chair man
print ed
archite cture
B ishop
F un
pre ced
found er
col umn
vo y
shot s
Does n
promot ed
pla use
candid ate
B la
H ook
M att
P C
T ED
W AS
b ie
d ated
ad mitted
co ordin
ab solute
de pos
bo ld
ho les
ia o
av ia
ob serv
under ground
Be aut
Ne il
par liament
As k
meet ings
Gr am
viol ent
forest s
abs or
Id aho
convin ced
F I
M it
O s
S ever
f isher
s per
t win
v ard
ed itor
te ar
friend ship
ele v
war ning
Mo on
bed room
Pro du
experi ences
bag s
Sil ver
lift ed
Haw ai
rab bit
D NA
b lo
d aughters
mer ged
car riage
atter ing
large ly
Pl an
Em ma
crit ics
Bet ween
introdu ce
hill s
init ial
HA VE
phr ase
exped ition
B R
C oo
P ress
P ardon
m ier
w ag
in corpor
en orm
ic ing
ha y
ac ade
fo x
mer chant
si ble
Co ll
line ar
195 6
clean ing
contain ed
Air port
pic king
nes day
asha med
Fed eral
heav ily
* *
7 7
N ine
P ass
S ports
g ross
r ics
ha b
And y
fo ss
sto ps
IN E
char ges
fi li
OU R
mis er
cell s
nat urally
bank s
vot es
isto l
Pic ard
B ible
H op
J os
M oo
O P
S ister
e ve
g az
s ink
th ief
im ate
part ly
pre cious
pol is
199 0s
pass es
Ho spital
appro ved
Roman ia
iv ity
beat en
possess ion
behavi or
Anth ony
C A
D ale
I ce
M ons
M US
S ally
d awn
j ing
m r
li gh
In c
land ed
less ly
vol unte
dist in
196 0s
test ing
president ial
engine er
subject s
Che ck
Spr ing
diag no
B ir
D et
H art
i et
w art
th read
be e
ent ry
am oun
ne at
now here
de m
de li
ess entially
pri mar
For get
195 2
195 8
tele phone
album s
Tom orrow
thes is
expect ing
epis odes
ox ygen
condu ct
wick ed
delic ious
probab ility
D em
E X
L ion
N C
N ARR
P ot
R et
S W
c attle
e c
h ated
i ving
se ats
op tim
ca using
ti er
di vine
ars on
dy nam
du ll
Re al
fr on
less on
six teen
fact ion
soon er
star red
Am ong
ament al
Mus lim
NO T
myster y
reput ation
Ira q
9 6
G ene
p se
in ent
al together
es ter
ic ia
pe e
il legal
He ll
ul ed
ber ry
ci ences
pos ing
hi re
fr ank
par ad
produ cing
OU LD
cot t
Har rison
pur poses
ues day
mess ages
Lu ther
prep are
Lis a
cig aret
L am
V is
c ough
in ches
an ium
ing ton
st an
ir ts
un a
ain ing
if fer
bu g
aw ake
ma th
coun ting
comp ass
pu lling
igh th
ext ent
Sy d
ky o
project s
coll abor
princi ple
docum ents
Sly ne
NARR ATOR
N ur
R an
S ame
i i
v acc
or g
and y
ob lig
ful ness
sm ooth
Ar men
gg ie
spo on
Bu ild
Cong rat
Hu gh
base ball
threat ened
fortun ate
histor ic
citiz en
pron oun
. &
B ase
B orn
M oney
N ay
a ud
c ub
v ary
y ield
in form
ro bot
ch im
et ime
us a
not able
ca kes
gu ards
sto res
att ached
being s
Nor man
196 1
class ic
among st
Intern et
Foot note
Ra j
negot i
Picard ie
2 nd
F if
U t
b ass
p ically
an ced
ad ults
con text
ra k
br ow
pre cise
De vil
differ ences
TH ER
cha mp
wee the
sho e
cover ing
194 8
US A
proper ties
ode cahedron
Jer ry
GE T
Camp bell
thir teen
S ave
S oph
r ust
the atre
is sa
is ol
di os
gu ide
cur ren
log ists
bus h
gg er
igh s
gover n
Ho pe
class ical
inv asion
har mon
reach ing
strong ly
Min istry
super ior
photo s
sess ion
Des pite
Girl s
sevent een
lat est
journal ist
invent ed
Congrat ulations
S ounds
V in
n ig
li ms
ag ers
un conscious
thor ough
bour ne
init ially
Fre ud
Egy p
9 4
C ard
K no
O H
P ur
Y an
a pe
h its
n arr
do l
un happy
per ce
Eng ine
qui res
cot ton
ix on
conf ident
join ing
associ ation
pir ates
Olymp ic
cate gory
exer cise
C op
d ump
e vol
j ar
ar c
ac quired
ri val
ag ency
art icles
end a
use less
pr ide
new ly
form at
inter nal
cons ult
uc king
spir its
develop ing
Christian ity
constru cted
regard ing
paralle l
3 rd
F A
G as
J on
K il
L RB
l ers
z one
to ler
he ars
so ap
ab ol
Th ou
sh if
back s
down stairs
int ent
stand ards
gen us
sing les
TH IS
gg ed
fi er
Ser ies
Ke lly
loy d
throw ing
ded icated
bac ter
mode ls
intellig ence
desper ate
Wed nesday
8 8
L ai
P itt
R RB
W WE
c ers
m ouse
in ju
re cur
en ote
en courage
ar se
ic ies
ha w
ro ots
li o
pe i
il ton
tr ap
pl ates
... !
fo c
where ver
lie utenant
Al ways
young est
dist ant
194 2
success fully
vir us
La ura
Pol ish
host ed
Pan ama
Sid enote
Mat thew
IL L
inj ured
techn ical
L iz
V ill
h ind
m our
n ations
r ag
w ars
the ater
en ne
es see
ac o
go sh
con stit
off ers
ren amed
head quarters
eng ines
194 9
gent ly
ru ined
Je ws
Su f
inde x
repe at
constant ly
sli pped
Holly wood
Tenn essee
Syd ney
B ri
C lear
N ed
N ik
b ars
e ed
s is
z oo
in stit
re nder
pe asant
sh ield
if er
res cue
off ering
int ention
ten ance
To kyo
top her
serv ants
AR D
194 3
194 6
195 9
Chris tians
abo ard
ulti es
tax es
arg ue
Yo on
myster ious
Follow ing
D er
F ur
N el
U M
b ilities
p ond
s na
to x
ac les
wi g
ri vers
out s
ne ath
ul es
ho ly
An cient
head ing
hur ts
195 0
wonder ed
prote cted
arri ve
priv ile
princi ples
rapid ly
writ ers
perman ent
F ield
K i
K NOW
W S
in ner
st ic
ot y
so lo
if u
sa v
ra ising
ble w
bu ck
ves sels
Be y
row s
move ments
Gr an
wish es
seven th
comput ers
express ed
Dep ut
utter ed
emot ion
newsp apers
relative ly
eth nic
organiz ations
confir med
8 7
C ook
N ER
S et
S um
W is
b is
c art
e co
p hase
re ply
es c
se ized
mo dif
op ens
ass igned
int ense
Un less
Ro llo
great ly
IN D
TH ING
Con serv
Col or
ru in
invol ve
exc ite
creat ures
dut ies
gor ith
Pat rick
fant astic
resour ce
primar ily
1 20
5 2
5 4
A z
B ry
E v
F at
L av
S lo
T I
T uesday
V I
d well
o li
p us
is en
se mi
ch op
co pe
po ck
em peror
wr ites
Be th
De velo
show er
pol icies
val id
gl ance
Mo z
cri mes
Gr ant
whe els
secret ary
sele ction
Ap ple
Jud y
distribut ion
Fran z
deb ate
advent ure
P rom
d ign
f red
y l
am id
ter y
ab ilities
con crete
comp ete
last ed
loo p
sl ave
hur ricane
ino sa
por ter
swi ft
opportun ities
Ori gin
bub bles
sche me
Clar k
assa ult
provin ces
5 9
B urn
C ru
M ort
a be
z on
be ans
li mb
ri p
ab i
ag le
lo ving
tr unk
po le
ite m
ser ves
tain ment
clo sing
Mo lly
Ho ll
emp has
wood en
grand ma
recogn ition
liter ary
rough ly
lic ense
celebr ated
sigh s
Tele vision
Hit ler
weethe art
P H
S N
f aint
m ph
al a
ic ation
et ies
go at
il le
St ud
Le ft
sur vey
ash es
fi res
near er
Lo ck
Aust en
concer ns
En ough
Lu ke
defin ition
acc used
Ele ctr
instr uments
vac ation
begg ed
wrest ling
obtain ed
Cer tain
Pret ty
A G
B os
C her
C ass
C AN
D R
E p
K ings
the dr
ow ing
us ers
ag ne
pl ess
Ch ang
ens ity
Re agan
la ura
world wide
plan es
gre et
194 0
Pe ace
squ ad
compet ed
rail road
compan ion
pray er
survi ved
Ly nd
tick ets
affair s
Turk ish
splend id
A venue
B io
D ri
E u
H ou
K aren
N FL
c ure
d ot
e fficient
e ffici
f ake
f ice
h ug
ve x
ro p
wi ves
ke en
fe ver
wo lf
af fili
good bye
long est
All ah
cour ts
ele phant
pass engers
eas es
bor ing
tit led
193 8
ida e
pot ato
Mary land
deep ly
Bob by
plat forms
whisper ed
incredi ble
WI TH
C orn
L oo
k night
p ap
ar o
st ack
ge on
cl a
aw ards
hi bit
Be e
less ons
To lom
contin ent
anim ated
193 9
def ence
memor ies
stor age
AC K
Ter ri
ona than
ev ident
Yu go
Hot el
sam ple
Tay lor
Tolom beh
G ary
J onathan
N ations
N apo
R ound
d ale
g les
p ump
w ounds
re str
wh oops
ch in
ce ment
un ited
fe min
pro b
own s
Car los
Dr ink
195 5
Char lotte
arri val
except ion
contain ing
consider able
Alex and
Vic tor
painting s
Tai pei
poet ry
apolog ize
rem ote
Suf folk
C ri
F lo
M AR
P ay
P RO
t une
al gorith
ic os
ig e
who ever
sp ill
aw esome
cur tain
Gr ace
195 3
Pl ace
star ring
Mus lims
Port ugu
earli est
honest ly
demand ed
ali en
conscious ness
Mountain s
Gard ens
cris is
Banglad esh
earthqu ake
G ib
K ay
b by
g ins
v able
w w
w ax
th i
en counter
as ia
ot t
ent it
ke l
de cent
de cre
sa iling
af t
dis eases
ild a
mon arch
med ium
Ind eed
sho le
tre asure
death s
test s
fill ing
grad ually
push ing
fro zen
Res earch
achie ved
thedr al
H orn
O ak
P sy
S ighs
V ar
b ish
b ark
f est
g if
n an
y um
ur er
po ver
qu is
ast on
So lo
ho re
gr as
cl ar
mer ry
pers pect
ame ter
cha m
pass enger
17 0
search ing
church es
gri ef
immedi ate
Shi v
stret ched
Care er
rhy th
Ot to
moun ted
L ow
N D
R aw
in stein
to rian
be ard
ion e
sh ining
Be ing
cr ay
gen ius
His tor
fac tors
Ad ams
Bar on
ext ensive
bri g
faith ful
Lis bon
expl or
Protest ant
Portugu ese
8 1
D ra
R en
k et
m ac
or ient
le ans
sh an
part ners
pt on
sur name
tri but
Con nor
fac ing
Fo rest
former ly
camp us
relation ships
blow ing
extra ordinary
kne e
contr ast
rare ly
struct ures
remark able
Chair man
5 6
D ude
R em
S n
W rest
f etch
j ac
r ors
v ices
re presents
ic op
ow ed
ri b
us al
pro p
ak u
under neath
Are a
Bo yer
fact s
Ad ministr
ili an
lim its
Chris topher
educ ated
Pol and
sens itive
Way ne
Lar ry
Enter tainment
Lab our
amoun ts
L im
P au
R al
f fin
n un
t at
in ity
re quires
is ation
al arm
The atre
lo red
um in
ex posed
end ar
gr un
di visions
ord an
tim ore
Se curity
far ther
leg it
sound ed
lig a
box es
Lu cy
jud gment
imag ination
Fin n
influ enced
mot iv
Im perial
Jud ge
reck on
distribut ed
estim ated
Budd his
= =
F ight
r ural
to ss
ed y
ing ly
se ated
id ency
gh an
ex ists
ak o
vis ual
fr anch
tern al
Go ing
wind s
offic ials
195 7
Aust rian
Bal timore
rup ted
Pre mier
specific ally
bub ble
arrange ment
ctic ut
Moo re
) :
4 th
5 1
9 2
B UT
I A
U gh
h en
w ins
th under
re covered
ro me
ri ot
pe lled
op position
um a
ty pically
There fore
ign or
coun sel
erm ine
Sh ip
bed s
fac ilities
mist akes
prison er
exist ed
Ham ilton
scream ing
trou bles
custom ers
Pap a
Conne cticut
7 2
B avar
C reek
S U
c ows
n is
p as
t ent
ã o
st amp
be ars
ad just
ri ll
tr ace
di vide
St at
present ation
pay ment
Ge ography
dep ending
Scot s
god damn
stra w
Ca es
educ ational
anx ious
Assy rian
Rober ts
Lad ies
excite ment
5 8
J ordan
K on
P ict
S P
T un
j azz
ic ians
ie ur
br on
Ch and
av al
ser ver
vis itors
che mistry
kind a
Le o
fun ctions
Nor way
Pro gram
grap her
195 1
aged y
Bar ry
dam aged
police man
represent ing
Med ia
feed ing
link ed
univers ities
equi valent
Tem ple
Person al
enorm ous
Nel son
Napo le
A mand
F le
H aving
J our
V ID
l E
n onsense
de pression
sa uce
pr ices
She l
sc rap
offic es
cu ri
Mic ro
celebr ate
surround ing
administr ative
divor ced
sacri fice
Mean while
Manip ur
Amand a
F M
F ame
G RO
P ed
P un
R ap
U s
b ond
e go
g ender
l id
m ister
r in
ch or
so re
ne ls
can ce
gr an
ass ass
sc ary
else where
Or gan
Sha h
193 7
IC E
fro gs
load s
introdu ction
attempt ed
provid ing
brea the
Corpor ation
Econ om
inju ries
7 8
C ry
C el
D ream
L ind
M ale
S now
T ower
f its
y ed
in spir
to es
or chestra
ing er
ch ron
ad ap
do x
pe as
de put
com ic
ex claimed
see king
cl er
pp ers
sc ow
inter net
cle ared
la very
Ju lie
band s
bar a
16 0
dep th
stead y
La ure
diffic ulties
safe ly
pan ic
Sar a
hop es
condu cted
Chuck les
trem end
retire ment
envelo pe
destru ction
Yugo sl
D enn
F ig
S ky
er ick
it age
ent ering
ap ples
ca ve
Ch ile
war n
ground s
Ser b
speak er
Ed in
stri p
sus p
SC RE
Sho ot
bare ly
grav ity
foc used
Bavar ia
' ?
9 1
9 3
A ha
D all
F al
G ir
H om
L ax
M ade
M OR
R ho
U l
o g
r ude
u its
in er
st aring
be half
ch lor
fe ld
back wards
land ing
fu ge
nor theast
ins ist
os ity
Ind ep
sl aves
Tr ue
plac ing
organ ic
partic les
equ ally
ES T
fund s
Cr own
rac ing
Da isy
transfer red
Mons ieur
B ird
F O
K iss
g um
u i
the astern
Wh it
can e
ti le
let on
ves sel
sc are
fin ed
pri mit
cur y
Sh h
sha res
add le
Or leans
prom pt
Am endment
appear ances
lam b
dig ital
possess ed
Hal f
document ary
desc end
dun no
Wol f
Represent atives
Deput y
perspect ive
Indep end
5 th
? '
A th
F E
U CK
t ast
♪ ♪
en sure
it ated
se eds
id o
li me
sh er
op pon
ex cess
ig en
bo ards
Ne ither
18 th
light ing
bre ed
May or
Com ing
lad s
bar rel
Ex cept
ring ing
contro ls
flo ating
det ermine
ify ing
sand wich
vot ed
occasion ally
Broad way
chap ter
feather s
Net work
Bla ir
Coo per
fier ce
Develo p
Edin burgh
L yn
M ine
M ars
R Y
d inosa
er as
ot ion
ab und
cl in
where as
min i
iz on
cons cience
fil es
Dr agon
gar bage
cu ff
Gu y
bill s
chair s
sequ ence
belong ed
fool ish
rob ber
perform ing
Gy p
attract ed
Admir al
bun ny
compon ents
accoun ts
Bus iness
Whe ther
shel ter
Ral ph
7 1
H indu
L en
S em
S ax
W OR
p ant
p ardon
s can
s ack
at ures
is ion
ad m
im per
man if
com pos
ess ential
bo re
every day
Un like
mon key
fa me
mar ch
Al most
Mar shall
found ation
cre ep
pri ests
house hold
support ing
rul er
Sar had
fellow s
leader ship
abs ence
furn iture
mant le
Egyp tian
A H
C re
F BI
g ates
i ro
j er
j ung
p ip
r ates
r ats
s weetheart
y οu
in fect
on so
re cycl
or ous
Th ird
il st
tr ait
own ers
ans ion
av ed
mer cy
aw k
mon o
sup per
che cking
Bo x
appe aring
prom inent
break s
pal m
ban ana
murder er
Mu ch
finish ing
suit able
CO VID
farm ers
qual ified
employ ed
entertain ment
Sel ena
Tu be
intellect ual
E di
Y a
l ane
o red
th irst
re sem
be aring
ro lling
ad am
com ments
ck er
cl am
bu zz
tal ent
sto pping
An g
cour ses
vi ć
Me ite
Cha mp
Po ly
Gu ys
ref use
micro phone
Rac hel
diam ond
attr active
! !
. !
7 6
D ete
G I
d irt
i en
k an
k al
for bid
ke e
do ck
ab road
up s
ap h
bo ots
don t
In spector
ure au
work er
pres sing
mar ine
Do c
cent s
De ad
Br ah
Le wis
war rant
music ians
cu liar
ham mer
Dav is
193 6
creat ive
viol in
Bel gi
uel a
Reg ion
dish es
nu cle
belief s
scarce ly
Sever al
Hawai i
pover ty
Caes ar
A x
E ve
M EN
S is
f ts
ing ing
se ctor
ac compan
ch ase
ch rist
co d
ne phe
man ces
ul ating
fe ared
ti ger
sc attered
For m
cast ing
effect ively
trust ed
une x
meant ime
ref ers
philoso pher
concl usion
lab our
cloud s
expand ed
Lynd e
entit led
B ou
B aker
F ull
L as
P acqu
R y
W N
b am
c ated
c ulti
h ut
j ur
k ar
v ital
in formed
as shole
ne uro
con vent
con firm
ig a
And erson
sp y
sp ark
sp ray
att an
gen u
dec ades
Pro ject
Pl us
prote in
pan el
soft ly
Law rence
execut ion
cate gor
assum ed
Mod ern
Philipp ines
Pacqu iao
A dri
A BC
C old
D ist
E vent
N in
N ative
f ence
i ety
l amp
w reck
en thus
ro d
ro mance
ch ips
li ance
co ins
et t
am bul
Th ought
pe ak
ish na
ide o
ol and
ble eding
dis aster
sc ul
fl esh
vers us
ins ult
far mer
sha h
gg y
follow ers
sk ip
por ters
lands cape
stat ue
Mad am
print s
hous ing
tho logy
impress ed
Mur ray
lif etime
applic ations
delight ed
Ve gas
Found ation
kit tie
batter y
acade mic
Meite i
A ra
B oo
C ool
F ant
G ent
I GHT
M ack
S ound
c cer
d iction
e ighth
t ables
an es
it ter
il and
ex ceed
na vig
di vers
dis appear
dis appointed
Do ve
gen etic
help ful
che e
ug al
lay ing
Cl are
Ser iously
rad iation
inst antly
cro ps
cook ie
brief ly
patter ns
Wind ows
infe ction
primit ive
accompan ied
5 3
D V
N HL
W ake
t is
ou ter
al tar
ar ose
st adium
ay an
ac cord
sh ark
ho llow
ud a
gu id
care d
tri angle
den om
colle agues
pen cil
mid night
Ste p
wel fare
speak s
mad am
tail or
Hur ricane
kick ed
Brother s
Commun ity
aspect s
techni ques
rend ered
agric ultural
Indones ia
miser able
1 000
D ak
G U
R ain
U k
V as
Y ale
c age
e ze
l ah
m ask
o thy
r ane
s lavery
t ion
t ide
in fant
the o
to w
ed i
ed ges
or f
ut ed
Wh oo
ho mo
off s
ass ess
des pair
ins ane
Sh ir
May weather
appro val
trave lling
jud ges
secret s
Pol a
memor ial
rac es
Sa id
Au thor
particip ate
Laugh s
ultim ately
Sud den
govern ments
Hou ston
Develop ment
genu ine
7 4
B ac
D Y
D ance
J ae
N ich
W y
W es
b ors
i ries
l ac
re call
or i
be es
ro it
im mig
pe culiar
ant ee
pl ug
cl ick
dy nasty
ser y
ath let
hel icop
dr ank
Mar io
care s
ivers ary
rele vant
program ming
mag net
Min nes
touch ing
pract ically
milit ia
Sm all
Mad ame
rout es
mat rix
Naz i
Tru th
Color ado
9 00
C ze
E asy
K am
M R
O li
P as
R ot
S ON
c ulation
d at
g age
h itting
m are
in stitution
re strict
en ess
li x
im proved
ab str
ther ap
some time
ate ll
na ught
form ing
fl ush
Br us
air plane
second ary
sha king
miss ions
AR T
Ad d
rece iving
25 0
Qu ite
flu id
surpr ising
electr onic
discus sed
cro p
smo king
critic ism
shout ed
Plat form
6 9
D C
G lad
M am
S ad
Y E
c able
u ct
in ser
ch ip
wi pe
ad apt
ri ans
ab do
us age
pe ep
no ld
um ble
ge l
sp ons
fir ms
All ison
17 th
meet s
Gr ay
Har ris
THE Y
US T
design s
trave lled
mist ress
opt ions
Sand y
sor row
Robin son
alpha bet
Loo king
7 3
7 00
C row
F ood
G ill
J ason
J enn
M ama
N ixon
P i
R io
W ick
a is
e than
l ined
is si
it is
le te
ro id
con vince
ah n
ast ro
na val
el ine
gr ain
ass ador
ret reat
kind ly
ner ves
tre as
cop per
suggest s
Frank lin
result ed
pack ed
pack age
BE TH
Res er
fra ud
indic ated
favour ite
transl ated
veh icles
resist ance
Ari z
divor ce
Jen ny
conserv ative
Ker man
Ton ight
discipl ine
supp lies
fasc in
iffer ent
instit utions
6 2
D ig
J UL
L ot
P age
l n
l ves
m ild
m als
p ier
s ung
t id
in fer
me lt
ha i
ab use
bo ot
self ish
Un ivers
iz za
hel or
Al icia
found ing
On tar
cut s
test ed
cas ual
ES S
mid st
Sp ace
ax is
Ph one
Spe aking
ben ch
multi ply
Other wise
cook ies
shar ks
vere ign
municip al
Wel sh
rush ed
Islam ic
Cla ire
Nan cy
Squ are
PLA Y
rane an
Kerman shah
A mb
A gent
F ars
K id
O S
is ms
en cing
be lls
li qu
qu et
pp y
ud ing
em br
min es
fl ows
par king
cri min
Or ange
hope fully
Spe aker
cro ok
particip ated
affe ction
dete ctive
sole mn
transl ation
minim um
dread ful
nod ded
esc ort
Napole on
Dall as
nephe w
Ontar io
" '
7 9
8 2
D od
E specially
J i
S tor
T w
b und
g ap
j im
p his
p ace
p aste
s its
t act
al y
it ate
ver tex
ir rel
un like
go in
sh aring
tr un
res cu
but t
ate ur
br ick
ss ip
pre mi
gl ory
rel atives
Or chestra
Ex am
swe at
trad ing
Ear l
Jes se
attempt s
perfor mances
rub ber
weak ness
maintain ed
eld est
SO ME
lu x
rupt ion
Pope ye
univers al
Rick y
Frances co
quant ity
% .
C R
C æ
C ou
F ac
R idge
S R
k ur
m aker
as hore
st ages
be ls
ro gen
co in
un certain
un fortunately
de eper
tr agedy
ex it
ge ome
19 19
bl in
fa iries
fl es
du ke
belie ves
mother s
Bo ys
den y
Ex ecut
song writer
Jo sh
inv ite
fair s
ik i
dream ing
Per ry
LA US
193 4
reco very
burn t
Med ic
imp ul
Reg ional
Bill board
impress ive
inn it
butter fly
schol ars
chuck les
ligh thouse
Fur ther
Minnes ota
Brus sels
K ha
K LAUS
M ess
N ash
O l
v ate
re fuge
is a
be ef
ch ances
am endment
im prison
un ning
your selves
av i
ob st
fl our
hel pless
Se ction
kill s
tri umph
wal ks
stay s
fac ulty
Ge e
Fo reign
business es
consid ering
rid ge
Jack ie
cup s
address ed
approach ing
gor ge
Up on
civili zation
App arently
resident s
proced ure
Bha er
subsequ ently
guar antee
Build ing
Dete ctive
JUL lE
KLAUS NER
) ;
8 4
C lay
D ER
G UN
K y
P os
b ind
e cho
p airs
ve land
ch ill
li mp
we ed
sh y
qu ack
ex ternal
19 18
down town
dis order
bu cks
ps on
De h
sur render
cons in
trans mit
bar n
195 0s
loc ations
cir cuit
Cor ps
Che ers
cand y
tho dox
bless ed
situ ations
Beaut iful
bacter ia
J ose
L an
L ane
T it
U se
d ick
r ade
r ational
‎ ,
or ter
ic ial
art ific
res ign
fl av
car avan
col ours
sy nd
log ic
ins ula
war ri
kid n
hur ried
return s
Man chester
dro pping
13 th
pen ny
Mic key
por tray
descri bes
represent ative
pati ence
Sure ly
pig s
Louis iana
execut ed
frequ ent
tun nel
pred ict
mort al
mart ial
infin ite
Wis consin
G N
K ang
N ag
R out
S ult
b attles
in tr
ll en
id ays
de liber
ant is
He art
fe ast
cl own
mon itor
wr ap
car to
Ne ar
reg iment
tri be
sub stance
top ic
cal endar
lay er
ster n
dro ps
Wal k
Spe cies
Mac ed
fund ing
Ter ry
gro cer
truck s
liber ty
shout ing
chi at
drag ged
reven ue
jun ior
Die go
accur ate
Gul f
Brook lyn
franch ise
Cæ sar
B ed
D yn
E at
F R
H ud
J in
S tory
W ag
t an
w agon
th ors
re c
so lar
we ls
com preh
ex hibition
No bel
tal es
Co x
inter ior
clo set
che ek
real ise
Ju an
state ments
cri es
present ly
Cha p
fre ak
public ation
process es
invol ves
relig ions
Fin al
neigh bors
opin ions
ox id
crow ded
occas ions
coo ked
Mem or
Isa bel
mam mals
acceler ation
igen ous
Sarhad i
DV D
lah oma
F em
G round
H oc
L loyd
U su
h h
z ard
in qu
an ing
an thro
the ories
at torney
he t
se ctions
ay a
ac re
ly rics
so ever
co inc
ir s
im pro
ab oo
il ation
tr ag
qu ote
19 28
So mal
sp rang
br u
int est
Se bas
vent ure
war ming
Mo scow
ail s
pain ter
Ab ra
fuck in
period s
loy al
occur s
SH E
jump ing
Cle veland
meas ured
candid ates
sched ule
distur b
distingu ished
pock ets
Sudden ly
A gency
I van
K az
L au
M es
T ol
Y i
f s
l um
t ang
y on
th al
th om
re vi
or o
or ia
es y
ch en
ne arest
pe ar
You Tube
pl ing
no vels
pro sper
ge ar
In ca
Un fortunately
happ ily
Do g
light ly
Ar m
Ju lia
different ly
ail ing
sho cked
dire ctions
Coun try
AR S
fight er
sent iment
War ren
bur den
Em my
Vi enna
Mom my
assist ance
Pet ers
employ ment
anx iety
Hung arian
sacri fic
techni que
assign ment
Certain ly
awk ward
B owl
G am
I ron
M ight
P in
S cient
Y T
k not
s ank
re cru
et a
do ggie
tr apped
po ster
pres um
mon s
char ity
trans ition
dist ress
fac ility
Ab d
exp ansion
US E
gener ations
Qu est
comb at
Ben net
Cour se
WH O
Ok lahoma
Pre fecture
Ange l
fat al
SH O
rank ed
Trans port
Jeff erson
Mi y
vul ner
magn ific
GRUN TING
Ama zon
disgust ing
Ariz ona
! '
B our
C hel
D IC
E instein
K irk
K atherine
L ING
N am
f ict
k at
r é
s well
ā n
or bit
ve lt
im plic
ur ation
pe ek
de ce
sto ve
str ings
light ed
AT ION
human ity
pur se
York shire
food s
grow s
Sp ir
193 5
tech no
electr on
stick s
peace ful
Fer n
Up per
satis f
reve al
concept ion
HO YT
Cla use
stret ch
VER Y
wis dom
blank et
propos al
effici ency
A po
F ried
K le
N ation
P ER
i ac
m ature
o y
p raised
w re
y ers
re jected
you t
be lly
li ly
im ie
do re
mo l
ust er
read er
Be lie
ff alo
Br on
ste aling
free ly
Pol it
consider ation
gress ive
rout ine
scient ist
GO T
condu ctor
Solo mon
G ang
G erald
H ERE
H icks
R oose
b orders
c ater
h int
o ath
p ine
t issue
v amp
as sure
st ake
be loved
ac ious
ad ays
my th
con vention
ol as
St adium
Ro gers
vis ed
ear ning
pret ending
round s
low ers
ann ah
sleep y
design ated
sil k
Sy ria
Ph ill
fund amental
hum ili
nur sery
Commun ist
owe ll
Swed ish
estim ate
Det roit
Holl and
Jour nal
tremend ous
Gent le
Roose velt
C atherine
E C
I B
J a
N BA
h atch
s atell
and al
be ep
li able
im men
do ctr
ab led
ne ll
You th
res igned
ah ed
19 00
Do or
car ries
att ribut
Mar shal
De v
Mo hammad
tri bes
sub ur
Ind ust
Af ghan
Cha h
concer ning
cry stal
grand mother
193 2
High ness
Dar win
assu red
exer c
purch ase
interpret ation
heim er
Pers ian
Luc as
resto red
deli very
Belgi um
Abra ham
B ow
F ro
G ab
J as
K ate
M L
T aye
W at
re ll
we ary
mo s
pro portion
19 29
di ale
comp ounds
che ll
leg es
Ma imie
iter ranean
resp ir
tw ist
conf usion
cli ents
enjoy ing
tax i
Champion ships
vot ing
Fred erick
Jeff rey
intellig ent
LAUGH S
slo pe
Argent ina
Pitt s
A ge
B eng
C and
G us
H ig
J ake
O L
T all
T el
T reat
T iger
b end
h oo
in fr
er on
er als
ar io
st am
id odecahedron
ri ly
his torian
bo l
bl own
sp aces
ach es
dis tract
cons ent
sha w
record er
ances tors
Ser vices
net works
Wal ker
Atl anta
sequ el
command ed
Med ical
vari able
belong ing
anch or
pun ished
consequ ences
conver ted
Bern ard
explos ion
exhaust ed
Denn is
Uk rain
D A
I mag
P on
R af
R oom
S ah
S af
S pen
W AY
d ent
v als
an as
re con
or phan
al ter
of t
ch atter
co lored
all oc
ti ly
br ut
und es
au thors
dis agree
ank s
wr apped
ta ils
der ived
comp ound
sub scri
vo cal
Ma ur
swe pt
Cal m
ext ension
sou ls
gest ure
hung er
symp athy
occup ation
promot ion
Cra w
Dom in
Fa ith
puzz le
Hoc key
C it
D ark
F an
G ol
M C
S ign
T ak
y ay
on ge
re verse
ar chae
wh ilst
ac cent
im ir
ne ur
Th irty
de e
de leg
con spir
con temporary
ess ay
19 17
ra pe
fer ry
mon aster
thr ust
inter n
sur ve
To gether
list s
Pro te
ann iversary
ony m
Que ens
electr ical
Med iterranean
link s
jam in
contr ary
Sw iss
Den mark
meas ures
trou bled
astr on
Stan ley
argu ed
Rab bit
MUS IC
evol ved
Sebas tian
immen se
" ;
( ),
B un
D S
F ucking
L ang
L ower
M ans
O re
X T
r ays
è re
al ike
ar on
st iff
ve ter
so b
ain ted
bo red
fr uits
char ming
sol utions
Nor we
Right s
ane ously
cho ices
mark ets
Fe el
Any body
fle x
gener ous
popular ity
RO M
sus pected
ker chief
RI O
cabin et
tori ans
Confeder ate
Armen ian
rhyth m
Dak ota
A vi
C ot
D iam
H IS
L ily
L iver
N ature
R ub
V ene
h ence
r ud
v ated
re bell
ac cus
ot on
li er
un comfortable
fe ud
wor m
pro phe
su its
ach ing
pp i
Co sta
des ired
Al fred
De von
col ony
bus es
eng agement
Af fairs
Her o
contro vers
deal t
reach es
arr ay
terri bly
dest ination
fuck er
Vi vie
cul es
arrow s
indic ate
mechan ism
climb ed
Fed eration
bull shit
Cra ig
pursu e
Tech nology
Cub a
neut ral
mathemat ics
Kr ishna
gif ts
Taye bi
6 1
C ow
M ON
S av
V lad
W ars
g au
g led
m ast
m ia
o ven
p ile
v ak
as pir
ar te
ur an
pe o
sh one
no mination
res ulting
19 13
19 27
ber ries
na ils
na ima
ous es
ol es
coun ted
che aper
io let
sol ic
cri ption
Pr ice
pen et
sou theast
Mon go
Christ ine
creat es
suggest ion
catch ing
Republic ans
nin th
cam eras
brain s
Hill s
pray ers
frequ ency
rank s
button s
Anton io
Cab in
whist le
cigaret te
pronoun ced
constit u
J ai
L iter
V ideo
W ard
Z one
l ace
m ult
s ab
u ch
re h
re new
to re
as hi
wi light
ir y
do s
con gress
ind er
ich i
dis c
spe l
ma x
cont ents
less ness
point ing
member ship
wal let
sim pl
ific ations
ane ous
ring ton
AT T
gram s
pa use
cu its
Bar bara
success ion
board ing
RE E
arm ies
Dav y
learn t
GH S
Ben jamin
hol idays
mi xt
audi ble
hum or
Mer ry
approach ed
RI GHT
cow ard
Stu dios
alo gue
satis faction
Del ta
poly hedron
sched uled
Admir alty
Fall s
compon ent
employe es
Gram my
blo ke
Dem i
dign ity
usal em
SCRE AM
D ue
D ug
K night
S end
d ough
o le
v ague
th ic
re cover
li ff
de em
go lf
tr ash
con vex
art istic
19 14
19 24
will iam
fir ing
des cent
war ned
16 th
prom ote
AT TER
har sh
Gu ess
Char usa
Qu iet
trad itions
graph ic
recogn ised
separ ation
Cr it
DO OR
regular ly
coll ar
protect ing
Kar l
sail ors
Mel bourne
consist ent
bless ing
advent ures
preser ved
Laugh ing
deput y
Usu ally
8 th
C ase
C ensus
D ash
H amp
L M
P il
U H
c m
j erk
k ers
m ie
p ets
p raise
r ack
be have
up side
con grat
um s
We ek
ist inct
day light
ick en
str angers
fin ance
All ied
col um
irl ines
jo king
New ton
produ ces
small est
cover age
class ified
appro ve
Miss issi
CH UCK
sal ary
193 3
tro l
represent ation
cand le
Mor ris
Port ugal
Ange la
Jer usalem
Fer rier
threat ening
comed ian
pill s
tex ts
trail er
Spr ings
behavi our
embarrass ing
brid ges
igno re
encour aged
conven ient
inse cts
jung le
chee ks
A in
A de
B ret
M is
M ig
N ad
P ir
R at
V II
W ANT
d ared
x y
to ck
se al
am use
out put
out ta
de af
de als
de fine
il er
sp ots
ud ge
si zed
All ies
Br id
ten nis
ear l
sur d
log ies
TH ERE
ste ep
Con vention
bar gain
fight s
sun shine
tour ist
ays ia
Li brary
wa ist
explo re
concl uded
redu ction
spin ning
organis ation
prepar ation
Hun ter
1930 s
fab ric
proto col
ambul ance
Memor ial
? !
A ah
C AR
G h
L t
Q U
f lights
h attan
j in
j unk
t ension
re di
re ception
al ert
se cu
id ers
do in
ca f
pro vision
she ets
na il
wo lves
back pack
ade qu
dis gu
make up
hand ling
Al ber
Ar ound
ear nest
ident ical
unt ed
ner ve
ale h
den ied
Car ib
nice ly
dead ly
hor izon
tra its
mess enger
plant ed
Des ign
Gl en
asse m
sele ct
myster ies
chemical s
Gil bert
Pu er
purch ased
veget ables
Administr ation
Ath let
7 th
L abor
S ex
S cand
b ai
f et
l ou
ing e
He ar
ti ble
di ameter
land lord
ens ed
inter rupted
An tar
comp rom
vis iting
Ar tic
Fr uit
gl or
mus cle
sl ap
Ge off
Col on
business man
Mon te
clean ed
cli ff
trave ling
mist aken
stri king
treat y
AP RIO
Gl ass
demand s
pill ow
strate gic
contribut ion
Gra ham
advert ising
suspic ious
proced ures
Rel ax
Croat ian
elev ator
incorpor ated
prop ag
unex pected
DIC APRIO
Norwe gian
B asket
C lose
N ame
P D
Z h
c ine
p unk
{ \
to e
al ex
ac on
ne gle
mo dest
sh in
fe males
19 21
ie val
el le
ho g
cl ay
car pet
cr iter
pol ar
par ks
cur ve
main tenance
belie ving
AN S
AN Y
15 th
sign als
eat s
Me et
Man hattan
cho ir
Har vard
Aust in
incre ases
193 1
fuck ed
continu ous
pet ition
Mal aysia
Hel en
psy chiat
percent age
sens ation
mum my
liber al
critic ized
Bor ough
Brad ford
observ ation
Coll ins
icos idodecahedron
thi op
Edi th
naught y
Rout e
Liver pool
. -
A ch
F uk
F itz
G AS
H ER
M ach
S tell
U C
c ouch
g own
ü r
ing redi
al da
me lo
ha th
ce iling
con dem
com ot
ous ed
De ep
mp loy
mus h
az e
Com put
cor on
cor re
Cl inton
tom ato
cir cus
dest iny
Sam uel
Would n
exper iments
access ible
ev ac
communic ate
Democr ats
Dou g
CE O
phen omen
shi pped
Ted dy
Ron ald
Tot al
Joy ce
foss il
distin ction
inspir ation
trag ic
Spir it
B art
B rig
D rop
E thiop
F und
F lowers
J ama
K or
R aven
S ty
a qu
m ou
q i
s ip
the l
at ar
re public
re actions
to ps
st ared
ver si
we ld
ab surd
pe an
con tempt
ill ery
ex ter
ist a
cent ime
Re ed
cy l
mus cles
dri ll
dri ft
pain ful
hy dr
Jo an
organ ised
test im
Har vey
deal er
Ste wart
rock et
Per u
pract ices
post ed
def ensive
bul lets
Bel le
sco res
kno cking
sym me
asse ts
arg uments
Carol ine
correct ly
corpor ate
lect ures
fold ed
Ori ental
pure ly
Hard y
convict ed
sustain able
Mit chell
dynam ic
vacc ine
scul pt
ahed ron
Mississi ppi
6 3
G ER
I l
P ull
W ELL
b ree
b ted
d ried
p ad
z an
á n
le ather
be am
am ateur
not ion
And re
So l
No ah
per pet
ol in
min ate
bu lly
Co ach
hand kerchief
Mar cus
comp are
col onel
par ag
Not e
design er
mir acle
une mploy
Mad rid
ID E
base ment
Mil ton
Cathol ics
Del aware
Mem ber
concent ration
Sher iff
agric ulture
Oper ation
bec ca
thorough ly
legit imate
adap ted
Vene z
colum ns
B id
C hase
C BS
L SB
N ong
S aw
Z oo
a un
b onds
er ie
the t
re solution
to rial
ar do
he e
st itch
am m
us ions
qu ot
let t
ud d
ser ial
." --
hand led
Al z
Br un
home work
Se y
real ised
produ ctive
power ed
bri an
local ities
invol ving
quar rel
Lord s
hang ed
rep air
explain s
Med al
OF F
rit ual
AB OUT
Hung ary
drum s
challeng ed
algorith m
Micro soft
artific ial
Kle in
Pitts burgh
A then
E ither
I O
K el
N u
O tt
R SB
S ul
a a
j et
n ik
r ical
w hel
w ages
th re
re marked
and o
be ck
ad voc
am ph
The o
ag re
un fortunate
de pressed
go ssip
It anium
no bles
pro secut
19 25
ang ular
sp r
Ch al
vis its
must n
la yout
Le ader
ste ll
gg ing
sol vent
tre nd
order ing
ati vity
polit icians
Col um
Har old
pa used
Ke y
tw isted
respect ively
compan ions
Na than
mechan ical
Shar on
Ce metery
writ ings
Jess ica
democr acy
margin al
ifu lly
Wrest ling
fict ional
B ot
B ER
R and
S part
S low
S leep
V III
d war
e es
g us
h ilda
v as
ic on
ent re
so cks
li est
ri k
lo comot
tr ous
can s
ap plause
res ort
su res
19 15
19 26
ine vit
om b
di vid
part ial
mer ch
col m
name ly
reg ards
kind ness
unt ary
bre w
dec ides
Tr ade
har bour
Any one
ming ham
Per fect
bot tles
terri fied
cli p
defin ite
football er
High land
ba be
activ ist
kiss ing
Mad ison
GO OD
Hon est
communic ations
philoso ph
bother ed
Cro ce
switch ed
climb ing
dan ced
wid ow
Hand s
cert ific
register ed
Pho en
Bir mingham
Ep is
gorge ous
Dyn asty
peo ples
Carib bean
B ast
J ere
M ut
N ah
N BC
P ick
W ord
b icy
f ers
g ly
s ins
t went
u an
x ide
th um
he x
wh ip
ent ers
ch asing
ri fle
de er
sh iver
su ff
el ic
el abor
ish es
cl an
off ensive
dr own
pol ite
ins isted
rest ing
Just in
few er
fil med
contro versi
van ished
host s
Mal colm
Dis co
celebr ation
pill ar
Arab ia
Ob viously
Mem bers
require ments
reser ve
establish ment
Naz is
organis ms
tort ure
ey ed
legisl ation
accompl ished
Blood y
Jos é
curren cy
Ore gon
controvers y
Alz heimer
A ud
A ction
C art
C atch
M ik
N on
S ie
b ade
d ash
g room
t ο
in ves
in visible
ve ll
ri ac
ir rit
ag encies
ant ib
art illery
com position
ex hibit
19 23
per mit
ace y
au de
Co de
fl ame
IN K
main land
ball oon
dec ade
kid ney
Bl ake
Fe lix
pa thetic
Lo st
ib al
ib ility
cou ver
rad i
Rep ort
loy alty
Bro o
sme lls
sail or
Boy d
Arab ic
Van couver
jun ction
delic ate
LAUGH TER
diag ram
custo mer
lung s
nit rogen
categor ies
Afghan istan
mixt ure
1 10
A ges
B L
C P
D um
G S
I ke
M ou
O ber
P y
j ug
p yr
r ations
r ons
s worn
w ret
the at
re jo
se aled
un ity
sh orter
lo vers
my thology
He avy
man kind
ca val
ind igenous
19 22
bl ade
bl ows
di vin
need le
cr ick
Ro ll
Al aska
clo sure
gen es
sur geon
cha pel
tri ple
Tr inity
low est
Col in
colle cting
Po le
inv aded
sum mon
bor ne
iv als
publ isher
agon al
Bel gian
Grand pa
glo ves
‎. ‎.
Au di
acqu aint
partner ship
consum er
mole cules
alleg ed
disput e
sna kes
magnific ent
Belie ve
Gentle men
K ir
M ob
N iger
S audi
Y ang
a gh
b out
d ensity
o logist
p ne
s ends
w age
z ig
re hears
is ure
to wel
ac ing
for getting
can n
form ations
coun ties
Ro s
Mar illa
cre pt
light er
jo kes
eng age
Joh ann
eter nal
Ab by
prom ises
oper ates
contro lling
commun es
fle e
sw allow
Pri or
post s
ban ned
IC K
refer ring
depend ent
rap h
mas ters
umb ai
AK E
Bre ak
qual ities
strug gling
prefer red
Clar a
prior ity
Brand on
dip lo
WO MAN
instrument al
suspic ion
infl ation
jac ent
manif est
Execut ive
vulner able
peek aboo
Puer to
controversi al
. ;
0 7
B ach
R ud
S ac
e valu
f lip
l ass
m aps
o at
p izza
s wer
ha re
ro ar
for k
ver ted
ri mp
do se
ag enda
lo re
man aging
pro pose
ex po
ho spit
In side
di ary
ang les
mar ching
All an
Mar ion
For give
Sh in
az a
fil ming
contin ental
ster dam
Har per
21 st
sex y
answer ing
En joy
Am sterdam
stick y
phys ic
Sim ilar
Oly a
CO ME
hero es
rub bish
Mat cham
commer ce
trick s
ultim ate
nick name
Michel le
Jun ior
Ut ah
curtain s
Pict ures
abund ant
helicop ter
bund le
A way
B LE
K in
K ind
K hal
K ids
O scar
P ul
R ena
S pl
] ,
_ _
l ust
o is
al t
ac company
so ber
so ccer
ag s
if ies
est yle
gr in
ph on
dr ummer
Ne ed
Br anch
ten th
la zy
sub sid
produ cers
hold er
que er
EN D
ext inct
cir cles
south west
process ing
Roman ian
Pri vate
dress ing
dress es
LE T
din ing
character istic
character istics
accept able
audi o
phys ically
load ing
Li ving
Other s
feat uring
Cam bridge
vert ices
Mur phy
respond ed
gather ing
request ed
gal ax
consum ption
begg ing
calcul ated
rug by
Sof la
Vietnam ese
........ ........
Pier re
Lion el
Base ball
Otto man
recycl ing
Cze ch
# #
A gr
B right
B less
B undes
D ol
E va
G ate
H at
R iley
S had
S port
T amp
V ie
k ka
l D
l end
m ice
r ants
é e
al ay
es te
le mon
wh i
for given
ter minal
ce metery
sh h
Wh ose
con vey
man ip
can cel
ill o
el a
cl ue
Oh h
over whel
br aska
Ch un
gu er
int im
coun ts
fl ung
De al
ele g
leg ally
win ners
app et
fight ers
Man agement
stru ction
uc ing
Wor ks
pen alty
attack ing
Cap ital
See ing
enn on
dig ging
190 4
gard ens
roll er
survi val
loud ly
shi pping
HO W
delight ful
Cur rent
Hor se
restaur ants
atom ic
Fri ends
diam onds
intend ent
peas ants
compos ers
Stor m
antib iot
1 30
D ere
G ON
M umbai
N Y
P ie
T ab
W W
a er
d itch
p ione
re act
ar ians
he ir
he ap
ro be
so vereign
all er
man ners
ill usion
ge e
ink s
br ass
back ed
pr ick
car go
pre jud
Re becca
col leges
Br istol
pu b
ins ky
Com mer
vo cate
hy per
swe ep
class room
colle ctions
dam ned
dream ed
rain bow
worry ing
claim ing
Sup pose
market ing
hed ge
Mag azine
Sto ck
UR L
pup py
recomm ended
Braz ilian
autom atically
voy age
diagno sed
jur is
A long
C ad
D iana
G M
L inda
M ason
M ister
P L
W right
_ The
b ou
k icking
s ive
u ki
in put
at tain
is ha
he els
st ad
ll ers
was ting
ver b
do main
ne ys
ap or
op ed
um i
ish ment
ass er
port ions
ret ro
mon ument
ens ional
Mar ian
light ning
Se em
reg ulations
Who ever
sim p
ann i
prof ound
prof ile
bum p
tru cture
Lo cal
tit ude
Ital ians
Wal t
terri fic
secret ly
rul ing
engine ers
Fin land
Sm art
influ ential
discus sing
antic ip
psy ch
loss es
refle ct
tend ency
Bat man
SI GHS
Gard en
astr onom
advert ise
prepar ing
sne ak
betray ed
piss ed
frank ly
cla use
Event ually
divers ity
guid ance
Imag ine
Hamp shire
" ".
0 4
H ose
J UST
N ig
P ly
R ip
S wi
b ows
p m
p oo
r ah
w yn
z h
è s
is an
st ing
ha bits
co des
ab ama
sh irts
tr ai
gr aves
ci o
over seas
sp reading
sc oring
med ieval
fin est
cess ion
clo ses
Ar nold
Se an
bre eding
log ically
gg le
Com ple
pop ulations
heart ed
dra wer
har a
har vest
ru ins
search ed
squ ire
gener ated
vir gin
Roman s
Great er
except ions
bow ed
cool ing
object ive
Gree ks
Mark et
bound aries
pat ron
Rad ha
symbo ls
survi ving
sec ured
Rail road
consist ed
dete ct
shad ows
Metro politan
labor atory
Ell en
horn s
Cat al
embarrass ed
Isa ac
SPEAK ING
batter ies
Dri ve
evident ly
gras p
bron ze
Laure n
Scand in
B ess
B ureau
D ur
H us
O p
S ri
a es
b ats
e ll
e lo
f ere
f oul
g ut
h ates
p ence
r ho
s se
s ke
í a
re mo
19 12
ine a
then tic
iss ance
Ne braska
De fin
fr act
che ating
reg ul
la me
Le ban
belie vable
ail ed
mind ed
vo ir
Tr ump
mur ders
priv acy
tour ists
recogn ise
dev oted
stant ial
Cam brian
190 9
Joe y
streng then
iff s
bomb s
bio logical
Rock y
Play Station
Nat al
witness es
Squ ad
ghost s
relie ved
Ven ice
virt ue
shal t
borrow ed
Leon ard
Bul gar
Soph ie
narr ative
Author ity
Maced onia
thom as
secu tor
Basket ball
A FC
B ol
D ong
H m
N y
R est
S ciences
Y von
a the
c off
f ist
m br
id i
ad jacent
so med
co gn
de eds
qu ad
them es
per mitted
cl erk
over come
gu in
bu rial
sc rub
od or
hi ka
cr ust
pre y
ces ter
Al abama
comp ens
ten se
fr action
che t
Se th
pers ist
je wel
char m
sim ult
law yers
sk etch
exam ined
loc king
ext end
ches tr
rad ical
depart ure
En vironment
Su zu
plic ation
Sal em
treat ing
electr ons
corn ers
Bal d
cam ps
medic ation
lic ence
Str ange
sens es
tur b
Fre mantle
remind s
contribut ions
motor cycle
scen ario
wealth y
dan cer
tradition ally
Conserv ative
Dra ft
robber y
impul se
satell ite
Gab ri
testim ony
parag raph
Ply mouth
9 th
D im
E mer
G A
H annah
M I
M ing
M ater
R ING
W l
W heat
l ick
o ak
v s
in ate
to bac
ll ie
im perial
est one
qu er
su ffici
And ers
bo ast
19 10
el ess
No pe
min isters
ob serve
pt ic
mar ched
cr um
dr ain
dr owned
Mar tha
Br u
bro ok
cap s
ped o
sit com
12 th
Ab original
14 0
public ly
por trait
Ph ys
sn atch
inc ere
rat io
bio logy
fant asy
instru ction
dim ensional
flow ing
arrange ments
minor ity
improve ment
Ell is
preser ve
Commission er
increasing ly
commission ed
argu ing
Gib bs
Chand ler
thirst y
geome try
trous ers
Dere k
L angu
N ep
P it
P ink
R ing
S or
S ide
T T
V O
h ub
i ard
m att
s wore
v om
ö n
in spector
in audible
st ub
ha ul
for cing
ch y
ch ased
am ents
out ing
mo ist
mo sque
con str
res idence
she lf
19 16
ade h
dis missed
dis grace
sc ales
inter fere
comp li
col oured
ele ctor
gl ow
gl anced
sign ing
Gr ab
pay s
grap es
exp ense
Dan ish
Ed gar
Sal z
Spe ak
imag ined
continu ing
Ha j
path s
dio ces
Ra ja
glo be
Rome o
complain t
manufact uring
equi pped
excl usive
delay ed
Glo bal
collap se
tox ic
dat ab
spons or
fascin ating
Abd ul
Craw ford
Jere my
expo sure
, .
B é
D ifferent
H um
J ar
J ur
N ina
P earl
V ance
W P
W oo
W iz
j ab
k har
m me
m akers
p and
p oured
u to
z zy
in au
in car
en to
es a
me als
ll or
ro ast
wi lt
ur gent
tr av
su i
ge ograph
she lls
ye lling
na e
has te
gu es
fer ences
Fr ont
led ge
incl ined
az ines
ative ly
sign ature
Pr ad
OU ND
Get ting
app rent
ran king
hon ored
Sy riac
graph ics
trave led
chan nels
Hel ena
Bur ke
Cam bo
Fer r
Could n
Maj nun
occas ional
Ap plause
Prin ci
bac on
refle ction
screw ed
sigh ed
defend ant
severe ly
guitar ist
consequ ence
domin ant
sty les
Gir alda
magnet ic
Reser ve
Hud son
Spen cer
criter ia
tobac co
6 th
A do
A ub
B am
C ary
R angers
S ier
W u
b b
b ir
i ary
o a
p ies
th orn
as i
was ted
ch ir
ch arts
wi res
us en
ag gressive
wor ries
ti res
ex port
ist ical
ie th
ink le
pp en
fore head
hi ther
iz ar
fl ames
cr ashed
Al b
All i
last ing
sha pes
sl am
Er nest
fil ed
app arent
colle ague
inv itation
guess ed
report ing
inst inct
bal let
def ended
grad uation
sn ap
refer ences
Val ent
Mag gie
deser ved
Ba gh
refle cted
honour able
neighbour hood
Tha iland
amo to
employe e
oblig ed
privile ge
yum my
tat too
christ mas
rescu ed
Exam ples
: "
B ain
C AP
E T
E xt
F ol
G T
G ust
I an
K ab
T ill
c ad
e ches
f fe
f itting
l iness
n ar
n ity
o ch
p ard
s aint
s addle
w ra
z inc
re no
re solved
en ser
al liance
me ad
le ase
st icking
ver te
ad minister
so phis
et on
ab sent
out fit
ant ine
con greg
ap es
ex tract
di aper
off ence
sp ider
min ar
min ster
bu cket
sup reme
pu ff
At t
sub way
Con stant
top ics
open ly
Or thodox
trans formation
Ex cellent
week ly
pur suit
Per kins
support s
Qu ar
LE O
arri ves
pet rol
firm ly
temper atures
shar ply
asse mbly
189 0
contract s
consist ing
lean ing
pul se
Les lie
convict ion
wand ering
democr atic
Gall ery
precise ly
cray ons
oppon ent
abstr act
presum ably
Chel sea
pne um
Yvon ne
- (
0 8
A aron
C lo
L ennon
P ain
S ant
T each
T ham
W A
c ca
p istol
” .
at us
re fresh
he al
so o
we ep
do de
us ively
who lly
see ming
In it
In formation
St upid
Ch ance
au thentic
read ers
An glo
du b
Be ck
cont ri
Al ger
Ab bey
14 th
whe at
mis ery
tw ins
inst in
grand son
LE D
High way
explain ing
moder ate
announ cement
Was n
block ed
Cr icket
190 5
DO WN
associ ate
signific ance
Ty ler
Arch ie
Hor ace
Pen insula
stab bed
subsequ ent
craw l
NC AA
champ ions
vamp ire
glor ious
D AY
K yle
L ag
L ucky
N it
P ave
P owell
R is
U nd
Z im
l ene
v ag
w aking
th ither
on wards
ed a
ac knowled
ag g
ag ram
mo ck
de fect
de fic
tr ump
man s
ti ps
qu iz
ig ma
bo lt
who re
oun ce
af a
br ows
ach i
An swer
att ach
fin als
ition ally
fri ger
je lly
pret ended
bar rier
sent enced
soci eties
plain ly
short est
stead ily
Ste el
mag azines
star ving
Sy rian
def ending
grad es
trave ls
Rich mond
bul k
gri p
Pal m
hum our
190 2
Fer din
Mil es
emer ged
defe ating
Ob ama
LAUGH ING
colon ial
inher ited
stim ul
conqu er
org ans
pip es
Medic ine
B erm
C ame
C ai
F reed
H IM
I X
P P
P ack
S ic
S cre
S CH
W ER
f us
i que
l un
m und
p end
r he
w ides
th ie
an or
at ro
or ph
or chestr
me te
ic ans
ac cum
Th or
pe p
lo bby
ul um
ca thedral
red ucing
min ing
fu rious
Re ad
tim ing
18 00
Ar ctic
ange ls
ug s
val uation
person nel
rest rial
rel ate
cri bed
law n
lay ers
Lo gan
pick s
Rus sell
Bal i
sco pe
constru ct
responsi bilities
CO M
exper ts
rac ial
dim ensions
fare well
coal ition
manufact ured
concent rate
confess ion
voc als
Mun icip
Glo be
attr action
Kur dish
CON T
torn ado
resto re
compar ison
crush ed
compass ion
sav age
modif ied
WOR K
gau ge
CHUCK LES
Colum bus
" -
E yes
E mb
E agle
F F
H ence
O le
S wan
T ON
W an
Z ero
c tory
f lock
p ra
s ings
w u
ο n
re marks
or al
it udes
of the
st out
ic ting
so y
ri ages
with draw
us cript
ther ine
He ming
what soever
com a
ca therine
pro pri
don key
over night
int u
pres idency
sc andal
mar sh
inter cept
inter ference
du al
che f
cha ins
vol umes
number ed
arch y
sk irts
trans action
view ed
Me i
met ic
Ab b
With in
gener ate
Em erson
Bu zz
conne ctions
cult ures
phys ician
Di et
hat red
Port land
dig it
190 8
coast al
econom ics
Iran ian
hun ter
Ap pe
nur ses
deser ted
Pet ty
meas uring
civili an
Mir anda
element ary
integr ated
dip lom
photograph s
grat itude
Bah rain
install ed
mathemat ical
Ret urn
cott age
Vill age
prob able
forbid den
therap y
Cot ton
Diam ond
adequ ate
entre pre
E lli
F ra
H aut
J O
M ak
P od
P rest
S ard
T ouch
W it
b ble
c H
c ited
g ments
g oose
i 1
s mu
‎ ?
in spe
an che
re vers
en able
ed o
he ating
li br
ne th
now adays
ag greg
So ld
In fant
av ian
bu gs
read s
ob sc
ob sess
mon k
fa ils
happ ier
Co ven
du g
pre c
head ache
Re lig
ff ff
ors en
Con s
pass port
10 th
sk ull
shall ow
foot age
que ue
free ze
free zing
gar ments
sum mit
mess ed
Ph iloso
adv ise
influ ences
mot ive
Tur ks
decl are
fool s
utter ly
Never theless
Kent a
champion ships
remind ed
contribut ed
syn c
ceremon ies
Ari el
frame work
pitch ed
Common wealth
Pau lie
curi osity
cance lled
susp ended
liqu or
kidn apped
monaster y
Ferdin and
Heming way
? ?
D I
E st
I sh
K um
L ay
N ana
P ep
S tra
T AL
T WO
W ong
Y ELL
b il
f ried
m oo
s est
s ciences
w ider
on i
en force
ar rog
st um
st atic
ver ing
am er
am ar
am bi
his torians
like wise
itt ens
em ail
ma j
hi er
An t
du cks
hel m
Be ar
pre de
night mare
Can al
sub tle
far ming
sha de
10 1
ond a
view ers
Fo on
organ ize
Har bor
speak ers
CH AR
Wal sh
arri ving
publ ishing
Hen ri
host ile
spec im
ging er
utter ing
detail ed
Mur der
80 ffff
fashion ed
Da ily
ALL Y
drag ons
hib ited
Juli et
Es ther
Jen na
SPEAK ER
incredi bly
nig ga
ket tle
Econom ics
cler gy
Yugosl avia
warri or
Beng al
Maur ice
Vlad imir
Tham es
cH 80ffff
B ent
C ors
D P
G run
H BO
S ony
T l
T aking
W inst
b los
c ence
l akes
m ount
n atives
in cur
in scri
er r
at on
re placing
re friger
is ons
ar bit
le ys
ac a
ent e
am bit
am big
ul u
fe es
no ve
pro ven
om i
ass es
ang a
over head
St al
pr inter
An nie
ath lete
ire ct
never theless
cont amin
Mar i
clo sest
When ever
gi ble
val ve
far ms
Ind ies
mor ality
hard ware
stu me
den se
Ma king
possi bilities
Pr us
Cha mber
commun ist
equ ations
Sha w
compet itive
command s
wit ter
190 7
Mil itary
Fred dy
Gar cia
inno v
heaven s
cru ise
complain ts
sque eze
complic ations
Juli an
Assy rians
infl amm
beast s
CL ARE
Face book
coordin ates
Prom ise
grun ting
infect ions
rebell ion
caval ry
Bundes liga
Salz burg
, [
E aster
F ul
H ob
K ö
L oc
M itch
S ue
S kin
T rent
W er
] :
j aw
o ons
s incere
in ward
in quired
as ters
he ated
ic ate
id ol
ri ots
Th under
un ions
pl under
fe ars
her itage
ex plic
19 11
But ter
ia z
Ch es
pos al
sc or
sc ram
Is le
gen re
real m
Mo del
AN K
sle eve
Ex cell
month ly
short s
sun k
mis chief
West minster
compet ing
fix ing
AP P
wild er
print ing
Mil an
nation ally
Fred die
Hy de
Inter est
debut ed
Gri ff
psycho logical
passion ate
SPEAK S
Por ter
wand ered
rein force
Pot ter
Soph ia
dinosa ur
certific ate
bicy cle
Natal ie
Alli ance
pneum onia
" :
3 D
B it
D ID
F ab
R ow
S cr
X i
a woke
f ag
r r
r ides
s aints
t ure
t weet
u um
y up
ā r
al tered
me mo
ic ular
ro ses
ut ili
we ars
are l
do minated
Th row
con quest
con sole
fe ction
res ur
res pected
ill ance
ca ution
ight s
ie ls
el bow
bl ues
ian o
ph al
long ed
Co lo
car tr
vis itor
At torney
TH INK
Sh utter
Can on
ris es
mb i
rel uct
cus toms
tem ples
War ner
OR GE
resp ons
black smith
Bar cel
Ke ith
terri tories
Bu ffalo
dies el
burn s
Atl antis
Fin ance
Park er
Du blin
destroy ing
Cam eron
Ham let
Mike y
vot ers
hun ts
Has an
itar ian
tempor arily
convers ations
eli minated
sam ples
alcohol ic
proceed ed
wid th
Test ament
revolution ary
conven i
constitution al
absor bed
foss ils
brow ser
swift ly
limb s
adm ire
Champ ions
lux ury
onym ous
Venez uela
Ott awa
GON NA
Bald win
sophis tic
prede cess
A g
E ye
F arm
G B
G aga
H ide
I ike
L l
L ess
M ü
N ico
O m
P ra
R oland
T ate
T witter
b log
f ry
m ns
an ed
re ly
me h
wh ales
ad vocate
co stume
po d
con version
man uscript
no mi
com pelled
19 01
ast ics
ous y
bl ah
cl as
sp ine
back up
part ed
tor pedo
Ch ess
si zes
ret ained
pre fecture
Mar ine
Re v
Don na
Le ima
ug ga
sur rendered
IN A
cha os
God damn
Ind o
tre ason
aut umn
contin ually
sound track
Fe llow
partic le
rece p
Je w
sun light
depart ments
grand pa
Sup port
stri kes
Que bec
Sal lie
mass es
sen sible
Mer cury
coach ing
approach es
director s
More over
186 9
settle ments
Del hi
bac helor
dim in
progress ive
scream s
Must ang
trem bling
neighbour s
tap es
desper ately
resident ial
autom atic
poem s
Work ers
hydro gen
draft ed
elect ro
collap sed
Ax el
Nich olas
coinc idence
Sier ra
0 2
A bu
B B
B is
C um
C ale
D L
E f
E ld
F ir
G ann
H are
K ho
L ON
M atter
P OR
S ang
S AM
S cream
T odd
V IE
d us
d ain
m ies
p ud
in ven
re vel
en h
he ed
st ere
st ained
ic ious
se gment
ac ha
ac res
id al
wi ped
co x
do ms
ur u
con secut
He brew
sa fer
ex e
Ye ars
ret ain
form ally
spe eches
iz en
iss ions
cr uit
hand ful
Ro th
der iv
sup porters
jo lly
cy cles
vi o
sub stantial
rel ativity
Not ting
plan ets
trans formed
bar bar
Tr acy
foot steps
cor pse
record ings
fre ight
rad es
Sy mph
comput ing
suggest ing
photo grapher
ctive ly
cro o
vert ical
decl ine
pig e
cred ited
Bra vo
transport ation
Tam il
Andrew s
elder ly
encour aging
conqu ered
volunte ers
premi ered
resign ation
Sult an
doctr ine
phenomen on
centime ters
Agr ic
antibiot ics
Barcel ona
0 5
A F
A U
A CH
D unk
H od
J ab
J ava
M U
N AS
P M
T ris
T ax
g ul
i ors
n ests
o ct
p read
t ends
v ian
re ject
to rious
le isure
st ating
be ats
li an
ri m
we pt
out standing
ur t
un pleasant
de ed
con front
our ces
We ather
qu ery
ment ally
na vy
ish an
per ception
ep ic
cl ing
cl ap
Ch ange
si bly
pt ions
sc orn
Ro c
pre v
Ne v
sm ack
cond enser
For ces
run g
tri gger
sort ed
Me th
exam ination
Ho g
hur ting
fort night
prof its
question ing
fast est
cou p
vill ain
Ca thedral
sn ub
pack ing
vari ation
190 6
address es
AC E
Pre viously
Pan tho
pray ed
bound ary
investig ate
bother ing
employ er
significant ly
mechan ics
Mir a
Tre vor
Enter prise
protest s
Greg or
desc ended
propos als
---- ----
Common s
TA IN
ende av
gur t
depos it
Histor ic
homo sexual
Dod ge
infr as
conspir acy
ingredi ents
twent ieth
remo val
B low
E VERY
F res
G host
H ir
H oo
N AT
S me
V ick
f itted
l ain
m all
n ings
s cold
z ie
in ated
he ck
wh ale
ac ular
ri ers
ur ance
po les
him a
bo b
has h
sp ont
St ri
oh en
dis cri
int imate
str ain
aw fully
fl ashed
tim ber
fr ust
pri zes
reg ulation
bre lla
keep ers
ste ak
ris en
mind fulness
sol itary
fi ance
Pro vin
velo city
OU GH
anim ation
rid er
Pl ant
cir culation
check s
process ion
respect able
stri pes
Frank ie
Sen ior
AC T
nie ce
tall er
Rad hika
bomb ing
focus ing
strug gled
pian ist
isto cr
excl usively
wrest ler
Tra vis
Greg ory
tub es
Mun ich
fli r
Tour nament
advis ed
Mand alay
Rh ine
guar ante
inher it
Start ing
cano es
perce ived
synd rome
anthro po
Scient ists
satisf y
Jama ica
5 12
C inc
G av
G har
H EN
J ung
K ra
M ered
P lot
R even
T end
W en
c ured
d anc
e ves
e uro
g it
i ards
k é
o z
o lla
s wo
s words
t ad
u z
v od
w y
at ics
ar n
he aling
ic ations
be hold
with drew
ne e
te les
con trad
ca ut
And roid
ind ign
ind irect
ood le
In n
sp her
si ans
ser geant
fa iling
inter change
Re in
Se vent
la be
Mo tor
Con cha
father s
vo id
Ex press
dist ances
bas in
cu le
aim ed
sw ung
Pl ummer
concer ts
IT V
bal d
bal anced
Rus s
bell a
indust ries
spot ted
neck lace
Love ly
amaz ed
symp a
Care ful
rab bits
affect s
dia bet
challeng es
onom ous
GRUN TS
Croat ia
ignor ance
Adri an
YE AH
Wag ner
Athen s
Phoen ix
crick eter
oat meal
Seem s
Hose yn
Gabri el
wides pread
Mered ith
B apt
C us
C reat
D ow
F aw
J ump
O ft
R ug
S ING
T ag
W R
d ive
re porter
ed ia
or c
he h
st ed
st are
ch ris
de grad
con fined
pl ague
no min
wor ms
qu o
ind ian
fo e
ven ess
ci als
bl amed
Ye llow
dis plays
tal ented
inter rupt
wr ist
Be en
cre di
par ked
air y
sing ular
vi br
To y
sl aughter
Pro phe
half way
tra uma
ib a
cir cul
conne cts
Rich ie
stor ms
research ers
dio xide
phy si
yo gurt
SE E
commit ment
GE ORGE
moon light
rot ten
Na ples
maintain ing
copy right
lan tern
contribut e
complain ed
advant ages
Move ment
assum ing
calcul ate
quant um
ias m
supp lied
kilo meters
infe cted
admir ation
Def ense
parad ise
chim ney
isol ated
pus sy
affili ate
Psy cho
Cry stal
astron aut
hospit als
Defin itely
pep per
Pantho ibi
" --
C ob
D ays
F ili
G em
L ex
P ush
S ach
S ug
Y or
d al
f ountain
l av
r us
t ens
w aving
z el
z ip
re liable
is o
ing o
ar istocr
le e
ad mi
are na
ab y
de vi
con fron
man sion
um ed
ex agger
su e
ind ul
bl er
di alogue
But t
off spring
gu ilt
read ily
aw ait
mon sters
cent ers
des p
Al pha
Mar x
Re gan
che ated
ress ion
cur sor
vi er
bus hes
cri p
17 5
cor al
class ification
clear ing
Miss ion
CH ATTER
Cent ury
trad ed
Lu is
tro op
iv a
Sal t
Spe ed
Lou ise
Li ves
iment ary
pic nic
Reg ister
inn ati
Sus sex
NE ED
stream s
Mel issa
sque ak
Ow en
cous ins
mathem atic
aband on
cheer ful
distur bed
situ ated
demonstr ation
Hop kins
collabor ation
TI ME
Cru z
fest ivals
brig ade
Serb ian
theo ret
Shir ley
Langu age
consecut ive
Dunk irk
Cinc innati
% )
B ash
C C
E ner
F ast
L ate
M B
M ulti
R ather
b ry
l ug
m atic
t uck
in son
in vention
al armed
ro v
id le
ver n
li hood
ab ort
up date
con vert
man ia
res id
com men
op ard
ess ence
su ited
ment ed
fo g
fo lio
In tel
ven om
per il
ak ened
St aff
Ch art
ret ail
bu ff
sto ol
Un iverse
Yes terday
ens on
light en
par rot
la und
sur plus
tri ps
rest ed
vol untary
10 5
rel ating
cor ruption
dep ths
exp on
exp enses
step ping
poor ly
sun set
flo at
process or
rain s
ban anas
comput e
Sm ack
dev ast
associ ations
Au to
bio graphy
186 1
cred its
Mont ana
consum ers
pup pet
broadcast ing
owner ship
sche mes
thri ller
Vo ice
lean ed
boun ce
recommend ation
persu aded
fisher men
hab ited
Origin ally
Electr ic
pap a
Oak land
uncertain ty
imprison ed
deliber ately
inqu iry
Ukrain e
amuse ment
corre cted
elabor ate
acquaint ance
Cambo dia
Freed om
Infant ry
sophistic ated
A von
B il
D io
E den
H D
L illy
N N
N T
O T
P and
P ere
P hy
R ah
R ice
T win
V it
V EN
g ence
h p
i ast
k ra
w ool
y ton
re z
re solve
en o
or ch
it an
ac ute
am en
ther s
de an
ant on
tr amp
pl ung
qu art
end ers
any how
So mers
el ing
bl oo
di um
Ch all
av il
au er
ser vers
inter section
Be hind
Mar co
Re view
home less
che at
IN TER
tri als
mb a
Are na
hal t
hu ll
hold ers
Tr ad
Fo ster
dep loy
hot els
ik a
strong est
success or
AL E
spo iled
CH E
RE AD
mur m
mis es
sal ad
bri a
cross es
non convex
jud ged
hang ba
shoot er
Ele anor
186 4
san ct
Ba iley
cru cial
sar ah
begg ar
civili ans
pher d
accom mod
Must afa
Tam sui
strict ly
Fair y
virt ually
repeated ly
bitter ly
custo dy
Wr ong
involve ment
emphas is
ww w
Buddhis t
descend ants
Jenn ifer
transmit ter
Somal ia
intest ine
IB M
surve illance
Comput er
wret ched
Cai ro
Shutter stock
Notting ham
Symph ony
A v
A un
B ened
C I
H end
M all
O i
O il
R ace
R ica
S car
S ai
S ão
W a
W OULD
b red
b ane
c unning
g is
n oun
r amp
u ate
in habited
at u
al le
al titude
as a
it able
le vard
ve il
wh irl
co co
et ta
im mun
do d
out come
go ats
su nd
ind istinct
di verse
St ars
au ction
gu ided
dis appointment
fa x
ph oned
mar ble
inter face
fl ank
Be gin
Re y
Ar tie
je wels
sub stitute
Con struction
Ma id
ley ball
fil ter
exam ine
Wor king
Pres ently
question ed
ru th
loc ate
ik h
11 th
ax e
compet itions
AM ES
separ ately
Des ert
marry ing
Out side
accident ally
PE OP
Stu dies
preci p
indic ates
lif estyle
Mont real
Fort y
Turn er
Victo rian
rug ged
colon ies
Fri end
lest on
Contin ues
initi ated
eager ly
Argent ine
Fun ny
Lav ender
Alexand ria
cray on
toss ed
tast es
convent ional
Miy amoto
Hig gins
brut al
lou der
suffici ently
datab ase
0 6
0 9
A ur
A na
A irlines
C ulture
D ian
E U
F OUR
J ob
P am
P int
Q aleh
R ig
S aints
T ink
U sing
W i
d azz
d agger
h ats
k as
m uttered
o ce
p ars
p ony
t z
to po
le gged
se als
ha il
all ing
im mune
do me
ab a
ur ers
mo th
de ceased
com pe
pro vo
pro visions
ex ca
end ure
gr id
has tily
ak in
ough s
off ense
off ended
ang led
part ially
tor ted
spe lled
An go
hand y
att ending
Al ban
De c
place ment
che w
gl oom
io v
add s
fil thy
Tr ude
Man ager
har ass
wish ing
box ing
respect s
RO B
necess ity
kiss es
announ ce
decl ined
Reg iment
assist ed
Wil bur
rob bed
Sil ence
rush ing
switch ing
Haw kins
scream ed
bast ards
psycho logy
task s
witch craft
hook ed
Broad casting
Ga elic
igno red
slip per
scholar ship
kilo metres
metro politan
initi ative
extr ater
Ice land
jing le
parad ox
potato es
Buddhis m
Independ ence
enthus iasm
condem ned
Raven s
dwar f
Honest ly
trai tor
matt ress
Berm uda
infras tructure
Smack Down
PEOP LE
( ).
. ’
A part
A ctor
B RE
B irth
C ic
C any
C AM
I GN
L em
O live
O VER
R ico
R andy
S IR
T welve
d amp
p orn
p ete
t rench
v ial
th on
er rors
ar ia
me lan
ha k
ro e
ro ts
ld a
li z
ri l
co c
et us
ir regular
am pton
un fair
pe er
ct ica
pl uck
can non
by ter
sa u
ex ile
ah l
bo iled
gr ind
cl aws
mer c
mer cury
dis charge
ren s
sto red
sc ent
iz z
inter val
inter vention
ath a
Do ll
Ro sa
Re id
sup plement
reg ime
uck er
vi vid
ris ks
Con trol
mother fucker
sol ving
ling u
watch es
Ho gar
dra ught
sleep s
194 0s
Har ri
squ irrel
Ste ph
third s
Mon k
profess ors
pract iced
IT T
conf using
develop ments
respect ive
tar gets
dou b
jour n
expect ations
ga e
Ken ya
bank rupt
apo logy
attempt ing
lower ed
feed back
Str ong
gro ve
aware ness
Super man
chick ens
dim ension
Ly dia
odd s
pool s
beha ved
syn thesis
gall ery
neighbour ing
ware house
cig ar
Isra eli
Tha i
Leg end
replace ment
amb ition
mole cule
AV X
cigaret tes
Der by
bam boo
infer ior
Antar ctica
Artic le
coff in
minar ayan
Oft en
Cany on
B itch
B rock
C ô
E isen
F en
F ROM
G and
G im
G ret
H undred
K w
M ot
P rep
S G
S K
W anna
Y as
a ero
e agle
j oh
m one
o logists
r ally
ó t
in jection
on na
at ti
be ams
ro lls
ld om
ut t
ur ine
mo dore
un likely
pe ach
de ity
if a
ap arte
no pe
com for
com memor
um brella
about s
di al
di ver
their s
und e
ple y
tor ation
Ch p
int s
bu c
mean while
fl ute
ask ets
pre mises
Al bum
Mar sh
bit es
par ano
Le ip
ner y
sub mitted
produ ctions
rel ics
dec ay
Bo ots
gre edy
trans mission
gram mar
Pe ak
origin ated
spo il
rad ar
Hi ro
depend ence
zz ar
dev otion
enter prise
Pal est
Pal mer
190 3
ji ro
ov ich
ox ide
tur tle
Hal vor
Nat ural
Fort un
pin ch
vac uum
web sites
concent rated
custo med
Budd ha
Cir cle
Vin cent
Mort on
Terri tory
encounter ed
Lax minarayan
Lyn n
onso red
buzz ing
Oli via
abdo men
portray ed
dent ist
feud al
Disco very
Aud rey
inves tors
Anders en
Prest on
B lo
B ark
E sp
J up
Q uran
Y ong
g ical
h ic
l umber
r era
t ended
v end
v ance
w ander
in ous
at ra
re cruit
ar ation
le ak
ow ls
ac customed
ad mission
co ats
am ba
ab rupt
Th er
ink led
el and
No va
ass is
und i
than asia
em ic
ret iring
sc ree
ph il
inter rog
Be es
clo ak
De ut
reg istr
world s
Con f
wal d
15 M
dri vers
fi ber
sk ate
rele ases
After wards
Ah med
AT E
orig ins
Cal vin
public ity
gener ator
sw allowed
Sha olin
cir cular
mess ing
depart ed
Su z
mad ness
gain ing
learn s
mic hael
Jim mie
Sen ators
favor able
dig est
Dar reh
pray ing
né e
tall est
cow boy
Pak hangba
Cle ment
measure ments
calm ly
Gi ven
Den ver
deb ts
reser ved
proceed ings
Ven us
sie ge
organis ations
veget able
Leg isl
virt ual
Manip uri
Wonder ful
1920 s
LI KE
volunte er
negoti ations
Finn ish
Cel tic
Independ ent
abdo minal
treas ures
PLAY ING
crimin als
Dash t
cine ma
GAS PS
vell ous
este em
juris diction
somed ay
Prad esh
discri mination
Hogar th
! --
. ?
/ /
1 12
D one
D ust
D rew
E qu
H ood
H EL
J ag
K as
N as
P AN
T es
W ool
b ung
f ain
f fled
l S
l as
l ens
n ay
p um
p ens
t v
u ity
th umb
is le
en su
en zy
al oud
ar ith
he el
me ga
ic he
ch al
ch ord
ad der
li k
Th orn
go s
sh u
tr an
tr actor
my stic
she er
In vest
ra is
om ena
bl az
sp ur
St re
than ked
dis solved
ret t
min eral
bet s
iz er
inter ven
inter fer
cr ab
pre st
dr un
ton es
ten ham
fr idge
less er
Se ason
Fr is
gi o
main stream
real istic
ness es
God dess
cal i
leg ends
trans form
ling ton
Pr ague
Tr ain
door way
hy mn
Jo bling
gy m
Wor th
lock s
flo ors
cell ar
cup board
da isy
bal con
pho sp
descri bing
sof a
creat or
trust ees
comb ine
prin ces
Mor oc
Cam ero
square s
regard less
Span iards
hun ters
Stu ff
fortun es
nur sing
investig ating
NE W
Bre nd
Mill s
Back ground
interview s
fold ing
mut ual
pup ils
broadcast s
altern ate
require ment
improve ments
Dun can
atom s
pitch er
terror ist
conce ived
Beat les
analy st
accompl ish
anno ying
Web ster
Gas ps
Ev ans
Stud ent
Rho de
dinosa urs
clin ic
nucle us
carto on
Treat y
Alber ta
Athlet ic
Ethiop ia
simult aneously
stub born
thie ves
exe cute
admi red
Leip zig
0 3
1 15
A ber
A men
B loo
C ult
D J
D est
E rik
F ly
F are
H atch
L ut
L ance
M é
M atch
N es
O z
P ig
S ick
S cript
T ree
V el
V iolet
W ish
b ons
c in
g art
l ions
m end
m orn
r ous
r att
s ided
re moving
ing en
as to
ar in
ac ademy
ion a
am us
am end
do c
do dec
ur ged
un ci
sh ill
man ual
pl ank
some thin
su cks
ye ll
ink y
fo ster
fo etus
di le
sp onsored
br isk
how er
dis on
under wear
inter action
comp ati
must ard
care less
pu lls
tri m
gre ed
cus es
12 5
sent ences
Te acher
prom ising
Jo el
Jan et
plain t
Her itage
beaut ifully
public ations
sum s
Dan a
sw am
sun ny
ric ulum
court esy
AS E
tour ism
host age
teach es
audi ences
ID S
sad ly
Pat ty
threat s
rub bed
Bab a
Ray mond
Sand ford
demon strate
Trans l
Ce ll
expand ing
sust ained
Tro pical
conserv ation
cert ified
saving s
illust rated
pour ing
fid dle
legend ary
anno yed
Jam ie
persu ade
reci pe
Hugh es
cub ic
champ agne
Kno ck
grun ts
accord ance
embr ace
trun cated
Phill ip
diale ct
assem bled
Coven ant
arbit r
Ghar bi
Eisen hower
D ex
D iv
E ul
F ate
F light
H off
K re
N S
O O
O dy
P om
S ti
a while
f ying
g ren
l ur
r ites
x ia
y x
í n
re actor
to ad
ed ited
it ating
st air
be li
ha ck
ch io
so da
et ary
im o
ur us
ce ase
de h
sh ud
sh iny
op ing
some place
don ated
right ly
In no
In tellig
ra ven
ort on
bl ur
cl uster
back ing
ret s
sto cking
ma ids
fl ing
iss ors
car ing
start led
Br ain
par able
gl ue
run ner
sub mit
sha ft
Some where
live ly
pay ments
fac il
develo pers
English man
ok a
ru pe
bas es
cou ples
Europe ans
mag ical
cost umes
ctr um
Ed ge
Sy l
mach in
suggest ions
189 8
Sing les
Stu dio
acqu ainted
Under ground
prevent ed
Haw k
valu ed
Sub titles
Light ning
Cra zy
Sel f
Win chester
Ur ban
hunt ed
whist ling
decor ated
fisher man
harmon y
quis ite
Shel ton
MOR E
Fant astic
flush ed
adapt ation
Amb assador
Quest ion
Cabin et
SCREAM ING
weld ing
rehears al
Rena issance
Bright on
whi pped
CAP TAIN
verte br
hunts man
Meth od
laund ry
Harri et
" (
A IN
A zer
B ased
C limate
D uck
D ouble
H av
H AD
H yo
I mp
K end
N arr
P rison
R id
R ush
S ire
S ays
T at
T as
T roll
V ik
X box
Y aw
a us
d aring
e valuation
l ent
p ork
s no
u y
u be
u ated
w right
y ang
é s
in mates
on de
re pro
en chant
as an
se ldom
ver age
ri pped
co operation
ag i
Th an
de ll
Wh is
lo ser
my ths
can on
qu oted
ig ation
ho v
gr ains
ice _
sp ac
St age
dis played
fl ick
ath on
hel met
Be ars
med ian
vis or
la us
sub ordin
Go spel
remember ing
Tr aining
ann ually
oper ative
var ied
Cha m
Pres byter
equ ality
ik in
cret ion
sum mary
Per for
remain der
Fl ash
Min or
teen ager
Rich ards
pot entially
Mus ical
School s
ni ves
ni val
Church ill
Mu ll
Bur g
Got ta
lic ensed
pat ri
Under stand
ali ens
deser ves
corpor ation
Dor a
Shar qi
Ash ley
interpret ed
pursu ed
gam bling
amb assador
conce aled
tank s
tack les
Produ ction
wag ons
gaz e
Fif ty
Yan kee
abol ished
PH ONE
Flo rence
Ped ro
Organ ization
Serb ia
Bird s
Sax on
casual ties
municipal ities
GUN SHO
oxid ation
Fem ale
Fried rich
subur b
congrat ulations
inevit able
Bulgar ia
pand emic
HEN RY
; "
C arson
E CH
F ut
G ap
L ah
L ud
L ots
M V
M akes
N av
O d
P late
P owers
T ob
b unk
d art
h tt
j k
l ump
w ang
ā b
ο ο
re built
re forms
al umin
it zer
ar ity
st ache
se ize
ut ility
ad i
Th ousand
not ably
pro spect
ex orc
ig i
Ch ester
dis se
min erals
car p
ms on
med als
Re gin
Re gency
De b
Br ut
Se attle
ins ign
TH REE
sha zzar
Pro per
law suit
hy ster
cho re
swe ets
ok o
sum mar
quick er
aim s
Sha me
fell a
rain ing
Lu x
refer end
rul ers
Sal v
viol ently
vari ant
Bel shazzar
cand les
smo ked
189 5
Mag ic
Super intendent
avo ided
Sing h
screen writer
Ver de
strate gies
brand y
lif ting
complain ing
Fran co
Again st
Squ irrel
reser ves
assum ption
Revolution ary
Through out
Pho to
hypo thesis
choo sing
Short ly
Pier ce
Ark ansas
harmon ic
index ed
isen berg
bark ed
chor us
cod ice_
denom in
tow ers
Add itionally
disgu ise
unemploy ment
Mou na
Current ly
Nig el
Ado lf
croo ked
Nev ada
Jup iter
3 50
D oo
G one
G DP
K itty
L az
M ap
M ath
M oul
P ent
P asha
R ising
S anti
T ow
T rel
T ót
U RE
Z o
Z ar
j ay
l aser
p ots
s way
w en
z ar
è res
th am
in door
in formal
re leg
to ken
ed itions
me tric
se cur
ve al
ot to
ch t
co ke
im posed
ne o
He isenberg
can st
no thin
com rades
su ite
bo iling
ra z
ol ine
sp rings
und o
ach t
St ick
dis appoint
sc issors
Co ck
fl own
car ved
cr ane
ful fill
De e
vis a
bab we
cur se
bre vi
gl am
row ing
char ging
Go sh
dec iding
15 00
Man o
bur ger
gun powder
por ch
prote ins
24 0
fell as
graph ical
mic row
gas ps
compet ent
rap per
capital ism
yr us
Ken neth
vari ables
gri e
sess ions
bra him
Bur ton
hum ble
Gl oria
Ra o
Sou theast
opt ical
gradu ates
sett lers
Democr at
tight ly
Ru th
metal s
concept s
demon s
beach es
Gi ant
manufact ure
calcul ations
attend ance
whisper ing
rig id
Es sex
grab bed
Song shan
experiment al
stir red
discipl ines
Social ist
swing ing
eu thanasia
shif ted
intent ions
prob ation
tribut e
Fight ing
het ti
respir atory
mush rooms
pean ut
eleg ant
Commer ce
Zim babwe
mete or
explic it
deriv ative
CHATTER ING
Ener gy
" ",
3 60
A ut
B ose
C B
C LE
D over
D ame
G ates
J acqu
L é
M oh
M lD
P RE
R hy
R ES
S ort
T ul
T rail
V or
d or
j en
k W
k un
v ors
w ah
w ist
er rand
re called
it on
es hi
le agues
se lls
be et
we eping
te es
po ds
con tem
her d
her ed
there by
ex pose
ound ed
na u
el ite
ci pher
oun ge
mer y
down load
mber g
str ap
ank a
sc al
sc out
ph ants
under lying
inter vals
car n
won t
Al t
comp act
Ar mor
che mist
Fr itz
My ster
New port
10 2
sl ut
sk irt
Ah h
develo per
var ies
Gu inea
Char leston
ik o
Pl aces
Mon ica
rad ius
inst ances
Pa ula
.... "
Mc Gee
conne cting
sn ack
publ ish
ener gies
length s
warm th
celebr ity
Sa ul
vere tt
satis factory
186 2
Ver non
deliver ing
Play ers
cere al
Mah on
Dire ction
ANT ING
Bas ically
Lar ge
hes itated
Anton y
nick named
Beat rice
Anim al
Fu ji
Gon na
implement ation
depos its
Plan et
Gene va
Nur se
Corn wall
femin ist
Lim ited
Shah rak
Econom ic
prompt ly
tast ed
infant ry
Chap ter
exerc ises
deem ed
horizon tal
agre es
physic ist
Comple te
Nep al
dioces e
predecess or
ké mon
Rug by
buc cane
Camero on
) "
- ...
: //
A ce
A br
B end
B ak
B ren
B rent
B ACK
E verett
F ear
H OR
J or
J ong
J azz
K is
K it
K ie
K nights
N aval
O M
Q ual
R ou
S avo
T ut
T wilight
U sed
V ish
X indian
Y um
Z ack
d ances
l C
v ars
th ia
in land
in cent
the ology
al lies
wh ack
so ck
ri pe
ke es
un necessary
no isy
res umed
com pr
com rade
end less
she khar
ish i
per m
ci an
when ce
di ving
af ar
dis abled
Be au
cr ad
cr ashing
fu me
des ires
Al ready
che ering
sing ers
sub tract
present ing
dist ill
wind ing
cor ps
oper ator
Her man
War saw
Pres idency
hope less
Bar r
Sp onge
special ist
mis understanding
fur t
En try
Gen er
Bu en
Ph D
sn apped
host ing
Jim s
photo graphy
sen ator
sick ness
glad ly
Mer cy
Gl ory
WH EN
clock wise
189 1
LO VE
willing ly
determin ation
interview ed
Dor othy
vac ant
pil ots
Gri ffin
Ann oun
tort ured
discover ies
Cab rera
Tan zan
Ti bet
revol t
implement ed
dict ator
leap ed
stan bul
Bio graphy
Lax mi
oppon ents
Brah min
skip per
assess ment
revi val
techno logies
Jas per
simpl er
bree ze
prosecut ion
Colo mb
vod ka
sympa thetic
Dian e
joh n
Fortun ately
A stro
B ass
B EL
C ly
C au
C ash
E c
F ish
H es
J ACK
K ram
L S
M ino
P ure
P ANTING
R NA
S r
Z ap
a irl
c ush
d ots
f uss
g ow
k itten
n ah
s ally
s killed
s burg
t é
t oured
v ow
re members
is ers
ac knowledge
am using
pe aked
sh rew
tr ams
bo s
Ch icken
Well s
ob serving
mon uments
sc re
mar vellous
An ato
Be ast
hand ic
won ders
des ir
cle ars
ten e
lot tery
par ade
Le ices
cur ved
war fare
later al
Bo dy
Pr ay
app a
contin ents
comple tion
gy mn
Her old
hot ra
guess ing
Ste phan
spo kes
Sha kur
bor o
sal mon
touch down
rain forest
Wal d
Bu y
Cor rect
Su lli
Ber tie
Rus sians
rich est
represent atives
bon us
pati ently
zz le
lam ps
Mer le
Thom pson
decl aration
Wil helm
pun ct
acqu ire
surround ings
particip ation
witness ed
dete cted
tun es
affect ing
Should n
integr ation
techn ically
weigh ed
Count ess
expl oring
cano e
bis cuits
Slo vak
Eu gene
Pun jab
assass ination
flav or
grocer y
Lau rie
wre cked
Polit ical
summon ed
Tamp a
wra th
dode cahedron
CONT IN
Abb é
diabet es
drun ken
Intellig ence
machin ery
referend um
Santi ago
Sulli van
B le
C had
C ine
C OR
E die
F lying
G RE
H ast
I di
K un
L uck
M ul
R U
R ic
R oo
R up
S V
S ven
S ung
T Y
W B
W ERE
W ILL
Y aman
d ame
d angers
d airy
f ian
h in
j ah
m ash
m ium
p eter
r ash
w aved
é r
ô m
in as
ou bted
on going
re med
re bels
as set
ar oo
ar ise
se gments
ad opt
co operate
am y
am mun
ur ge
ce p
ag as
ag hetti
un believable
go mery
ap preh
bo som
ho e
gr acious
day time
af firm
cl um
ang ered
br ides
back ward
ble m
mer ge
mer rily
em ig
fore cast
dis appearance
ren ted
spe ar
ph ony
mar vel
ign ment
Do ck
Al wyn
Ar row
gen et
ident ification
pu ri
hal es
sho ots
sk ins
country side
Your s
hy mns
Man uel
swe ater
key board
pen is
rece ives
Lo is
Cl oud
Gu ide
Sch ol
EN G
vill agers
Qu aker
Am bro
Cor on
Ber g
accept ance
medi ate
pan cakes
Mal ay
strange ly
fund ed
Gl ou
Dep ression
coast line
celebr ating
pat rol
guard ed
guard ian
Fre sh
188 2
eli minate
crack ed
Han cock
pup il
tong ues
dess ert
mort ality
Arch ite
Cho i
tack le
jealous y
obey ed
demonstr ated
diagno sis
Bey ond
orient ation
Yugosl av
cuff s
Bou levard
navig ation
Dig ital
Arm strong
sentiment al
congress ional
Stell a
amph ib
rho mb
inau gur
Alger ia
refriger ator
nove list
inflamm ation
swo llen
Perfor mance
Leices ter
% ,
: --
= "
C ous
E z
H az
H erald
R iz
S arri
S earch
S ifu
b li
d ice
k ha
l ament
p here
s lot
in ction
in verse
on ing
re pt
re bel
al as
al um
ar an
ent ries
ch ina
ut er
am mon
do lly
ur as
Th y
pe z
lo ans
tr aces
It ami
He ights
no bility
ex cuses
And ré
bo il
ge bra
ye ong
In to
ace ous
ang ing
sp ar
ple x
let te
int ensity
port folio
aw ning
spe lling
fa ults
vers es
Al as
comp ilation
nor theastern
par as
ins ight
Mo vie
char ter
cal f
sl ides
Or land
bar on
rele asing
allow een
Ab bot
ann on
contro ller
test ify
South west
stuff ed
loc ally
Char ac
Bar n
Ste fan
box er
fish es
special ized
sal vation
worth less
AS T
sn i
pot ent
Spe c
Med land
multi plication
va ult
ju ana
sco ot
Gl as
gard ener
nut ri
Hon our
pat riot
slight est
gradu ating
reve als
lack ing
tes ters
Bud dy
Mont gomery
Fran ç
resist ant
target ed
ador able
entertain ing
prepar ations
Sof t
relax ed
hast ened
Gre ene
legisl ative
correspond ing
Beaut y
parliament ary
aud ition
robot s
Lai li
Origin al
Cher ry
chlor ide
Rain bow
restrict ions
Univers al
prosper ity
veter an
flex ible
Liter ature
Niger ia
Similar ly
Leban on
SCH MlD
obsess ed
Aur ora
Azer bai
Glou cester
SCHMlD T
, &
1 13
A uck
B od
B ond
C rom
C over
C ris
C OULD
E t
F isher
G ur
H ind
I mm
I stanbul
K ai
L P
L ib
L anc
N l
P ati
S ag
S tern
T old
Y up
b ib
b askets
d il
e ous
g ir
g ia
h ive
k nives
t wi
v ich
z oom
š e
in f
in um
in ian
it ime
he ct
id ly
ot es
The ater
im s
do ve
ag ony
un ite
de let
tr aced
po ke
po pped
po pping
man ga
pl um
ul ary
no ises
ti a
qu ity
ment ary
ven ge
ass ic
ang es
sp ic
br ace
int ri
str and
aw ned
ob li
An j
Be i
cent ric
Is les
cre st
sm ashed
ange lo
che on
Le aves
cur sed
log ne
10 7
sl ower
sl ender
sho res
sho cking
aut onomous
bar king
Ex p
Ex change
pain s
certain ty
app lies
Ho kka
Jo on
dep icted
organ ism
organ izing
Dr ama
OR Y
Har mon
Pe yton
bur gl
Fl int
sw ap
IS H
star ter
touch es
ric ia
Mc Queen
rep ent
Mal a
WH ERE
Sat an
discuss ions
Ru le
eli gible
Bon nie
jum ps
Juli us
establish ing
spect acular
Pen ny
furn ished
struct ured
sie ur
Ak an
Gon z
Dal mat
UE FA
dum ped
Dy lan
rag s
Bry an
rib bon
Mack ay
Kha mba
Apo llo
subur bs
stam ps
Saf ety
Colon ial
thre sh
Bast ard
diplo mat
forgiven ess
overwhel ming
Valent ine
diplom atic
YELL ING
dus k
danc ers
theoret ical
fian c
Auck land
? ,
A E
B ath
B UR
J em
M ail
M ix
M GM
N ord
R ange
V ict
f th
h ush
h ilar
i ć
k im
k ite
o id
p agan
y ama
z ones
ü l
in ject
er ies
wh oo
ha zard
ro aring
ay ette
id an
co her
ir r
ter min
ab lo
ab used
un ik
un successful
sh ima
ap par
ap ron
com mod
ill s
ex em
ind is
ci li
cl ust
ty ard
ble ed
Ch opin
em bry
au gment
dis position
ank le
long ing
fl ap
car rier
cent res
Re cent
cond ens
che ers
Fr aser
comm end
Le ad
Le im
Le eds
Mo ses
Can ter
add ie
Where as
10 3
Ind y
John nie
sl ice
Bo hem
Nor a
Gr ad
Pr act
Ex hibition
Me ad
Me cca
exam s
aken ing
Her bert
lock er
ances tor
Bar ber
Ser pent
rid or
IS E
By z
mis phere
Ed wards
Sy n
teen age
clean er
tro t
Mc Mahon
High er
teach ings
thy self
pan els
AP PLA
vari eties
Che m
object ives
El isa
Hu go
Hu ang
Des cription
Richard son
speed s
doubt less
Father s
rac ist
Pat ricia
Kar im
Law s
Bre wer
indic ation
positive ly
BO Y
188 3
Profess ional
lack ed
mob ili
formula_ 1
Princess es
Ty pe
Mah ir
appreci ated
univers es
Sho re
Ram on
Wall ace
symbol ism
Try ing
quant ities
thri ll
vector s
heav ier
Song s
contest ant
mam mal
XX X
Whe el
Oper a
Find ing
Liber ty
demo lished
shr ine
Slo ven
Cri me
GRO ANS
Len ny
pant ing
Form ula
restrict ed
impro ving
alloc ation
Gh ana
fet ched
cyl inder
Broo ks
Marian ne
administer ed
Chance llor
Scre en
commen ced
murm ured
Bened ict
Prep are
Jacqu eline
ammun ition
" !
B ooth
C ats
C IA
C aval
D ang
E un
E ss
E gg
H ip
L amb
M ang
N ate
N ôm
O no
P N
P erm
R s
S M
T able
U ES
V era
Y ar
Y ay
Z en
b ail
c s
d ashed
e ff
k g
k il
k ung
k ittens
l ings
o ve
r ition
the ft
re x
en abled
to ll
al ley
ow ski
ha unted
ere ct
ch ol
so les
li king
ri z
co dile
ab brevi
Th ir
Th um
not ation
lo af
man agers
pl ural
no de
but cher
pro secutor
And es
per ip
per secut
br icks
Ch ung
pr ud
min istry
bu ys
ob edi
coun tenance
Ro lling
ful filled
ten ure
Ar on
Se o
jo ins
gl u
gl itter
rest less
Con nie
vol cano
Car rington
trans late
pain ters
Me ete
fac tories
moment um
Cha mbers
ru ff
ouch ed
EN S
EN CE
Mic he
sex ually
Pri x
supposed ly
author ized
gas es
agon ist
imp lies
ae k
189 4
gro ans
demand ing
skin ny
Ele ven
186 5
188 4
188 6
rum ors
Wood y
mut ations
Cla ir
DE A
pil grim
stal k
nineteen th
Tre as
disci ples
Stand ard
pursu ing
confess ed
commission er
minim al
hr er
ERS ON
Michel angelo
perman ently
Anim ation
Banglad eshi
inse ct
Fif th
curren ts
monarch y
Box ing
bind ing
carto ons
Indust rial
distract ed
Prote ction
Mig uel
Lt d
negle cted
Sty le
drift ed
Brun o
locomot ive
divid ing
theat rical
Mob ile
evalu ate
appet ite
Winst on
Nico le
Scream ing
lug gage
abort ion
ROB IN
beli ever
Glas gow
Meete i
B ing
B om
B ELL
C od
D res
E y
E ti
G G
G an
H ail
I a
L if
O THER
S AY
T ong
U sta
Y am
b aked
c ill
d up
d orm
g ad
g ne
i at
i od
k ok
r attle
v ations
in stitute
to k
he w
me mbr
st en
ut a
li bri
out break
ne z
un to
sh im
up wards
tr al
con form
con sol
He h
sa ves
sa ils
ca ust
pro claimed
who les
ink ed
In cl
ty ran
ree f
sel ess
av iation
ip ers
str ich
spe lls
ob jection
old s
iz ations
du o
Do bu
cr owned
ful fil
18 70
Br an
Ar ul
Se ung
cur riculum
ub a
ub by
ame ters
Mo ham
New man
bed ded
list ing
Com edy
Go thic
Car lo
12 8
OU S
Me h
allow ance
week ends
reason ing
Cha pel
Po kémon
fre aking
inv iting
THE N
Je ky
Ser ena
wel fth
Cap ito
German ic
President ial
CH R
50 s
hair s
tw itch
cop ied
camp ing
pract icing
accept ing
ilo g
respect ful
tempt ed
expect ation
stat ues
pack et
vari ations
Bel mont
Gl enn
sand y
hero ic
pir acy
lord s
histor ically
function al
Ver ilog
IF E
survi vors
occup y
Yu ri
explo red
Indiana polis
Gi ants
avoid ing
stret ching
numer ical
neighbor ing
Mum my
Pakistan i
thri lled
pregn ancy
Cub an
cruel ty
Wr iting
distinct ly
explos ive
Def ence
architect ural
proto type
Indones ian
Fif teen
Engine ering
privile ges
algorith ms
ignor ant
pas tor
culti vated
Bac helor
Further more
compreh ensive
Peters burg
Bennet t
sob bing
solic itor
Ade la
Theo dore
Vie w
turb ine
Wiz kid
Bain bridge
inspe ction
Griff ith
guarante ed
Reven ge
rupe es
Buen os
oubted ly
Jeky ll
A me
C offee
C yn
C LO
D ion
D irk
F on
H ab
H ank
H app
H AND
I VE
J OH
K ol
M au
M AC
N onsense
R um
S uc
T ren
V iv
V ari
W ing
Y ES
a ah
a ire
b izar
d it
d ings
d uration
f ury
f aded
h æ
i ah
k ov
n as
n ag
t wilight
y ne
” ,
it ic
st ip
st unt
ch ugga
li zed
ri o
ri bs
co arse
im ply
de arest
lo ses
if ference
ct ahedron
ill es
pro spe
qu in
don g
ood les
any a
But ler
over board
si ves
fer ti
ret ard
tal ion
str ay
ob server
mon keys
att ed
Ne igh
sm iles
Se oul
uck le
vie wer
IN CT
tri angular
ris ky
Con go
Com rade
stu dios
open ings
nam ing
cus sion
12 3
met all
low ly
exp end
pen n
Sp ot
sou theastern
husband s
paper work
plic ity
Ber ke
grad ed
track ing
mir ac
bill ions
Bro s
fro st
similar ly
dev ote
finish es
coach ed
mix ing
esh meh
GO P
accident s
Im possible
SH OULD
tur f
LO W
alo g
campaign s
NE WS
stream ing
Ir ving
content ed
jam as
rit uals
promot ing
concl ude
poll ut
dete ctor
journal ists
comment ed
Dun no
Stan ford
achieve ment
poison ing
auto mobile
integr ity
propos ing
veget ation
vit amin
limit ations
distur bing
mole cular
convin cing
Wr ite
challeng ing
gig antic
tab lets
provin cial
ende mic
Cu be
Kan ji
Ama zing
Fi orsen
Ald er
cant on
frag ments
coordin ate
isol ation
Hope fully
shif ting
Sn ake
Wes ley
predict able
Fern ando
mos qui
Avi ation
constitu ency
sab ot
Crit ics
comprom ise
mou stache
merch ants
philosoph ical
Epis ode
Heavy weight
Ris ca
conveni ence
Agric ulture
nomin ations
Fili p
Pere z
plung ed
precip itation
registr ation
shud der
microw ave
Bei jing
A by
A ires
D und
D AN
D irty
G ad
G reet
H ond
I de
J um
L or
L af
R ex
S mo
S EL
T ig
T arr
T NA
Y ah
a j
b ounds
g uts
i ator
m im
u ke
z ac
z ens
z ier
ο r
in th
re ction
re pay
me ow
le a
se iz
ha p
ha usen
ro ph
ro ster
all ed
im er
out line
out door
ag les
mo logy
un anim
up i
up right
con fig
man i
sa hedron
ate l
su me
any time
ho m
In stitution
per ors
per fection
bl adder
ass ert
over s
sp at
where in
Ch en
str ata
aw akened
mon ks
hi bits
thr ows
men tor
inter nationally
ts un
Be lla
Ne ill
cour tyard
thought ful
Br ide
cre m
Ar chae
bro od
Se aton
house holds
ele vation
ele phants
jo ys
book ed
cap ti
ste ering
vol t
vol at
Com pan
Not able
vo iced
sho vel
Pro vidence
nam ents
trans c
Tr ack
cor rupt
app lying
hur st
Ge ograph
Will ie
Jo anna
Dr ake
Har bour
pur ity
25 th
sw amp
Min ot
flo ated
draw s
contain er
sequ ences
boo ze
Rob bie
vic tories
Ham mond
threat en
189 9
PE TER
Tim othy
habit at
tur key
contact s
weak ened
cher ry
particip ants
request s
187 8
Max well
achieve ments
poison ed
MP s
slo pes
Hay es
puzz led
Sin ak
lod ge
Cop y
Jon as
Ki wi
Burn s
pump kin
orient ed
sher iff
Sax ony
recru ited
psychiat rist
bully ing
Spart an
Pave l
entrepre neur
Gann ibal
teles cope
Sach s
Sug ar
confron ted
balcon y
Fare well
exorc ism
Savo y
APPLA USE
A ry
A gree
F Y
G IR
L C
M old
R ance
T N
T ino
T UR
T aft
V il
V ers
X in
b ian
b ids
e we
h l
h itch
l akh
p als
r aged
w its
x ic
¹ ⁄
in vo
re located
en closed
en vy
to my
al lied
it us
ar u
ar ak
he a
me tre
st ain
se af
se wing
ha gen
ha ired
ro pes
ad orn
co aster
ter minus
ab normal
ne cks
Th o
de en
de pri
sh attered
po ets
op pose
um u
bo iler
just ified
ho se
gr ants
bl ings
bl onde
ans k
mer ger
ord ination
dis cretion
land sc
fer ment
bet ting
Un it
mar i
ile en
coun ters
fl ashing
Mar riage
Br itt
gi ants
par ables
comm itting
For um
gl oo
run way
rel ates
hy brid
AR K
Ab bas
Ad vent
Pres cott
cas ino
rece iver
Lo ch
Cl aude
gar ment
Gu err
Bar ney
Sp y
sum mat
rock y
gener als
Mon roe
prote cts
rain fall
eye wear
une asy
Ben igno
imag inary
lin er
lin ing
Sam my
rup ting
El ena
ref ere
Bur k
meaning ful
AD E
tho ven
hall s
hall uc
emer ging
sett ling
fashion able
Cle an
asy lum
eli mination
mechan ic
screw s
consum ed
syn thetic
185 8
185 9
document ed
Daw kins
Offic ers
Pu bl
indu cted
Edu c
struct ural
incident s
Book s
patch es
fli pping
Nar in
Rod ney
Liber al
confident ial
shif ts
MAR Y
explor ation
Lind say
immig rants
premi ere
propag anda
Andre a
pyr amid
intim id
stad t
Suzu jiro
elector al
Haj ji
apprent ice
Att ention
contri bu
intu ition
smu g
ambit ious
Xi ang
pige on
Chall enge
coc aine
Cô tes
unci ation
Fut ure
Brut us
Announ cer
bizar re
, ,
: )
A bo
A IDS
B LA
C ed
C liff
C yrus
D ise
E volution
H ass
H AL
K ath
K angle
L ear
L ith
N OR
P é
P ry
P ast
P ine
P ale
P ond
R ever
S ak
W ang
Y un
b ureau
d les
g ary
m ars
n ical
o live
p ist
p has
r ina
s inking
s ama
v ans
w ri
the ta
on ne
re pl
es to
he ter
be ak
ro ared
ro ok
id ad
am ine
im es
do st
ab du
with drawn
ther mal
sh rimp
con solid
pl ough
res cent
ca vity
ex quisite
ind ers
right eous
fo am
gr ape
per fume
ous se
bl end
ang rily
Ch eshmeh
gu ins
dis miss
dis posed
dis posal
Un ity
mar king
Re ich
Re formation
Ne mo
comp ul
18 60
sm ash
la bels
Sh op
Sh ane
ball oons
cha per
sha ken
AN G
vol leyball
Nor mal
leg acy
present er
bad ge
law ful
fic ation
Fo re
sed iments
mag istr
Cap it
Min isters
sal am
del ta
Bu on
Thanks giving
IT Y
Ber k
super natural
defin es
bill y
dou bles
health care
imag in
spec ified
command ing
ST E
Paul ine
Li by
hero in
Sa unders
Super ior
chick s
Four th
tu tor
foreign ers
pill ars
BO TH
Play ing
focus es
Sund ays
Mel an
Commun ications
Arab ian
Fort une
manufact urer
Bas in
escap ing
bride groom
Bull dog
tum my
Seven th
stir ring
infin ity
Tot ally
legisl ature
tender ness
eighteen th
Protest ants
envelo pes
destru ctive
choo ses
profession ally
preced ing
gaz ed
gaz ing
perce ive
Bee thoven
Var un
aston ished
motiv ation
Pict ure
Program me
clin ical
creep y
Bed ford
subscri ption
Zh ong
sculpt ure
Shad ow
snatch ed
seeming ly
Philoso phy
wilder ness
Bapt ist
mathematic ian
Stephan ie
Cous in
rept iles
thresh old
Canter bury
membr ane
libri um
, ’
2 x
7 0s
B ly
B ag
C Y
C LA
E ff
F UL
G ay
H umph
J ared
K ung
K ane
L il
M ick
P apers
Q UE
R ut
S him
S isters
V illa
W ii
b ak
b ait
b bles
c aster
d ο
d ur
f en
f um
f ting
g ο
g loss
h n
i ri
i veness
n ana
s thetic
u ously
v re
w rench
an ime
en listed
ed e
me g
se w
ve ins
ro gue
id el
co sm
am ic
im mortal
ur anium
mo cking
sh rie
up dated
can al
fe it
fe cted
ap hor
no des
her b
her al
art ic
com in
ex changed
ex otic
ist le
ck en
el f
per t
bl iss
cl aw
sp ared
br ute
where by
St arg
em issions
int act
pres ume
spe ctrum
under water
inter course
car bo
hand ball
Al one
Al pes
Mar vel
Re form
Re lease
Ne o
clo cks
fr amed
par ameters
je ans
cha mbers
tri o
os is
10 6
10 8
cal culation
sl ay
sl ain
Nor m
cri b
Car ry
understand s
Te h
hor mone
oper ational
Har i
har ness
har bor
rece ip
Scot ch
Ke ane
Mon ster
Mon tene
prote ctive
police men
mis fortune
draw ings
IT E
Ber ry
gain s
character ized
jud icial
tour naments
hang s
comb inations
dou bled
rap ed
cat astro
Cour ts
medi ately
invest ed
activ ated
Mad agas
mot to
fund ament
active ly
address ing
personal ities
rat ings
Mid land
review ed
LO OK
pound ing
IL Y
nic kel
rob bers
qual ify
maintain s
honor ary
corpor ations
explo de
phen omena
pel ago
tun nels
harm ful
harm less
brave ly
Class ic
Confeder ates
patch ed
illust rate
Quick ly
correspond ence
expert ise
identify ing
Rh ön
craw ling
distin ctive
citizen ship
Kno x
dol ph
mour ning
Moz art
Moz illa
femin ine
explor er
GU Y
inser t
inser ted
Phill ips
‎.‎. ‎.
GT P
mead ow
trump et
vio let
Hoseyn abad
Prophe t
journ als
crad le
obedi ence
JOH N
Guerr ero
9 11
B ug
D ha
F lem
G iov
H P
H T
I da
J K
J ah
K ash
M M
M W
M ush
M emp
S ources
T us
W ilt
Z ur
b augh
d ow
f usion
k op
l ance
l au
n ets
p oop
s ula
s acks
v res
v iz
ο w
th ouses
in als
in valid
er os
an tha
re mor
ed ible
al gebra
as o
it one
es sa
ar us
ll es
ow es
ut ton
ad her
li fied
ri lla
co ded
we aker
am used
am ins
im ble
do ses
ab is
mo date
un ting
lo go
ca u
ind ifference
ge ography
gr um
ous ing
ci le
af ia
sp ends
ple as
part ing
ud er
av id
dis astr
land ers
ser oton
min ary
str icken
inter se
cent ered
fin s
found ers
cre ed
home town
bit ing
gi ate
kill ers
Le af
For mer
ins ki
Sh annon
Joh an
Com modore
cal ories
ped est
hard est
Ma xim
sk a
order ly
Tr ains
gover ned
Man ila
Ad ama
dep ended
Po ll
Every where
Dr am
Har a
Pe ck
Par ad
Bar ack
tra um
rid ers
rid den
sat ur
net t
French man
dear ly
flo ppy
hair y
dark er
Ed mon
rain ed
trad es
enn ial
super stit
priv ately
Even ing
gas ped
San tos
Act ing
ba thing
EL Y
Ken ny
Lou vain
mass acre
bel ina
bul b
introdu cing
hospital ity
express ions
hum id
medic ines
comfort ably
Hill iard
shar pen
celebr ities
ov ac
Im mediately
condu cting
amaz e
Eli as
indic ating
inno cence
188 8
Play er
grave ly
trick y
umber land
Phil harmonic
drag ging
DE F
Sl av
transport ed
reser voir
Tre asure
Stand ing
indu ced
poison ous
Found ing
suspect s
Hol mes
Pop ulation
mart yr
Guard ian
Gro ve
tab let
distingu ish
profession als
Kil shaw
haw ks
mour n
bish ops
Histor ical
kal ie
athlet ics
imprison ment
Pos sibly
sacrific ed
Dug ald
Ros si
galax y
galax ies
trav iolet
Gust av
aggreg ate
Cons ider
enforce ment
Cors ica
respons es
bloo ming
Pint upi
oce ans
Aber deen
Presbyter ian
contem pl
Fuji i
Sponge Bob
Cly de
Zap atti
nutri ents
Madagas car
Memp his
B ub
B unk
C open
C OU
C RO
F ool
F IR
F TA
F loyd
G ha
K itt
K hor
L ift
L ITT
N um
N ile
N XT
P ang
R as
R ules
S ER
T ick
c c
c ident
c lim
d ye
g love
i able
i rie
m ato
n ought
s land
t be
v ise
w ailing
x i
y ah
y la
in puts
an them
an onymous
the or
re cess
re fr
en viron
al ibi
al gae
it ative
ic ism
ro gate
id ges
ad ier
ad odecahedron
am per
do zens
with standing
mo ld
un s
de ities
de fault
sh rub
up ward
He in
res on
ess ays
there after
wor shipped
ti ers
ig ue
ge o
ure n
over time
br is
red und
Ch ing
port al
min ed
ren al
bu ffer
pres sures
od a
hi ke
fl atter
An gl
iss y
cr ude
hand les
ys on
att ent
18 80
vis m
Ar ms
Ar sen
par ameter
war k
real izes
Sh ana
Sh rimp
Mo or
tri ll
tri vial
ER ING
sub stit
band ed
Ma them
King ston
Tr in
qui ries
Man ny
plain s
vel vet
pen al
mid t
Gu ang
Sch midt
Bar nes
thank ful
ming ton
past ure
Qu ant
Ed mund
Em press
Cor olla
Wait ing
det ention
stri pped
rep et
role um
cool er
vari ance
shut tle
consider ably
bra kes
bour g
Mart y
suit case
coach es
dry ing
doubt ful
battle field
independ ently
nut rition
GO ING
Sa ar
Ass ist
unders tor
qual ification
Sto ries
refle x
prevent s
employ ers
shout s
rang es
Light s
Jac ques
pred ators
Gri gn
dram atically
bin ary
accom modate
bang ing
blank ets
devil s
Ell ie
height s
joint s
confl icts
vit amins
evolution ary
breast s
Buck ley
IST INCT
Eight een
bold ly
CA USE
Card inal
Yan kees
toler ance
greet ing
spill ed
chron ic
compos ite
clam ation
insult ed
Mam ma
trun ks
Near ly
Tol edo
Avi v
Mongo ls
Fuk us
locomot ives
merch and
drown ing
Audi ence
prejud ice
sse us
Municip al
libr aries
arrog ant
ambi que
inscri ption
Excell ency
DL R
Provin cial
Tend u
Lives ey
doub ts
amend ments
Ody sseus
airl ine
Ambro se
Moham med
Adela ide
Cyn thia
Berke ley
Starg ate
Copen hagen
A the
A II
A GE
B one
C ind
D ED
E ch
F ix
H our
L one
M T
N ing
P into
P ART
T ook
T ELL
W C
W ent
W ik
X iny
b ahn
e ther
f ade
j aws
l ash
p ins
r ha
t ug
ü hrer
in u
al ight
as is
as aki
es p
ar f
ar oused
he ather
le igh
st ag
se mes
id en
ch attering
li ers
co ding
ke lo
am ot
am ids
all o
im pose
ter ing
go spel
lo b
po si
man uela
pl aster
can vas
sa usage
pro pe
ex pelled
su cked
ig ne
king doms
20 5
So mme
ber ger
wo e
ish ly
ide als
bl a
di arr
St am
av ir
em a
si blings
min ers
bu gger
str ained
need n
sc ars
ign y
mean ings
even ings
Be er
pre fect
Re ading
Is th
Br ady
fr own
cond itional
sy ll
sur ge
cur ry
high light
log s
ste lla
sub stances
AN ING
mor ph
present ations
round ed
eas iest
Pr inc
Tr acey
Te en
cho ked
mark ers
develo ps
colle ctor
dep ot
field er
gar rison
thor ax
ext ending
mag ician
dream er
gener ating
RE D
sil ently
star ve
arm our
process ed
Sy m
lives tock
grand children
Mc Car
quar ium
agree able
ribut ion
catch es
president s
Mal hotra
Du chess
avail ability
Ange ls
cab bage
189 2
Mag num
repe ating
Sou l
contact ed
Jud a
186 6
emer ge
stre ak
BO DY
Pet unik
measure ment
Tal king
rang ing
flower ing
appreci ation
gue z
Ori ent
Gi br
barr acks
ceremon ial
equi librium
entertain ed
paral y
chap ters
furn ace
museum s
terror ism
profit able
Ur sula
suspic ions
flood ing
vul gar
illust rations
Represent ative
depos ited
elev ated
thread s
pse u
Cook ie
IND ISTINCT
Moz ambique
greet ed
Fle et
cance led
Hom er
confirm ation
Wick es
attribut ed
Queens land
Bret agne
symme try
Dum bo
cogn itive
congreg ation
Elli ott
revers ed
Stra ight
hier archy
Prus sia
reinforce ments
Cale b
Ango la
Vish nu
desir able
Sarri a
Orland o
Azerbai jan
Crom well
Lanc aster
Hokka ido
Aron son
Capito l
Educ ational
Giov anni
remor se
disastr ous
LITT LE
Ning thou
Petunik off
A qu
B ian
B ury
D F
D ip
E E
F T
G le
G EN
H IV
I AN
J edi
L IFE
P av
P att
P atel
S ust
T ud
V ent
Y oland
b ending
g ens
g limp
l is
n ip
p est
p ave
in et
an ic
ed it
me z
le apt
st ability
ac ou
gh urt
ent on
ent ity
ad vers
ir ony
nd on
out ward
de z
de on
sh rugged
con ting
pl and
ul f
no is
no mine
no mad
ill as
op hi
ex ual
ex cell
bo k
So lem
see ks
fo lly
el ines
ho mic
ho arse
bl unt
di an
oun ces
more d
ple aded
back yard
Ch â
work shop
ret rie
ob a
Co V
Co st
before hand
des sa
Mar cel
che que
che wing
pol itely
Le gs
val ence
Mo ir
God s
Ind i
John ston
sho ve
trans it
tre acher
ling er
app end
eter a
comple ting
tem po
cho ly
sound ing
mark er
pen guin
Cl audi
cu z
EN TS
wel comed
ext inction
Fl ag
Pl ains
OK AY
draw ers
Pa ige
tro phy
super market
graph s
educ ator
mouth s
pot ty
compet itors
push es
treat s
tempt ation
hol m
Fin an
Med ina
Sam antha
ST AR
plant ing
ref uses
Mart ine
Dar ren
card iac
esh ip
bound ed
crew s
offer ings
189 6
rot ation
survi vor
reve aling
brand s
instru ctor
consist ency
Tal es
Cast ro
cru iser
187 7
185 4
Juli o
Sur vi
Town ship
protest ed
SB G
Baby lon
phr ases
argu es
conce al
contest ants
Confeder ation
weigh s
shr ink
sul ph
preced ed
twin ned
affili ated
decre ase
tribut ary
sandwich es
fierce ly
Lyn ch
Jenn ings
Nash ville
revi ved
MON D
SCREAM S
exter ior
compens ation
jewel ry
Environment al
geograph ical
Fol k
Wit nesses
Ef fect
pud ding
melan choly
Gand hi
vertebr ates
Thum belina
Dund ee
Greet ings
Bly the
cosm ic
Xiny i
Princ eton
glimp se
? -
A tom
C ultural
C ohen
E g
E sc
E van
H z
H id
K om
K NO
L oose
N G
N ING
N ats
N ICE
P iano
S lightly
T RI
U ru
V es
W ha
c ade
g im
g ative
h il
l of
t its
z adeh
in sol
er up
er ase
an ter
an ore
re igned
re union
re hab
al ow
al li
al lig
me gan
ll ah
ic her
se greg
be held
ro ys
ac ies
ch un
ver ed
ver bal
wi eld
ad ul
we aving
ag en
lo e
lo v
po inter
con sume
ul k
can ic
art if
pro stitute
ex hibited
she pherd
ye ast
ment ions
just ify
ink ling
fo li
cl inging
sp aghetti
That cher
part isan
St acey
av ier
dis cour
dis cre
dis pers
ob i
sc um
Co al
inter active
An gie
Do ing
Do gs
car rots
Ro sen
Ro chester
med itation
Is is
fr anc
par cel
At tack
bre eds
talk in
war mer
io s
tri gg
Con d
AN CE
pop ulated
wait er
arch i
Er nie
wan a
bar red
view ing
important ly
game play
cor ridor
met aphor
AR CH
swe eping
reason ably
Ad dison
Col ony
Jo anne
train er
Fo rever
commun ists
cu be
squ ish
Sp ider
design ers
program mes
cir cuits
sun rise
Ac cess
match ed
cop ic
LA DY
Su le
ban ner
Pol icy
direct ing
Mad onna
chief ly
cro codile
uni forms
hum ming
Cr ane
temper ed
benef icial
Ra iders
189 3
inte ger
commit tees
tur tles
ev apor
186 8
ali as
nic er
product ivity
san itation
Sto we
explo ded
fright en
oppos ing
Son ny
187 6
187 9
Cur tis
dan iel
Water loo
comment ary
Hung arians
excl uded
Vol unte
Sher man
Ron nie
rhy me
Tot tenham
span ish
wag en
cough ing
Armen ia
Vill iers
Chile an
philosopher s
athlet ic
tid y
melt ed
multiply ing
obst acles
warri ors
Dug gan
thorn s
Quar ter
instin cts
specim ens
Stal in
Interest ing
cartr idge
revel ation
lighten ment
enzy me
arith metic
Yaw ang
Lud wig
insign ific
denomin ator
Kis umu
vars ity
Usta še
Parad ise
Grign ard
Gibr altar
Yoland e
1 17
1 14
? --
A gn
B lock
B oul
C red
C ele
C rist
C ardon
C SBG
D ing
D iz
E do
E min
E stab
G ag
H ak
H orses
H uss
J agu
J ules
L ena
L ola
M ol
M ENT
O ct
R AM
S ed
S age
S che
S TO
Y ak
Z el
Z inc
d ling
f ty
g lim
j es
m ese
m ares
n ered
o bl
o zo
p arson
r h
r er
r ator
s often
w akes
y i
er i
on ions
on ian
re now
re write
en gl
se aman
wh ither
ut most
ver dict
out rage
tr ude
po ker
est a
ap a
no x
her bs
com part
ill er
ill ustration
ti est
qu ette
bo ctahedron
end angered
na ive
In ver
per plex
act ic
bl aming
bl uff
di ly
cl utch
tor ch
ble y
dis k
dis may
min ating
ph arm
thr ush
Co van
Co logne
fu g
side ways
pre li
pre domin
Re ferences
tim er
18 12
last s
home land
fr ames
sy rup
pri m
bro ker
Americ as
ug a
val ves
sub s
sub jected
sha ck
Con cer
Com ics
ped al
dri p
Car bon
Ger sh
Ma ha
fil mm
12 1
Me ade
polit ically
Po lly
Fe i
commun ism
fire works
US B
pa jamas
Lo y
Gu ild
grow led
ik ov
ming led
gener a
Pl ain
Pl um
Sha wn
Mon a
mess y
post p
Mc C
AS H
agree ments
mir acles
bow els
bear able
deep est
sus pension
sequ ently
ref using
occur rence
Mor rison
card board
ae e
rac ism
sad ness
honest y
sens ors
Out standing
screen play
Sun set
188 1
prevent ing
particip ating
Nat urally
reported ly
butter flies
fold s
185 3
journal ism
Camp aign
scen ery
eth ical
pred icted
Cur ly
Run ning
Arch bishop
sli pping
sli ppers
Six teen
scr ut
Brad ley
Free man
Free ze
Ali abad
advan cing
pension ers
advis or
Gro ans
Cir cuit
hip po
Cole man
earthqu akes
Luther an
consult ant
recur sive
dwell ing
Terri ble
Wrest le
peep ed
refuge es
echo ed
Sult ana
monitor ing
sacrific es
Polit ics
Ach sa
Slow ly
Sac ram
Tab er
anticip ated
elo qu
compli ment
TAL K
Grun ts
extrater restrial
compati ble
plaint iffs
hov ah
Salv ador
CONTIN UES
clum sy
ROBIN SON
Dres den
kop f
environ ments
Fukus hima
kelo deon
avir us
Juda ism
Moir ang
Finan cial
KNO CK
Uru gu
3 30
5 000
B ates
B uc
C ate
D anger
D ixon
F est
F ah
G inger
H il
I e
J oo
K O
K rist
K yo
L al
L ok
L ama
L anka
M TV
O dessa
P la
P aren
R N
R in
R ust
S D
S under
T ir
W ise
W itch
X IV
Y uk
Z i
Z ep
b apt
c reek
f y
f use
f umes
g allows
j est
l ousy
l ounge
o ink
t apping
u ing
v ines
y amba
ā d
Υ οu
in justice
in verted
er ic
the aters
ou x
re ated
re mix
en lar
es ian
and e
and ro
ar mor
of en
he aled
le z
st if
be wild
wh a
wh it
am or
out going
ne a
ur inary
ce lyn
pe at
pe el
po ps
man o
man uel
ul ously
ap est
pro t
pro ves
su le
su ki
19 2
per former
bl ush
di zzy
Ye a
Ye o
br ack
br ist
und oubtedly
ple a
Ch attering
mer it
em bass
Well ington
ip edia
need les
sc rup
inter act
cre eping
Ar med
fr ater
Se ga
nor ing
child ish
val da
val leys
mus cular
sub urban
pass ages
10 9
Ind ex
sl ing
appe aling
cri be
fi bers
sim ul
Er ica
oc ide
oc chio
Get ty
Man ia
dra wal
ann ie
soci ally
hon ors
hon ours
Cal der
ances try
ances tral
van illa
pick le
gun shot
ext ends
por no
vir al
sal on
fell er
match ing
experi encing
dest roys
Christ church
Mc Donald
eye brows
trust ing
gas oline
rep airs
San to
treat ments
memor able
AM E
sus hi
continu ously
pet ty
viol a
Hel ene
Vi per
fee ble
multi p
Bel ow
wild life
Bur ma
Bur mese
mot el
Mac Gy
BE T
trade mark
cab les
yo ghurt
pat ent
186 3
launch ing
inno vation
Haw ks
quarter ed
bless ings
archite cts
Inter state
fright ening
concl usions
Shar p
185 7
tun ed
relie ve
manufact urers
anx iously
Constitution al
gang ster
mel issa
Ku valda
integr al
Kong yamba
mig ration
Leg ion
Rac hael
Grey water
whist led
accoun ted
Nic kelodeon
UD l
Mean ing
suck er
anno y
Web b
FI VE
Iraq i
pronoun ce
vary ing
Clear ly
Stud y
Stud ents
aston ishing
Stat istical
curi ously
Ul tim
excess ive
embr aced
solemn ly
Josh ua
implic ations
cater pillar
beep s
diale cts
orphan age
prophe t
renew ed
simpl est
cliff s
tomato es
Scandin avia
incar nation
Constant ine
acknowled ged
Sic ily
Hob bes
recep tors
Support ing
NAS A
Sevent een
abrupt ly
prest ige
Moroc co
Idi ot
Coron ation
commod ity
Agree ment
gloo my
seroton in
Dram atic
McCar thy
fug itive
Sunder land
MacGy ver
6 0s
A sc
B az
B oom
C ul
C av
C ret
D IN
D erm
G ü
G ren
H ack
H erm
H itch
H UN
I ER
J et
K Y
K l
K ah
K ens
K ishan
P LE
P ablo
R ook
R ise
R ita
S ent
S ig
S ear
S asha
T ah
T ia
V l
W ife
X I
b atch
b ik
g oo
g na
g ural
h ust
i ya
j m
j ib
k ir
k nights
m ick
m int
p to
s anta
t ina
t issues
v ap
w au
ñ a
ş a
in fo
in ia
re qu
re cession
to wed
as ive
of uel
le x
le thal
ve to
wh imper
ere cted
ac ity
ch u
ch unk
wi ght
so dium
ri que
am bush
The ory
ur b
mo des
un common
pe g
go l
go of
te aring
con spic
ap ps
sa kes
res toration
ers tood
get ic
don ation
So ccer
No ll
ace ae
Ch ip
Ch ron
em bro
em perors
dis count
ater al
bet a
orn amental
bu ffalo
sto wn
mar riages
men u
Be a
Ro ses
Mar c
Re z
Re gent
Re ception
sm oo
sm outh
Ar isto
bro om
care ers
cur led
air ing
My ers
atter s
ris ked
sub marine
pass ive
sl ack
Nor folk
sim plicity
17 18
Car r
Car roll
Coun tries
sk ies
trans actions
Gr ade
Pr ide
AT ER
Po et
13 5
hope ful
South ampton
consid ers
loc als
squ ash
Je hovah
Ste vie
tele gram
cop al
teen agers
fav ored
Bu lls
ding o
conf is
iv ities
nat aka
mission ary
rich es
mir rors
viol ation
Che f
Che mistry
plant ation
object ions
ico sahedron
spl ash
Sim ple
Mac beth
Port smouth
Thom son
2000 s
sport ing
feed s
189 7
Sat urn
Kar nataka
kn aps
capt uring
bomb ed
kick s
symbo lic
whis pers
Hy mn
188 5
coo ks
Commun es
explo sives
remind er
contr actor
consum ing
Parliament ary
Bor is
Clar ke
etch up
crowd s
Dun bar
trem bled
Bas il
eleven th
vig or
vig il
terror ists
desc ending
Por sche
remark ably
Anim als
magn itude
reward ed
scratch ed
KE EP
assign ments
compar able
alleg ations
fab ulous
disput es
reci pro
** *
toler ate
encourage ment
rag ged
oty pe
gif ted
== ==
Cry ing
abund ance
Nich ol
pier ced
Transport ation
Bron x
Wat son
Ukrain ian
surve ys
astron omy
sculpt ures
WW F
pione er
crum bs
Und erstood
vag ina
stum bled
acha ble
Stri ke
inherit ance
Legisl ative
morn ings
Sti g
canon ical
Franç ois
appar atus
Incl uding
SEL F
Lith uan
Pry or
Melan ie
Edmon ton
semes ter
Cardon o
( $
- .
1 16
A j
C ities
D ish
H utch
L um
L ip
M iley
M ako
N ure
P T
Q ing
R ican
S F
S ci
S mol
T is
a fore
a irlines
d ine
g no
h art
h ound
i ency
i OS
l enses
m itt
m ason
n ake
o i
p ans
p int
p addle
s ap
s mar
v apor
Ā b
th ine
at ism
re mn
en ic
en ary
to on
to pped
ed iting
or se
or ay
or thodox
es is
ar ous
ar om
ic eless
be it
be eping
ro man
ri als
un usually
lo pe
po lo
It se
man ly
ul ates
ul traviolet
res is
com pose
there in
pro position
pro xim
su red
No k
ci ble
bl ades
di me
off end
sp un
br ake
und y
ble ep
Ch or
pr isons
gu h
dis abilities
tal ents
sto cks
need ing
ma ze
gon al
fl aming
An k
ict ions
Mar u
Mar cell
comp aring
Br ick
Ar n
Ar cher
reg ained
cur ves
gl owing
ball ot
ste er
eng aging
sub mission
sl ug
Not ice
appe als
sim ulation
lad en
import ed
Ger trude
trans parent
lay s
wind y
cor ro
Man n
Jo celyn
14 5
oper as
Cl aren
black mail
Par ade
lim estone
Gu in
Ste in
sed u
sw ine
Pl ato
Qu it
gold smith
Em am
cli ps
post card
fill s
Mc Cart
IC C
sn ar
sn if
except ional
stri ps
social ism
invest ments
Bal tic
ju ven
Bet tina
El se
ded ication
meaning less
BE EN
sme lling
bright ly
Ter esa
Str ait
Im port
fail ures
ara j
186 7
Phi ppen
investig ated
whis ky
refle cts
consist ently
bid ding
onel iness
Brown s
Wood row
Mah mud
flow ed
crack er
wheel chair
eth ics
target ing
mort gage
flag s
hes itate
mel ting
preser vation
Rac ing
Want ed
Know ing
accoun ting
pent agram
Carl isle
Sud an
Bi ber
bust ed
scratch ing
Contin ental
sustain ability
extr av
Dy nam
craw led
FI RE
Spring field
fron tier
cub es
recur ring
Bri lliant
prompt ed
immig ration
athlet es
Rot ten
therap ist
Glad iator
Fac ulty
Pin occhio
electron ics
respir ation
accus ing
Case y
Mig s
Fuk ui
unemploy ed
isha ble
Scandin avian
CHAR LES
innov ative
Cum bria
enh ance
Gav in
Wen hu
Yor ga
brisk ly
subordin ate
ammon ia
venge ance
pilgrim age
metall ic
mirac ulous
Abo ve
Teh ran
Arsen al
Indi vid
ozo ic
Sacram ento
Cate gory
Kens ington
/ &
2 10
2 30
A si
B U
B rom
B res
B ever
B omb
C U
C ALL
D ial
E ly
E vil
F el
F eat
G ian
G ear
I ris
K hu
L oud
M ouse
M AL
M UR
N ak
O LD
R ag
R iga
S pock
S ansk
T ild
V ia
V avil
b ash
b bing
g ents
h ump
h asty
m ound
n ina
p ensions
r oused
z io
th igh
at ri
re formed
re fined
en ables
en grav
ed er
and ar
he ater
you s
st un
ic ons
be le
ro cking
id dy
so d
so p
et ches
we eds
im patient
do pe
do lls
with drawal
ce lled
ag net
mo or
mo du
un popular
un aware
un willing
go on
up coming
con fer
con ferences
ul ative
fe aring
sa x
ess ion
ca th
bo died
don ts
don ations
ound rel
see ma
cl ung
ass y
sp ies
-- “
Ch ick
ip ak
dis appearing
port able
pres cribed
after ward
cr unch
dr ought
Al f
Al cohol
sup press
sup porter
tim id
ten ants
par ach
Le v
sch oon
air field
For bes
year ly
bre ach
TH O
TH ANK
Mo ving
mus k
incl usion
His pan
Con way
Con rad
mor rha
sl iding
vo res
appe aled
miss iles
ush man
17 4
kid nap
build s
OU GHT
Ex eter
mill er
Will y
14 4
War ri
break er
pen insula
station ed
Par ish
gar lic
cast les
24 3
cost ly
raid s
rain y
Dav ies
terri fying
Pa şa
defin ing
educ ate
sn ug
bi ble
Frank furt
Act ress
capital ist
imag ery
spec ulation
Ken zie
zz ard
Vi kings
tax ation
color ing
Bur man
BC E
vic ious
WH Y
Ok in
sight s
Res cue
Ham burg
Gold fin
Mil wau
Ter ror
SE C
sens ations
Green land
TS G
Ze lda
according ly
folk lore
pill ows
188 7
heaven ly
formula_ 2
quarter back
pin ned
Tri ple
sole ly
tick le
Hans on
resist ed
psycho logist
flag ship
escap es
root ed
steam er
cheer fully
Kill er
embarrass ment
Ak bar
Bank s
tooth brush
PR ES
Kur dist
Gre ens
Jess ie
tag s
accur acy
Dal ton
uff le
recommend ations
frag rance
Jos ie
optim al
consult ation
haw k
aston ishment
extensive ly
Fle ming
Univers ities
Clay ton
kidn apping
Indust ry
disagree able
aspir ations
Mach ine
divin ity
simp lif
idi ots
Alb any
Init ially
SING ING
Aun ty
immun ity
Hiro shima
arbitr ary
enchant ed
Thousand s
Colomb ia
Cine ma
amphib ians
hilar ious
Laf ayette
fundament ally
Zur ich
Angl ican
merchand ise
DED MOND
Wik ipedia
Gersh win
Nure mberg
Claren ce
McCart ney
Biber kopf
Sansk rit
Vavil off
schoon er
B att
G az
G aut
H unt
J ub
K n
K laus
L ac
L ak
L ines
M ia
M LA
O the
O pt
O uch
P ath
P ING
P EN
R H
R ash
S ain
S word
T ory
T roy
W id
X ML
Z ach
b ia
b itten
c one
c ass
e ah
h unch
h ler
k ong
k itty
n ο
o va
r ale
t asty
t welfth
v ile
w arts
y en
é n
ο ur
er d
an za
the ore
re wards
re porters
en cry
it ational
and ra
he i
le one
be having
ac i
ch on
co res
The m
mo ss
mo lest
mo aning
not icing
te ase
po pe
He ather
man ages
ul ars
no s
no sed
op press
We iss
ex hibits
bo dily
ind ifferent
ie u
wo of
ep ide
oun ced
ty re
ang aroo
ia _
work shops
int ending
si le
pres cription
mon sieur
Co ke
fin ite
Mar ks
Re cording
cour te
18 34
18 38
Ar bor
che ered
reg ulate
par o
unt arily
Le w
Le aving
vent ured
je well
jo s
cons ulting
TH lNG
war med
vi able
Con stable
10 4
Ind istinct
sl ate
sol itude
line up
Good s
cri mson
ze y
hear th
power less
bar ge
ina e
12 4
OU SE
exam ining
hy p
gover ning
Ho le
AR AB
fort ress
suc king
Jo int
uc ci
mark y
oper ators
colle ctive
whe e
short ened
13 3
ili ary
Lo ren
fast ened
design ing
cou pled
Sha ke
Sha hr
By ron
Bu chan
Pri mary
birth place
Vir t
TO O
rep aired
San ct
cool ed
market ed
mater nal
fear ful
peace fully
dig its
Fer ry
anal og
econom ist
vot er
Tor res
Day ton
tur bo
deter ior
Ze us
Four teen
possess ions
Ass ata
proud ly
symp ath
hide ous
Dou bs
roof s
reck less
strug gles
mechan isms
poet ic
Shar pe
crack s
crack ing
lit re
reven ues
Daw n
psycho analysis
spect ators
fifteen th
Class ical
Tra vel
Sc out
Ell ia
Fam ous
Sof tware
cert ification
Nic ol
Din ner
anne x
System s
attles nake
fid el
Rom mel
Econ omy
ligh thouses
vacc ines
shield s
adjust ed
Eve lyn
culti vation
Fac tory
grocer ies
Chap man
Brig ade
Dol ph
hedge hog
ske leton
Squad ron
rhe tor
Mei ji
Eld er
expon ent
Avon lea
sanct uary
accommod ation
Begin ning
ruth less
parano id
Palest ine
bung alow
scre ens
Byz antine
volt age
amaze ment
homic ide
renow ned
engl ish
Milwau kee
. *
3 000
A hem
B auer
C ay
C li
C ran
C rew
D ate
D ub
E mil
E pic
E thel
F ER
F iona
G ut
G ig
G row
H S
H ON
I z
I gor
J E
J IM
K ad
K ick
L akes
M IN
M AY
M AKE
N I
O la
P el
P aper
R if
S le
S par
S gt
S lam
W ire
W AL
X iam
Y ard
a post
b ic
b ere
b ony
b locking
d re
d ler
f ang
g man
g ill
j ia
l ull
m ute
m ike
m apping
n our
p ious
p aws
r ou
t ical
w at
an cho
on omy
re el
re make
en compass
to ro
it ations
le v
st ink
st ark
ll an
se cr
ly ric
gh i
ent rust
ch ie
wi l
ad ers
ad ore
li lies
de w
not ices
go v
Wh ig
ant ically
tr ical
my st
con junction
ul in
rom eda
ap on
res ume
there of
pro se
su f
ge ese
na ve
ho of
In stit
In stant
In gles
per itone
ide ology
cl apped
come t
em bedded
gu ides
dis asters
si us
tell y
sc ares
under take
under graduate
fl akes
ath i
fu els
great ness
head lines
comp ly
Br ow
find ings
fri es
ced ed
pol ish
pol ished
par l
sch er
sur f
IN T
jo sie
cons ented
TH RO
Mo de
cord s
cap tive
loo sen
os se
sha kes
add en
gg s
Some how
Nor se
Car nival
mm m
Ma e
aut ism
fil tr
Me gan
dead line
Will is
swe ating
Bl ues
story line
Fe w
Her r
Cal yx
US SR
Sch ul
design ation
North west
tele graph
Fl u
Sha b
mur mur
arr anging
LA S
terri torial
fav ors
Great est
IC AL
tour s
track ed
bow el
rep ul
rail ways
straight en
honey comb
Sm ile
Bal four
stor my
wild ly
Red dy
broad ly
Grand e
fit ness
note book
rat ified
bright er
Mag n
Kar achi
Sing ing
Met al
investig ations
Lat vian
NE Y
brand ed
188 9
judge ment
Bud apest
Ly on
Bang kok
reck oned
asc ended
rum or
lit ers
len ess
Ob serv
transl ations
Sl ave
redu ces
Wind s
civili zed
Ire ne
Cho col
witch es
calcul ator
attend ant
Tam my
Vol ks
mel on
apolog ise
gam ing
CD s
tum bled
Ka iser
stress ed
breast stroke
lem ma
infin itely
Bha i
install ation
Mas ters
vet te
Rom ney
chat ting
fox es
dynam ics
negoti ate
decre ased
Roberts on
GRO ANING
gran ite
Laure l
barrel s
denom ination
Cze chos
MR T
nold s
paste uri
obst acle
recru iting
Antar ctic
negle ct
thet ically
Sleep ing
Word s
Kir by
Johann es
PL AN
Lauren ce
Ext reme
Kum ar
contamin ated
Phy si
Steph ens
Rup ert
hect ares
Leim arel
Hond uras
GIR L
refere e
Kangle ipak
insignific ant
rh ino
preli minary
knaps ack
smar ter
Kurdist an
ARAB IC
8 0s
C ave
C AL
C AA
C NN
D é
D ae
E LE
H indi
K S
K amp
K ahn
M ā
M ate
M iz
M ile
N im
N iss
N ero
O B
O wn
P ont
P unk
P hase
S can
S ite
S ask
T in
U d
V ING
V augh
W ich
W ra
b bled
c iting
f art
f ret
i astic
k is
k etchup
l ons
l ago
m no
n igh
o ke
p pe
p its
p ines
q a
s so
s age
s lim
t art
t apped
v ase
ö r
ο me
’ .
in tra
in complete
an ity
ou dy
re cycle
re vised
re torted
en burg
to ads
or um
al mond
as sail
it as
he ur
le ve
st akes
st anti
ic us
ha h
ro o
ly a
id y
ch rom
ver sa
wi ggle
ad ject
co ve
im posing
ter restrial
us hi
ur ai
ce li
ce ls
ce llo
pe bbles
sh ing
sh ri
ant enna
po on
our ce
by pass
com ics
ate mal
ex ting
get tin
ist ically
ink i
So vereign
No s
ra ises
bl ical
bl inking
di pped
ol ic
ass ium
ass urance
sp i
ary a
Ch ry
mer ed
than e
em aker
fore most
ip sy
dis continued
dis orders
dis charged
dis ambig
ser pent
ren tal
came l
sc ant
ma ils
Co smo
inter actions
Be cket
cr ank
cr uc
ft on
att itudes
pre ach
pre ference
pre mium
Al tern
Ne al
cle ft
found land
18 15
Now adays
Ar abs
Ar lington
bit ches
Se le
Se ig
Se lect
Le ong
sur faces
Let ter
). --
Sh ot
New foundland
To by
cap sule
rest s
May flower
sub divided
sub divisions
sha ved
add iction
vol canic
sl aught
sl apped
Go v
pop corn
dri lling
dri pping
Or ders
Car la
Pro ceed
stem s
Ex ped
Me lo
system atic
que z
AR TH
fort ified
Ad vance
blood ed
hon oured
break through
Cal gary
rent z
emp tied
tom ac
Gu atemal
Bar o
Ste mp
fig uring
north western
dam ages
sum mers
Dan ube
Qu ad
board ed
Ac ade
trad ers
Cor r
grand parents
news letter
Ber nie
aven ue
trave ller
tour ing
murder ers
acc use
pot tery
Cour bet
bear ings
AM A
expect s
wa its
nature d
Sim pson
Sim cox
UN DER
mot ives
Colle ction
ki ri
Alex is
cul pr
coll ision
fat igue
Reg ular
Mil k
Ter ence
Str ava
rub bing
sens it
Mid night
Doctor s
Lin ux
critic ised
eld ers
instru cted
Off it
poly mer
contribut ing
187 1
187 2
Sw ain
altern atives
deb ates
Wind sor
Kat ia
SI X
Cas tile
Jean ine
Vo y
stab ili
ito rial
Bull shit
Win ner
rend ering
wire less
puzz les
System Verilog
initi atives
Wild er
disput ed
lod ging
absor b
SW P
ec cles
Ut tar
Vin nie
Gran ville
emotion ally
Cass ie
stamp ed
Shel ley
Fig ure
Hindu ism
Ang lia
Champ agne
aph ys
exceed ingly
helicop ters
disturb ance
yon der
techno logical
immense ly
trol ley
Stell amar
pyr amids
cann abis
subsid iary
zh ou
Suzu ki
Emer gency
Princi pal
hither to
pend icular
Haut es
obsc ure
prec ision
Relig ious
Fres no
frust rated
caut ious
Bash ir
orch ard
Rey nolds
slipper y
Gret a
interrog ation
iche ver
carp enter
releg ated
config uration
tsun ami
volat ile
Advent ures
Montene gro
Flem ish
pave ment
allig ator
enlar ged
Cret aceous
extrav ag
Othe llo
fidel ity
Xiam u
Czechos lo
Wich ita
exting u
disambig uation
Stellamar is
3 11
A lo
A UT
B ound
B ene
C F
C rich
D G
D ai
D iver
D ata
E ston
H ers
H ait
J P
J al
J aland
K ali
L iga
M IS
M IT
M ert
N GO
P ix
P AY
R 2
R ats
R ousse
S ap
S ail
S cho
T AKE
T ucker
V all
V ig
W et
W im
W ave
W rit
X III
a quarium
b oughs
d ang
d ens
f on
f rail
g ag
l oneliness
m ics
o val
o ats
p ac
p ient
p tive
r ake
s cept
t ents
u f
u lls
w af
y u
’ ,
in ck
in ence
in coming
the ological
at che
re k
re build
to ria
al ore
ar ising
me ek
le h
le ased
st asy
ve iled
ent ials
ir re
ab c
ab bey
un lucky
ther mo
Wh om
ant ing
no ch
no ses
ie ve
20 s
ink les
So lar
el mo
gr udge
bl u
bl ance
bl aster
cl ad
cl one
cl ans
br ag
ud s
pr us
dis cer
dis ability
dis solve
dy sle
sc attering
under cover
under taken
men s
inter rupting
An to
ta vern
head phones
Re ason
sup pressed
18 50
Br is
Br as
ward robe
Don o
nor ms
On assis
Le igh
bab ys
ub is
mp oo
gl ac
cons ensus
run k
TH lS
Mo le
cha u
cap it
ris otto
pass ions
az ed
mor als
John s
Not es
sol ves
miss es
wait ress
Car men
sle eves
bar ren
heart y
heart ily
ane y
12 7
ator ies
16 5
hy gi
Ho lo
Ad ult
Cha in
Po tomac
ili a
tru ct
US S
Sch war
national ist
Ser ge
success es
sed imentary
gener osity
Oc cas
special ty
August us
En rique
Wal ton
doctor ate
cold er
ric her
dest ined
priv at
AS S
Part ners
bow ling
AM P
ga ily
appoint ments
Fin ch
bel ts
audi tor
ordin arily
Flor a
Bel arus
hospital ized
spl itting
El vis
Bur ney
destroy er
Cam ille
vic torious
speed ing
hous ed
econom ies
Kar th
contract ed
uk u
acqu is
AK ING
plat inum
brief case
rob in
Sun shine
civil isation
honor able
determin ing
administr ator
lan es
SC C
HE AV
crack ers
bat ting
spin al
setting s
Bad en
gall eries
vine gar
Gra ve
Ku zey
chuck ling
Tro phy
cycl ing
tum bling
flood s
flood ed
Glo ver
Nic olas
Aw esome
Ball s
rein forced
tomb s
Winter s
frag ile
observ ations
oblig ations
Raj esh
intense ly
dign ified
amid st
Stat istics
Rap ids
pant ies
denom inations
pear l
pear ls
prosper ous
dece ive
dece ived
humili ated
alloc ated
deleg ates
Sav age
Pir ates
Athlet ics
stitch es
Sey yed
Nu clear
Chal dean
shiver ing
suff ers
Mik hail
radi ant
alleged ly
attain ed
psych ic
advertise ment
Phys ical
constr aints
stimul us
specim en
dain ty
Cob ra
Thorn ton
stocking s
Hav ana
alumin um
Moul ton
Tow ards
incent ive
clust ers
Caval ry
Thir teen
ferti li
transc end
lakh s
Burk ina
Buon aparte
Berk shire
Eff ie
Wilt shire
Smol lett
Marcell a
Ingles ide
Czechoslo vak
Jaland har
' !
A mal
B aek
C ant
C ork
D ob
D ING
D IS
D ante
F ancy
F landers
H ale
H alloween
I mo
N ou
N ets
N avar
N iels
O g
P her
P itch
P RI
R oh
R az
R itch
S ARS
T ale
V ul
V amp
V iki
Y D
b att
c co
c hel
c uc
f res
h ips
h iring
i Phone
j as
j enn
l ava
n ad
n oodles
o gy
p aw
p iled
p iles
r aging
s ory
t res
t iles
u ble
th understor
in ability
re production
is ans
en acted
ed itorial
al er
le ine
be ads
ha ha
ac ids
ver ify
li zard
ri ft
et al
we ir
ir rig
do th
out law
out skirts
ag ons
un covered
un bearable
tr aps
con voy
con secr
our ing
no torious
We ar
We ber
pro ving
ge ological
here after
gr a
per pendicular
ra j
ra ve
ci vic
bl ink
af fl
cl on
cl ot
ass ed
sp onge
und is
und ress
where abouts
mer ing
look in
look out
em ails
int ensive
land fall
play wright
pos sum
ph oton
mar shal
under go
Co lom
ens is
inter mediate
An ubis
car riages
Be lling
cr am
cr us
cr ue
ys us
ss on
pre mature
Al ison
cer os
ff ield
clo ped
18 4
care ss
reg isters
kind er
la ure
Le tha
house keeper
gl ances
ste als
second ly
sub stanti
sha m
Con test
Con tro
gg les
list ens
cal y
sl ash
hard t
ted dy
17 89
Er n
Pro secutor
Ma o
ane w
Me g
ran ch
cho king
Ad venture
hor rid
Har baugh
Lo rentz
ES PN
Gu itar
Bar bad
Ser bs
mag ül
bot an
Tom ato
Ac ross
mis sile
Em ir
common place
Sy nd
fif ties
pal aes
Christ ina
super b
det ained
William son
bi as
crit ically
host ages
ba um
rail s
distr action
pet roleum
thy l
ni ak
stat istical
Mal i
bank er
activ ists
boo bs
Sam oa
ST R
Bel fast
Bel grade
belong ings
sell er
occur ring
dry er
WH IS
Dam on
coast s
bled on
gro aned
Sa fe
Hold ing
guard ing
dish on
function ing
Ver mont
ano va
trick ed
planet ary
Long street
complex ity
circum stance
brea thed
Ow l
Gal ax
estim ates
minor ities
SI ON
Juli ette
Six th
Six ty
Town send
custom ary
excl am
dust y
Ku wait
Pap un
motion less
Cy prus
Ga o
grace ful
Ker im
Wr itten
agu a
Gun n
Pers ia
Leon ardo
accur ately
Cir cular
Ti ber
admir able
ros se
compar atively
SA ID
crush ing
grim ly
Produ ctions
frank lin
parad ig
smooth ly
superior ity
recur sion
ifer ous
eco logy
Fat magül
Bos nia
restr aining
explor ers
motiv ated
straw berry
Shel by
Dream s
FO OT
sack ed
Brah man
guid elines
Tw ice
deliber ate
Cox on
vocal ist
HIS PAN
penet rate
udd led
IO LA
Broo ke
theat res
physic ists
asser ted
advertise ments
fract ure
Phys ics
Grab feld
defic it
PP V
Municip ality
Elli ot
inven tor
spont aneous
topo logical
Birth day
comfor ted
Eul er
Map le
Mano j
grie ved
Alder shot
rook ie
sharpen ing
Shrimp y
acou stic
excell ence
franc s
Volunte er
Wrestle Mania
theore m
Seig aku
Leong atha
Rousse au
jenn ifer
HISPAN IOLA
" [
- "
. ).
9 0s
A ero
B F
B in
B atter
B RO
C ure
D as
E k
E ne
E VER
F let
F ashion
F aso
G P
H atter
H OUSE
K appa
L ep
L ars
M ash
M eas
N ang
N TER
N IGHT
O swi
O ops
P s
R ough
S que
S crew
T et
T iny
U V
U g
Y oko
Z ay
b ap
b ordered
d andy
e vić
k angaroo
l uc
l apping
m ould
n ier
o ids
p tor
p ics
s by
s ill
s add
s copic
t ics
u gh
z ong
th ren
th ma
th icket
in ating
in capable
an th
at ta
re covering
re productive
is cal
as cus
es ch
and ers
le en
st ition
ve in
ha e
ha uled
ac rit
ion ally
id as
ent ities
for wards
was her
ld on
ad jour
so ms
co con
are h
all ah
im mortality
do v
ter re
ur ity
mo k
mo lar
un ction
un finished
de lla
de hydr
go ons
sh oles
il us
He at
man ship
man iac
pl in
pl edge
est ones
but ch
ca ves
pro port
pro hibition
pro testers
way ne
end orse
na use
In flu
bl ond
cl ut
ty ing
sp as
sp ying
br at
tor to
down ward
dis gr
dis respect
fer tile
play offs
port ed
pos thum
mon str
ma iled
mar athon
mar itime
happ iest
thr ong
fu ri
dif fers
pre face
De vi
18 41
must ache
Se al
reg ulated
reg iments
Le gal
num b
TH AN
girl friends
Sh r
room mate
New castle
tri bal
May a
loo ps
row ed
sha mpoo
Com ic
mor on
leg is
den ial
sign atures
Car ras
wer p
Pro to
Coun sel
sk etches
Gr ouse
bar row
Ex per
fac ial
AR A
AR M
AR Y
eter ia
Te a
cho ke
swe aring
grap hers
Pres er
THE M
Cal um
Cl in
Cl or
station ary
van a
national ism
Scot ia
Any how
Per iod
Fl ower
por traits
President s
CH O
Min i
vir uses
bird ie
En velo
grand dad
Lu kas
sweet ness
bes ie
Ph ry
def ences
adv ances
thes es
ban king
ban quet
det ach
defin itions
gas ping
depend ency
comb ust
zz i
stick er
stick ers
decis ive
Most ly
El aine
gle am
Bur undi
research er
Dar band
text ure
individ ually
sand stones
han i
weather ization
accident al
inn ers
Tor ch
SH OU
LO CK
Lat via
rob bing
liber ation
commer cially
qual ifying
refle cting
switch es
copy ing
sexual ity
Dor ian
HE AD
sque e
Ob jection
Van essa
altern ating
Gal ile
Joseph ine
Wall enda
Tre hay
gall ant
grav itational
Sc ale
thri lling
Sher idan
ras cal
apolog ies
ski pped
Pop ular
discover ing
brid le
bitter ness
fli pped
weigh ing
burst ing
dread ed
regret ted
Philip pe
Anim ism
cris p
Rod ri
boun ty
Anti que
Steven son
Philipp ine
Ald o
Pad re
gross ing
aud it
Raj as
Devil s
seventeen th
rival ry
intention ally
bis cuit
Electr onic
assass inated
recycl ed
convent ions
surprising ly
treas ury
SOME THING
Cou ple
bai liff
Geoff rey
Fitz g
melo dy
mush room
evac uation
inevit ably
Spl end
__ __
Leban ese
persist ent
orph ans
Relig ion
blos som
aca o
labe led
credi ble
Gem ma
Trad itional
phil anthro
dodec adodecahedron
Method ist
secur ing
JACK IE
bli zzard
Hind us
delet ed
Bohem ia
Perm ian
Suc cess
Filip ino
Rever end
trill ion
lof ty
Cele br
Urugu ay
requ iring
morrha ge
Shab bat
Crich ton
Schwar z
Ritch ie
Oswi u
proport ional
Trehay ne
- [
A I
B av
C é
C ort
C ER
C andy
C umberland
E than
G ould
G au
G ina
H C
H I
H ark
H anged
H ouses
I ES
J ing
K he
K em
N em
P oo
P up
P ants
P izza
R ivers
S ter
T ie
T ires
T anya
W n
X VI
Z X
a we
b ould
b ah
g ipsy
h t
h ing
h ors
l ag
p ess
s ine
s ane
s warm
t led
u th
v ouch
y ar
 
á s
á nd
č ević
in correct
re produce
en rich
en berg
to f
to ire
and s
ar ina
st aged
se aside
ha z
ot am
ch ool
ad ish
ad option
ri fied
ri vals
am al
am ple
do h
ab by
ag uh
Th ing
mo is
un seen
un clear
un ified
un incorporated
pe aks
de cks
not ions
tr action
te h
te au
po mp
con fine
He e
He ads
ap y
sa ult
ca utions
ti pped
pro jection
pro clamation
ex ert
ind uce
end i
ye a
ound er
ven ues
per ish
ep ile
ak is
cl icking
sp ike
sp ices
sp icy
br un
ree fs
ple ad
fore man
ser t
ser mon
." [
." 
There upon
sc ill
sc oundrel
ign oring
An thers
cr abs
les bian
fin n
pre acher
ily n
des ol
Al to
Mar se
Mar ines
Re ality
Ne meth
Ne wark
Is k
18 30
18 39
fr actions
irl ing
set up
On line
air planes
high ways
gl ist
tri um
different i
water fall
cap abilities
sub family
pass ports
az ara
AN N
rel ent
hal ted
pret tier
cut ie
live lihood
fi b
Car th
Car michael
Pro gress
sk ir
sk im
trans mitted
Tr uck
Ex tra
hy dra
mill ime
Te zu
Ad vice
AT P
Bl asto
War wick
break down
exp ired
cra fts
black s
mid fielder
cu is
ham let
Sch loss
25 6
North um
position ed
listen ers
AL D
Fl at
Dan iels
Sha un
Qu ay
bri lli
Like wise
star ved
star vation
LA B
Cor ne
Ear lier
LE Y
def ender
space craft
murder ing
29 th
comb ining
straight forward
boo th
boo st
separ ates
dev out
mountain ous
ST RA
shut ting
gri ms
Bur t
Pal at
Mor a
vic inity
Dam ascus
associ ates
hero ine
bright ness
nes ium
Ter minal
Hon ours
bio graphical
scar let
Comp ared
liber ated
frequ encies
Gar rett
commer cials
bother s
travel ers
Chief s
Commun ication
etc etera
Bang alore
HO ME
Dire ct
187 3
187 4
Satur days
Art ist
Ow ens
Susan na
Chuck ling
assum ptions
comment ator
Bad ger
Si ren
vig orous
script ions
ION S
plot ting
consequ ently
worship ed
BA FTA
exped itions
scholar ly
PLA CE
organiz ational
decor ative
Jun ction
neut rons
Liber ation
Cu z
sul fur
absor ption
Hawai ian
incorpor ate
sixteen th
dwell ings
Cher yl
Corn ish
Var ious
Pau lo
legit im
SU RE
SCRE ECH
Ax is
enthus iastic
ais le
fascin ated
tid al
tact ics
implic it
humili ating
attribut e
Domin ic
accus ations
vague ly
Alber to
earnest ly
Artic les
coron avirus
evac uated
rejo iced
aer ial
aller gic
psych otic
orchestr as
1800 s
fag got
phal ia
cartr idges
Mü n
LON G
VIE TN
NAT O
caut iously
spher ic
venom ous
iast ical
AMES E
compe lling
BRE A
Lem on
liz ards
gart en
hyster ical
Tanzan ia
marvel ous
Archite cture
Spec ific
augment ed
Recent ly
Eti enne
strich es
Dion ysus
depri ved
Tus can
Bunk er
FIR ST
nomine e
anter ior
predomin antly
conspic uous
arom atic
Emam zadeh
Niss an
Pher son
Papun ya
Fitzg erald
Tezu ka
VIETN AMESE
2 20
4 50
B oh
B ai
C f
C ac
C ES
C aste
C utter
C limb
D ino
E th
E ste
E state
F ung
F AR
H U
H ousing
I on
I ma
K lo
L earning
M ist
N R
N er
N ava
O u
O mar
P em
P ame
S team
S ik
T ina
T ext
V on
W ig
W ON
W ounded
X V
X ia
Y id
Y ad
Z agre
b op
c ens
d ah
e ira
f ared
g ars
j ong
j ima
k aka
l att
o scill
p add
p ads
r t
r of
s ly
s mother
t et
u rian
v room
v ows
y ork
y acht
in spect
er nie
er otic
re acted
en counters
ed ient
as sholes
me yer
me thane
ro bes
ro ds
id io
ot ing
ent a
ver bs
li ze
li ability
co als
ir relevant
ir resis
am ination
mo tors
un ge
un official
sh ines
up dates
He ard
He ls
man eu
pl ump
ul as
ap pla
no m
ill on
pro dig
pro portions
qu ist
bo g
bo on
any ways
ber y
No vo
In v
cl icks
ang i
then ce
ree le
ple ading
Ch u
into ler
She en
dis like
dis card
int ens
si re
si bility
play off
ret reated
ren ts
str at
str ang
aw ney
form ats
ob session
ob edient
sc ot
sc offs
mar kings
hi bi
Do yle
cr utch
Ro cket
Mar ry
Mar ina
sup posing
night mares
De clar
last ic
light ened
fr id
gen ocide
Don t
IN S
cons ort
Sh ang
Mo sque
bed time
pret tiest
17 6
fact ions
Coun ter
bar riers
Pr u
ane h
ON LY
12 2
12 6
cor relation
mill s
AT ES
clear er
iter ate
Dr ug
short age
War m
Pres ent
ru ining
search es
dream t
Per cy
AL S
RE ALLY
50 th
Ed ition
Wal king
Sy rac
La La
23 7
worth while
count ess
super intendent
super stition
Ph an
tech nic
aven ge
accept s
GH I
compet itor
contain ers
imag ining
ben ches
lin en
medi ated
pan cake
Sar ge
Mal ta
audi tors
mas cot
Vi to
Bal a
plant ations
Sim mons
broad er
imp acts
Mac Kenzie
Mart ian
lip stick
text book
fan ci
captain s
Dam ien
rac ed
yo ga
celebr ations
Vic tory
Congress ional
Ele ction
respond ing
Del icious
brief ing
achie ving
Bre athe
Ru do
Rail ways
Star čević
lect urer
Inter ior
poly hed
provid er
SC OFF
Wood s
187 5
syn chron
185 1
185 2
Sw ab
isto ls
lit ter
sar cast
wave length
plate au
Mir ror
Holy wood
proceed ing
attract ions
defend ers
Vol ta
Sc outs
governor s
wid ows
tap ing
Nar ayan
decor ations
noble man
demonstr ations
dum my
rever ence
gross ed
optim istic
collabor ated
ape x
intent ional
Lai ren
aco ck
WS SCC
ethnic ity
SN P
squad ron
nan ny
clar inet
Histor ically
rib bons
straw berries
Tun is
GRO W
inspir ing
ABC DEF
lac rosse
weakness es
stern ly
Scient ific
wre ath
Bron ze
Gang azara
bol ts
monaster ies
mult itude
rack et
Fitz Gerald
Nong da
trend s
Niger ian
................ ................
URL s
Swi m
Catal onia
RING S
Bru ins
moist ure
tornado es
Haut s
scram bled
reluct antly
AF TER
Roc ke
Rein hold
devast ating
INTER VIE
Div ine
facil itate
repro ach
GUNSHO TS
Trel awney
Gener ally
dictator ship
remed y
Riz zo
patriot ism
intri gu
Chem ical
Miche le
dup lic
mari juana
Dise ase
phas es
repl ica
Capit anes
Norm ally
Ech izen
prefect ures
Diz zy
multip lied
Chocol ate
Flet cher
Carras co
Envelo pe
Pame la
Zagre b
Hels inki
Declar ation
Syrac use
ABCDEF GHI
) }
, ...
1 19
2 15
B T
B rew
B ax
C ars
D U
D ul
D ES
D wight
E il
E cu
E agles
F RI
J M
K A
K IR
L ed
L un
L ime
L iv
M im
M ie
M ER
M otion
O sa
P end
P atter
P TS
R T
R ue
R ames
R AD
R ae
S cal
S CO
S aho
T emp
V A
X II
b art
b ake
b ilt
c et
d oom
k ata
k irk
l é
l ès
m asked
n il
n ate
o ars
p ail
p awn
s ca
s noring
u li
v at
y ucky
y arn
z ations
in appropriate
er in
er ated
an us
the ws
on ion
at in
re united
is se
is te
ed itors
ing ale
al ot
it su
es ha
st arch
st agger
ic iary
se ating
be llow
wh ites
ro tor
ro sy
for giving
ch imp
ut ing
ver ge
wi ping
li ć
li us
co il
im an
do cks
out right
out let
us ages
ne h
Th ur
mo p
un y
go gne
il legally
lo id
if you
his tories
He arts
pl as
pl astics
rom agnet
no stri
ill ou
ill umin
pro li
like lihood
ex pressing
ack er
end ra
ye lled
ho bby
ho vering
wo mb
gr ac
No el
In te
per forms
ci bo
bl ot
cl ed
cl ues
cl apping
Ye men
sp am
sp arrow
und one
-- ?
St arr
av as
av atar
pr ag
pr ises
new er
new sc
land mark
bet t
bu ne
fl aw
An sel
car ving
hand writing
won dr
ta iled
Ro x
pre valent
Al oud
Mar ble
Mar cia
Re bell
sup por
found ations
18 37
Br ought
Ar ama
bro s
reg ain
Fr on
gi b
par cels
sur gical
sing h
ub en
To k
lar va
cap ability
ste ed
sub du
sub stitution
Who le
rel ic
Are cibo
Go al
Bo li
trans plant
bar ley
pain ts
itch ing
16 2
foot print
Ad vert
AT CH
Wor cester
inv ade
13 7
pen guins
deal ers
sever ed
cast s
rench ed
ib n
21 1
Qu in
Qu int
gest ures
local ity
walk er
cry stall
En id
process ors
flu ids
Bu Yeo
vin yl
Cor leone
cli max
cli ffe
post ing
sweet est
AS K
wed dings
quar re
green house
27 0
29 1
dou bted
recogn izing
surpr ises
Cour age
wear iness
Intern al
Che ering
Ha user
master ed
consider ations
Mer ced
liter acy
decl aring
init iation
Ham mer
Mil ky
Str at
kin son
investig ator
Fre do
function ality
deser ts
Bab er
bread th
spread s
Jackson ville
Dou bt
corpor al
SO LD
stro kes
Tri angle
Dor inda
screw ing
thick ness
Son ic
185 6
council s
lit ur
Mi yan
tex ting
Squ id
bull ied
FOR E
Kat z
Ay ushman
oph one
Cas ino
Sur ve
wis er
Tele graph
Gra ves
Ven kat
pit iful
interpret ations
Kill ing
Ur gh
minim ize
Ton i
Kh num
shel ves
insp ire
Basse terre
explan ations
install ment
Tru man
explos ions
lod ged
oblig ation
sna il
sna ils
Az te
assault ed
effici ently
Cri minal
Fal con
!! !
enthus iast
navig ate
genuine ly
institution al
Jose on
intest inal
Ivan ovich
Mes op
swell ing
satisf ying
myth ical
exerc ised
Jas en
archae ological
deleg ation
disc s
junk ie
caf eteria
psychiat ric
Bart on
advoc ated
Epis copal
inves tor
flee ing
accompany ing
regul ator
vom it
WP XT
Ferr ari
chir ini
dub bed
Beck y
maj esty
Wer en
Hasan abad
POR T
tad poles
indign ation
await ing
crip pled
Pand ora
deploy ed
CHE ERING
Cic chirini
Gim me
Jag adish
chal k
shill ings
jen ny
buccane ers
handic apped
GRE AT
glitter ing
Bing ham
consol ation
unanim ous
Ary an
adorn ed
Mathem atics
sulph ur
archi pelago
Emin sang
bewild ered
prot agonist
frater nity
HUN TING
Okin awa
Sain te
Buchan an
parl our
Volks wagen
Gov inda
Ern st
Galax y
acrit ic
torto ise
Splend id
pess im
Rocke feller
ABCDEFGHI JK
Eil ert
suppor tive
) ".
* ♪
- ,
A e
A ven
A jam
B IR
D ard
D har
E ur
F ill
F MAN
F asc
G ö
G ow
G om
G PS
H ye
H ours
H edge
H APP
I â
K et
K ush
K aman
K AU
L ill
L om
L und
L ER
L iam
O bi
P ag
P ye
P hara
Q a
S L
S ene
S ino
S ES
S itting
S asan
T il
T akes
T ae
T aka
V ista
Z ande
a o
c _
c ress
c acao
d orf
e i
e po
e man
f ren
f ainted
g ird
h ounds
i Pod
l le
l ids
n ard
n ull
p all
p ah
p light
p ix
p estic
s kept
s ively
t aker
in quire
re pri
en i
ed uct
al em
as certain
ar ises
le opard
st rom
st als
st rep
st ables
st ains
be ers
ha g
ha us
ha iled
ro mo
id able
for ged
ch illy
ad t
li um
ri bu
co lo
co operative
are th
im itation
ter a
ab ling
ag gress
Th ang
mo thorax
un changed
un stable
pe ll
de mean
de position
de lete
de bris
sh rill
con ve
ul ing
ul us
ul tra
ca fe
ti gers
pro longed
qu ets
bo oty
don ate
ry e
just ification
fo es
In tro
ra v
ep i
think ers
over throw
sp ouse
sp ru
sp arrows
br al
St ro
St alo
ud y
gu inea
dis liked
dis appears
dis sip
bet ro
form idable
ph ilo
fl att
fl ats
ta me
Ro che
cont amination
fin er
fin es
dr ained
All ow
Mar ía
Ne u
Ne ck
comp iled
Br ay
cre ational
vis ing
fr iday
gen ic
gen res
lot to
reg ulating
Le an
At tic
Let ters
air ports
ins ulting
Mo e
Mo tors
tri pped
Ju de
ris king
His panic
add ers
add itions
pass word
AN A
rel ay
vo cab
fi ery
sk ating
Gr ac
Tr ouble
win i
cor k
fac to
met abol
Ge ez
eter nity
Te ut
class ics
hor mon
14 8
14 9
Dr um
commun ion
blood shed
Har lem
Har rington
Har rogate
22 5
season al
Gu jar
grow ling
Sp ike
success ive
rid dle
ken nel
Min us
cir cling
Tom b
sal ute
star board
spir al
cum bent
IT S
Cor a
conf use
Mc N
super fic
grad ual
truth s
det ached
Afr icans
Part ner
descri ptions
IC A
ener g
agree ing
bi kes
tic king
wise ly
mas cul
enjoy ment
Gover n
glad es
chief s
cro res
Tur tle
Dar ien
BE CAUSE
medic ations
reed s
Dam od
lower ing
Pan ther
han ced
Wil frid
gro an
gro aning
Kar a
Met acritic
lord ship
inn ings
Wel k
conscious ly
ander bilt
survi ves
whis key
symp tom
sec ular
Ba ja
refle ctive
grave l
finger prints
addition ally
stro de
mechan ically
rum ours
Sovi ets
wick ets
Fil ms
lat ures
Art ists
Sw ami
Kat ie
dram as
TR Y
proceed s
bang ed
disci ple
gall ons
Si ri
scr aper
hes itation
tap ed
Jen kins
Hol t
Sof ia
photograph ed
ingu ished
virt ues
Wol ves
Person ally
doo med
CL ICK
elder man
decor ation
scratch es
Rober to
Singapore an
Corpor al
neighborhood s
Sweet ie
** **
ec stasy
thirteen th
rust y
Nik ol
eco systems
Mort imer
AG AIN
Tun es
scrap s
susp ense
mini ature
mono poly
Form ation
diction ary
Clay tor
flav our
hurried ly
Nag asaki
distress ed
Bour gogne
Nam ib
congrat ulate
Labor atory
landlord s
comprom ised
Meet ing
perpet ual
advoc ates
Rud y
Bless ed
manip ulate
Rip pley
VO ICE
nar cot
entrepre ne
JO B
Excell ence
Java Script
desp ise
Dio ces
READ Y
compe ls
sau cer
scree ching
Suz anne
pum ped
Brend an
patri otic
htt ps
Lux em
glam orous
Rhy th
perm its
distill ation
emig rated
ENG INE
alum ni
irr itation
Treas ury
pollut ants
Geograph ic
TUR N
mars up
catastro phe
traum atic
satur ated
shrub s
nomad ic
anore xia
discre et
Huss ain
filmm aker
Kyo to
embass y
Rez nik
Hutch inson
modu le
ancho red
THRO AT
Schul z
Sask atche
Guatemal a
Occas ionally
Belling ham
crue lly
cloped ia
Tomato es
newsc ast
Mesop otam
Jasen ovac
HUNTING DON
ABCDEFGHIJK LM
Hedge hog
KAU FMAN
Phara oh
Saskatche wan
! ",
' "
. :
1 18
? ]
A i
A us
A ff
B ik
C em
C anton
D ro
D ry
D ress
D river
F é
F ow
F ührer
G in
G um
G ide
G LA
I vy
J ail
K ro
K eral
K arr
K linger
L ing
L ies
L aine
L ita
N ab
N orton
P ill
P sal
R US
R iding
S ü
S oo
S ons
T ian
T ried
T ool
V ince
V ES
W K
W ings
W eng
Z u
Z am
a version
b hai
d udes
f ists
f isk
h ides
l ich
l ty
l orn
m ink
m ating
p id
p ag
p ality
r issy
s have
t ac
t enses
v ass
í s
Υ eah
th ood
an ia
an ato
at abad
re a
re per
re fin
en rolled
it ious
he misphere
me i
le aks
se cre
wh ichever
ha ch
for um
for gets
ch ard
ut ical
ad renal
so aking
co b
co y
co ax
im patience
ab h
out doors
ag no
ag grav
un natural
un reasonable
de fer
de vised
not withstanding
il ated
ant ide
te ct
te ens
if ax
con stitute
He ath
pl unge
fe l
est ed
ap ed
by l
res ser
res ili
op y
ca illou
pro je
pro hibit
su ke
ah i
ig u
ig ram
end orf
So x
ber i
per vert
ra ft
ci lia
bl under
bl aze
cl ash
how l
how ling
ary n
em inent
dis banded
new est
new com
ser um
mu ffled
ren ting
ob jected
sc rape
fa una
iz ens
ens uring
wr ought
fl attered
An chor
hel per
Be llo
cr ater
cr ates
cr oft
didn t
Ro ach
pre ached
pre cautions
ful filling
dr on
Al le
Mar ge
head quartered
Re ardon
cour thouse
De meter
18 14
18 23
18 35
18 48
18 46
vis cer
vis ibility
ward en
Don key
Se ars
world ly
je ep
bre ndon
Sh u
Sh ri
Sh ur
Sh ips
Mo llie
New tons
ER lC
Where ver
sl it
sl id
Bo at
wal es
sho emaker
Or acle
Car ac
Car ver
Pro gressive
trans fers
bar ric
ON G
Me jia
16 4
allow ances
met aphys
ran som
contin uation
sent iments
Man ufact
Ad van
AT ED
Bl ank
14 2
fine ly
Fe ld
har med
13 2
13 6
fire fighters
Lo pez
cra ving
Cl uny
van ity
Gu ad
Je wels
ik u
wel coming
dam s
Cap t
11 1
Ke e
ump ing
gener ators
past a
Pl ants
Min nea
Mon itor
cir cled
sil very
24 th
arm ad
flu x
roy alty
Am ph
Lu do
23 3
Su it
post ers
George town
court room
period ic
Part s
comput ation
mic key
26 th
sof ter
ener getic
creat ors
fut ile
host ess
dou bling
Sal es
Sal am
social ist
earth ly
ses ame
thy lac
viol ated
Sam i
Che ese
ST ORY
Red e
Sim s
color ful
mot if
weight s
DO SE
medic inal
yn es
Put in
sme lt
Gold man
Hon shu
Sa ud
Olymp i
Sing er
Sing le
opt ional
Yo sh
Yo yo
bomb ard
Associ ate
45 7
Jud as
Lat if
Hal ifax
iron ic
qual ifications
Sand ra
Gor ge
pi ety
finan cially
asc ular
Tri p
concl udes
goal keeper
fold er
mut ation
awa ited
Second ary
succeed ing
chocol ates
proof s
zing er
map le
assum es
Ash wini
trou bling
Georg ie
horri bly
hook s
Es cape
colon ists
grab bing
pon ies
delay s
Assy ria
conserv atives
lap top
shel tered
Oper ations
Gun s
kh kh
Normand y
Disney land
pron unciation
Human s
analy ze
BI G
EM MA
boun cing
elect romagnet
volunte ered
neat ly
deli vers
Pur ple
bacter ial
sav ages
Sum mit
TI ES
chop ped
faint ly
AG S
cla uses
Psy clon
rhyth mic
counsel or
Rap id
gran ola
sher ry
Len in
scan ning
infect ious
resem ble
resem blance
Nin eteen
rod ite
Ara bella
immig rant
adapt ations
Dod gers
Ridge way
subscri be
Domin ican
Cit izen
prophe cy
Ach ieve
Ethiop ian
aqu atic
stell ation
thum bs
publisher s
overwhel med
simp lified
strengthen ed
vom iting
inau gural
chir ping
mead ows
Pave lić
agg ered
orchestr al
Emb assy
propri etary
Appe al
Appe als
Ant werp
Henri ette
inscri bed
Ches hire
resur rection
reluct ant
prev ailed
homosexual ity
Sme e
flir ting
indirect ly
trench es
Hundred s
Blo ch
Deut sche
HEL P
chord s
rais ins
shill ing
Syl via
htt p
Myster y
Complete ly
Kram er
Ez ra
Sloven ia
abbrevi ated
perip heral
persecut ion
CHR IST
expend iture
sabot age
Sinak eta
landsc apes
Hajji abad
Ced ar
magistr ate
eros ion
pleas ures
ophi le
Zel alem
Getty sburg
ofuel s
peritone al
Becket t
Exped ition
hygi ene
Holo caust
acquis ition
exclam ation
trium phant
polyhed ra
SCOFF S
INTERVIE WER
Ecu ador
Gide on
anato my
antide press
Minnea polis
( '
) ",
A gh
A min
B ust
B EN
B iel
C M
C reed
D B
D D
D OU
E ther
E ure
G at
G ing
G UE
H ub
H alo
J ang
J ian
K ok
L AND
L ima
L ila
M aker
N il
O st
O blast
P unch
S cor
S OR
S EN
S core
V a
V ine
W D
W ah
W IL
Z Z
_ I
_ Entry
b ese
b ale
c ie
e be
f rench
g land
i ens
k ai
l ä
l aps
m io
n ian
o e
o cy
p ter
p amph
u tory
w ink
w itty
x 1
² .
ñ or
ø r
ı m
in os
an mar
the ism
on ium
re opened
re solutions
re deem
en lightenment
to pe
or tho
or anges
as her
as thma
it i
ar ab
ar che
ar ming
he ath
wh oop
ha ird
ha mb
ot ive
ent y
ad verse
ri fles
we y
ke ll
am ino
all ion
im ar
im pe
do le
ter race
ab d
with ered
ag ara
un related
pe ers
de ception
sh itty
tr idge
if ix
est ates
qu il
su ic
su llen
ah ual
don or
ge ois
ound ing
20 7
So lon
el astic
wo ven
bl oom
af fin
off ender
off shore
over looked
sp or
sp ice
br ay
br ink
ple asing
back er
av ans
fore ns
ip ha
si ren
land ings
fer o
fer t
fer vent
mu g
str ung
ild e
sc ur
sc aring
ph ic
ile e
fl or
An al
du el
car riers
Be an
ire h
side walk
fin ale
pre caution
show ers
Ar ri
Ar rest
Ar jun
fri th
Se ed
kill ings
par ap
At tis
At ahual
cur ls
bre wer
ins ults
Sh into
Sh ield
To x
lar k
Joh or
Com té
mor ale
Not re
wal i
wal t
15 2
15 5
15 7
dri fting
Car toon
llo ck
Ger ard
gre ase
trans formations
12 9
Me yer
Jo lly
colle cts
bum per
13 4
13 8
cas te
Cl int
bur row
Par ks
bas soon
Char ter
Je ez
rock er
Per th
shot gun
Dan cing
Pl enty
bor g
Qu ake
abo de
fur ry
hair cut
West phalia
fav oured
doctor al
grand daughter
Lu ci
count less
super visor
din er
trave llers
anti que
28 0
28 th
26 8
High lands
ba aee
cat alogue
bear er
inc ense
pan ze
AP PRO
subject ive
Vi ol
gri ll
Church es
tax ing
Cr us
text iles
AC C
kno cks
Pre par
fan cies
sight ed
BE EP
Dep ot
init ials
fool ed
sme lled
radio active
shar ia
Gold smith
bath tub
anal ys
Im pression
extre m
Tor re
Bra ve
scar f
Sil urian
Sun ni
BO B
Ru iz
Sto kes
mob iles
stock ade
Nat asha
pin ched
provid ers
Ty pes
reme mbr
screw driver
thick er
Second ly
Fran che
Gi pp
Ko ly
Turn s
km 2
civili zations
azz o
Kat y
spin ach
Cho ice
trail s
carbon ate
brush ed
brush es
Sc atter
lyn n
Soon er
MO ST
Ker ry
conce ive
conver ter
Confeder acy
Tan ner
Fa iz
Fri ar
Hun ting
advis ory
angel ical
Hay den
admir al
illness es
disgust ed
shr oud
frag ment
aux iliary
reci pient
OP EN
mr s
unconscious ly
ape ut
Jon ah
privile ged
oty pes
Set tle
eco system
Burn ing
keen ly
pap al
restr aint
Pay ne
Baron ess
tremend ously
jer sey
Ya Ya
scul ptor
Gill es
Lot us
liqu ids
flour ished
transmit ters
compreh ension
Kaz akh
humili ation
Lang ley
disgu ised
ingredi ent
Deep a
quot es
divid es
Pul itzer
aller gy
aes thetic
bats man
ske let
drain age
Haj j
Jur is
apprent ices
izar ro
reno vated
lobby ing
Ish ida
Skin ny
sincere ly
DID N
respons ive
Faw lty
exagger ated
Multi ple
Alban ia
pluck ed
bankrupt cy
phosp hate
Kend all
GUNSHO T
dart ed
beet le
corps es
Slovak ia
Hast ings
Roo de
affirm ative
tyran ny
seiz ure
¹⁄ ₂
Xiang shan
HAL ES
Liby a
Humph rey
receip t
Trin idad
Assist ant
discour aged
Pla za
Calder ón
Guin ness
simplif y
Gaut am
Wra ith
culpr it
eccles iastical
Bashir ou
PAY NTER
Nets cape
Ug anda
cuis ine
Northum bria
Rames h
Ansel mo
wondr ous
Arama ic
Squid ward
vocab ulary
armad illo
_Entry _
Atahual pa
5 50
A st
A be
A id
B ish
B har
B ib
C has
D art
E w
E IGHT
E slam
F ever
F ai
H AS
H ARD
J ak
L ass
L LO
L earn
L omb
M outh
M eat
M uni
N P
N ames
O pp
O phe
O vary
P ris
P ike
Q al
R l
R ank
R anger
R PC
S li
S ind
S chae
T atar
T orsen
U y
V ac
W IN
X amot
a ided
b ins
d n
d ere
f used
f rock
h ens
j ag
j ig
k re
k ab
k om
n ude
o es
o do
o res
p ike
p oul
p ooh
r ans
s wales
t ant
u o
x 2
z ung
ū d
in us
in quiries
on ward
en um
en act
en ched
en bach
or gas
es tr
ar is
he mi
me m
st ur
st ren
st inks
ic i
se izing
ere lla
ac ional
ac claimed
ly mph
gh ar
ch urn
ch ival
ut il
wi red
ir ical
am ended
all a
im peach
do mination
out lets
Th race
mo ls
un successfully
un predictable
de pressing
il legitimate
up graded
lo me
lo ch
con dol
con soles
He ctor
man ned
fe as
sa ic
sa urus
op al
op hy
ess es
wor ships
pro stit
pro jected
qu itting
su ed
ah u
bo ar
bo mbers
ink ler
ck y
ho lo
In uit
will ow
per mutations
di apers
ans ky
af lo
cl ark
over heard
sp ed
ick ed
St ink
St iles
ars i
Ch il
Ch op
down s
into x
work men
em it
str aps
aw an
spe lt
spe ls
under taking
Co vent
An ita
pre fix
Al ps
All ie
Mar ilyn
Re za
De Pod
18 13
18 28
18 40
18 44
18 49
ten ant
Ar c
Ar d
Ar range
fr owned
pri mes
Don nell
bro ch
Se ine
par lor
comm ence
jo c
val e
For ward
ins ists
real ism
vi per
New sp
tri fle
Can ary
eng ar
Con du
Con sul
az i
sl iced
Good ness
sho ved
ung a
15 3
round about
understand able
trans gender
grou ped
sort ing
matter ed
ene lope
que ens
Ho st
Ho mo
sent ry
ied er
Ab dull
tem plate
Jo ão
Ple asant
Her a
Her mann
!" --
equ ity
Cal ab
pen ance
wonder fully
jor ie
22 1
hot ep
van ish
mal icious
Gu am
Char ge
sed iment
atic an
gener ic
begin nings
issu ing
Mon th
RE AL
cost ing
joy ful
cell ular
west ward
pract ised
dest inations
Cor al
Mc Kin
sn uff
acc red
Atl as
creat ivity
GH C
bi ased
comb ines
RO CK
bag gage
Michael s
decided ly
spec ify
thy lene
mass age
boo boo
vari ants
ST ILL
fellow ship
gri ffin
broad caster
gle e
gle aming
Bur ger
Mac Donald
Mac Neil
hum bly
DO S
kno b
lic king
warm ly
neg ation
gor illa
sand stone
Vic ente
stupid ity
thro ats
MAN Y
Mag dal
gro tes
nation wide
hall way
Tor ies
Ele ct
Jud icial
acqu itted
tu ber
tu ition
ano vić
Sil as
Hal lie
BO OK
hide out
lack s
Sand ers
formula_ 4
Lake wood
explo itation
lif ts
determin es
stro lled
dete ctors
Shar ifa
mut iny
Shi va
distribut e
185 5
tun a
Ob ject
stret ches
tough er
Watch ing
begg ars
bull do
sin ner
dram at
Sur prise
Vo cal
incident ally
veget arian
Hol iday
180 3
tum or
mud dy
Leg acy
Por to
Cab ot
domin ions
Turk ic
Tem per
toi lets
dread fully
Din amo
Gon i
correspond s
Cir cus
Contin ent
RA F
Fi ji
revol ver
Rom antic
leap ing
Eight y
Gram mont
Dale y
chim panze
negoti ating
Engine ers
dump ing
Kil bane
Bri en
Conserv ation
Bos ley
Dri ving
assass in
descend ant
adm its
Ry ner
spark ling
Dist inguished
spons ors
GUN FIRE
oxid ized
ATION S
doctr ines
Fro st
Gol f
intern ally
sob bed
hence forth
Devon ian
solic itors
constitu ents
Ade le
pean uts
GER MAN
Sey mour
exhibit ions
CP U
grin ned
astronom ers
Dim it
RING ING
WP BF
reno vation
soo th
Sold ier
Sold iers
Pep per
arrog ance
Prus sian
Kö hler
dimin ished
stere o
Jung le
Sevent y
Creat ive
Faw kes
degrad ation
aristocr acy
quart z
lingu istic
digest ion
Brend a
Lut roph
ratt ling
Inno cent
Narr ator
Vik ram
Lah ore
hered itary
Tibet an
Brahmin s
cush ion
genet ics
genet ically
inaugur ated
Dalmat ia
wholes ome
Tarr ant
capti vity
superstit ious
refr ain
diarr hea
Patt on
Sust ain
Claudi a
ARCH ER
Gag arin
nox ious
Paren ts
Hitch cock
Dish mok
Nok ia
Individ ual
Bever ly
Sanct uary
Observ atory
rhino ceros
roo ster
chau ffe
palaes tra
paradig m
Nang ang
legis latures
SHOU TING
ánd ez
JM J
nostri ls
Rebell ion
Strat ford
Damod ar
Schae fer
DePod esta
Lutroph iles
2 19
A mber
A guil
B are
B ard
B order
C S
C aine
C ott
D ut
D ix
E V
F AM
F actor
F IND
G os
H ed
H air
I Z
I v
J ank
J ets
K aw
K irst
K itchen
L T
L ic
L od
L AN
L GB
M á
M our
M ete
M ID
N est
N ian
N AN
N SA
O llie
P AR
P har
P BS
P izarro
R M
R he
R attlesnake
S é
S cha
T ac
U FO
V aux
W are
W inton
W ARD
_ exit
b ard
b aking
c z
c ite
c unt
c ache
d we
d oodle
e w
e an
e ur
f udge
g ai
h ort
i j
j ol
l us
l ashes
l oft
m itting
n t
n ese
o ils
o vić
p ouch
r ite
s ions
s led
s lips
t rom
t iring
t ensions
y ak
y awning
ī r
‎ !
— ”
in famous
in sured
in hibi
in cumbent
an of
an om
re use
re building
re match
re lied
en z
en stein
to d
or no
al beit
it ian
ar ron
st aggered
se am
be witch
be verage
ot ine
ot ta
ent ran
for lorn
ch is
ver ts
ad h
ri ment
co le
oo s
im patiently
ab ate
ab ys
out comes
mo an
mo aned
un ts
un lock
un preced
pe ls
pe cker
ther apeut
de x
not ing
Wh ilst
up load
te asing
po k
con vul
man hood
est ro
est ial
ap ing
no ck
art work
We ird
20 8
So lid
na issance
ine as
In sur
per cussion
ide ological
ci um
ak y
think er
om ing
bl ouse
di lemma
ol ulu
af er
ass im
sp iders
ick er
und a
-- --"
where upon
back stage
Ch eng
pr one
ord ained
em barked
She ldon
au tho
dis solution
int ed
int ake
only include
play ground
mon ary
ph ara
iz u
ign ant
coun cill
Co pland
ens en
fl apping
An net
An thro
car avans
cr ows
hand ing
Ne gro
cle ans
ff le
18 3
18 45
Ar tem
Ar ordin
home lessness
fr iction
fr inge
gen cies
Se aland
care lessly
As im
pers isted
cur ly
My anmar
ks ha
high lights
gl uten
war p
Mo toro
cha kra
Ju di
book let
sha bby
add icted
char ities
cal ves
Go ssip
vo ked
Nor sta
Good man
fi end
den ying
bad ger
ger ms
gre ens
sle igh
peri meter
16 9
Jo aqu
Bl ind
14 3
14 7
Fo ix
Po e
fre y
Cl oudy
event ual
cu los
Per se
mand ate
gener ates
CH A
Pl uto
Min er
Mon key
vir tu
ax es
Tom ax
mis understood
cop es
cry stals
flu ent
Sy kes
La jos
paren tal
Am ir
enn ium
Cor de
23 8
Ill ust
thes ia
mission aries
Ca be
jud ging
Rus so
horse men
depend encies
rep lies
bon k
bon net
Sal on
recogn izes
East wood
zz o
bel le
boo king
announ cing
Bal kan
gri eve
Bel a
ref usal
Tur tles
Du val
Jer ome
Dam age
neg ro
sand s
bright est
vor tex
sens ational
Bill s
faith fully
Mid west
arrest ing
Olymp ia
account ant
impress ions
glo mer
emer ges
screen ing
NE VER
possess ing
whis kers
Ba ham
Hy der
Yu en
grave yard
Mass acre
Cle op
gate way
tempor al
Tri bune
dar n
Dor ud
lat itude
Han na
sor cer
Ko ch
Den is
Den ise
Mi ri
transl ator
perform ers
micro scopic
Rose k
bare foot
Land s
trail ing
Si ber
spect acle
spect acles
Ven om
Sc ene
thri ve
Game Cube
furn ish
protection ism
Tro bri
gam ble
conce iv
contest ed
swim mer
analy zed
Contin ue
stim ulate
stim ulating
boun ced
fasc ination
loan ed
Wild life
sper m
Dem on
cough s
Egyp tians
Card inals
Engine er
Gran ny
eco logical
modif y
Az iz
Bry ant
Alexand ra
PRO PER
tribut aries
toss ing
Tun stall
deput ies
Rho des
resem bling
kar ate
plug ged
Pi per
kat ie
Fern and
twist ing
MC RI
rud imentary
Mongo l
thet ics
thre es
prosecut ed
diplo ma
astronom er
regul atory
quad ri
compens ate
persist ence
Pink ie
tattoo s
wra ith
Init i
Sard inia
Grun ting
ambit ions
Chamber lain
iaz za
clas ped
frust rating
flir t
chris tian
tuck ed
sund ay
dazz ling
ratt led
plank ton
Imp act
raz or
Cau cas
Hes el
Luck ily
Charac ters
sni per
twi gs
burgl ar
fianc é
exem pt
Mead ow
Elisa beth
believer s
dorm ant
Viv ian
mosqui to
mim ic
ferment ation
pedest rian
prope ller
pseu do
thrush es
brist les
whimper ing
MAL ISE
Tild y
sso ver
Stemp niak
AUT EC
Hait i
Pix ar
Dono van
Tiber ius
Rajas than
irresis tible
fanci ed
KIR BY
Osa ka
Dioces e
Fow ler
remembr ance
LLO YD
LGB T
_exit _
dwe lt
unpreced ented
phara oh
Motoro la
Norsta ad
" ]
' --
( #
? .
A ctors
B au
B ones
C ance
C RE
C AS
C lift
D ü
D ag
D up
D aze
E Z
E ra
E ileen
F aster
F iction
G ale
H wi
H its
H ush
H ades
I o
J T
J AMES
K G
K ia
K ask
K hur
K IND
L ust
L ink
L unch
L arson
M ud
M AT
M ousy
N un
N ES
O ats
P us
P red
P eas
P ied
P PA
P ahl
P enelope
R ie
R ory
R IS
S au
S mil
S AL
S ae
T t
T ap
T ank
T yr
T sar
T ito
U G
U FC
V ed
V IS
V atican
W ine
W ash
W ins
W AR
W IV
Z an
a thing
a wo
b aw
b ula
c ind
c ort
c ud
d ental
d avid
e ing
f iscal
g la
g lands
g utter
i ant
j ets
k ie
l ON
m ul
m uttering
n ab
o pe
o lo
p ang
p anc
p anda
p aved
p istols
s loop
t ink
u il
v ously
v sky
y lvania
y οur
é tat
ó w
ū r
ꯂ ꯩ
in fra
an cies
on gh
at as
at su
at ical
re ne
re plic
en za
en abling
to ot
or th
al ign
al oft
me ts
le ash
se ct
se wer
se ptic
ve gan
be i
be friend
ac orn
ch um
ch aser
ad ors
ad hes
so pho
ir rational
are z
am is
im al
im ped
im perfect
im pet
im itate
ur able
ag awa
mo ths
un acceptable
ther land
not t
lo p
tr us
tr acing
te z
po li
po lly
pl ar
ul ic
ap ar
sa i
com posing
ill or
op hon
don ald
ind ie
end urance
ge m
fo il
na kes
gr ub
No minated
No thin
per ished
om ens
di version
di agonal
sp rout
pp in
tor ment
St au
St anton
St irling
ble ms
pr iceless
She a
She y
dis advantage
mu ffin
min is
orn aments
read ings
aw akening
tell er
." )
sc outs
try in
ph in
long time
under world
thr ash
men ace
Co re
inter im
fl uttered
Do st
Do lly
car nal
car nation
car rot
ss es
fin ancing
Al um
Al gon
Mar a
De li
De mo
De ane
col span
18 36
ced e
ident ly
Le ith
Let s
run cated
war a
Sh outing
Mo ha
cha k
ER AL
ste alth
school ing
gg ies
Go re
dec ree
hard ened
pop ulous
miss us
Or ion
Or dov
Or chard
17 7
Pr att
Me chan
Me ga
Me kong
pay roll
dist ribu
16 8
Ab del
class ify
fort ifications
30 th
suc c
colle ctively
ground ed
Fe z
contro llers
inv ading
bum ped
fire place
THE SE
US U
Lo sing
hot ter
Par amount
bas king
bas eline
Gu ards
Bar ks
Sp are
cou pling
buy er
ext ensions
mag nesium
spo ils
prote ctor
cost al
Ac cept
Bu ff
pract ition
Cor son
23 5
23 rd
Su therland
iv orous
AS ON
ban ished
sn acks
anti quity
represent ations
host ility
Sal man
inc ision
jour neys
engine ered
corn ered
command ers
Fin ish
Sam ara
pack s
vari ably
ST UD
gri ev
El m
express es
ded u
UN ES
imp lied
imp aired
bour geois
Tur bo
Rob ot
apart ments
hill side
WH I
Res ources
CO MP
Dep ending
states man
gor illas
bath s
assist ing
fresh man
Mil it
econom ically
Str ate
pig gy
sens or
sens ory
Hon olulu
iction ary
Tor o
Mat thews
farm house
jack ets
rot ating
Gar land
negative ly
Catholic ism
Sto ker
jam med
Cle ars
breath less
kne lt
Call ing
fright ful
progress ed
contr action
SC S
blind ed
shad es
AB LE
sor or
bat talion
favour able
pil grims
stal king
numer ator
Sub ject
Sub prefecture
pla que
Care y
Gal li
Kat su
Ve lo
Water house
Gri m
cel estial
reign ing
sli me
App al
solid arity
attend ants
gall on
Georg ian
prior ities
horri fied
gang s
wrest led
narrow ly
obtain ing
knock out
disco vers
Tu an
Cy bele
chuck le
tori um
CD P
approxim ation
maxim a
WO MEN
tum ult
powder ed
atmo spheric
Ever ard
Nic ar
Gre ca
Cut ler
Rod erick
Tar get
gur u
Mand arin
Tru ly
Steven s
Pad get
Pad ma
Inc ident
distin ctions
ec centric
yield ed
Card iff
consult ed
abol ition
Liz a
Bri ef
femin ism
clar ify
Low esto
Protestant ism
Rho da
lamb da
violin ist
Adri ana
rod ents
exceed ing
Wy oming
Gill ian
Tw ist
rescu ing
Lane y
rec ital
bru ises
recru its
Fern ández
Gerald ine
cater ing
satell ites
attribut es
Faith ful
Cow boys
Liter ally
dough nut
aun tie
stell ar
Bot tom
shiver ed
suff ice
irrit ating
diagram s
lass ie
lemon ade
sovereign ty
profound ly
detect ives
Dur ham
Wl TH
Jur assic
Aub rey
Alb ion
pard oned
refresh ing
bolt ed
lun atic
accum ulated
intu itive
Bent ley
omi ya
memo ir
Jab bar
Mira bel
Gregor ian
Hoo ver
Cus tom
circul ated
desp ised
Job s
harass ment
Steph enson
Palest inian
hic cup
Ther esa
pum ps
interfer ed
Trel ane
CLE ARS
cush ions
gymn astics
kha ki
prospe cts
crem ated
Kiwi rr
bureau cr
HT ML
dow ry
Athe na
lob ster
Stam ens
postp oned
KNOCK ING
embro id
Nichol son
jewell ery
Ola the
entrust ed
Vaugh an
Karth ike
fres co
kinder garten
Bav arian
mois elle
Tuscan y
Khnum hotep
Keral a
Advan ced
Gipp sland
Eslam abad
poul try
grotes que
Jank i
Insur ance
Anthro po
Clift on
Pahl avi
Ordov ician
Lowesto ft
0 h
2 12
3 14
A 1
A str
B ie
B old
B ALL
B akers
B lotte
B hut
B uren
C ory
C lif
D are
D ort
E vidence
E rie
F rog
F isk
H ag
H ath
H ohen
I w
I OR
I brahim
J ol
K uh
K ula
L ent
L ions
L ago
L overs
M ace
N oo
N aught
N AP
O o
O y
O dent
P U
P to
P ow
P rak
R ide
R av
R avi
S op
S ny
S pie
S ama
T um
T orn
T aw
T RE
T aste
U na
V ak
V IC
V IP
W ak
Y A
Y er
Y on
Z aer
_ A
b ong
c d
c q
c of
e er
f ou
f fect
h ou
h ana
i go
i Pad
l ure
l orry
m ish
m ak
m ise
m irth
n ically
o gue
p aces
r í
r ind
r ue
r ower
t ou
t ford
w ines
y m
z in
Ó rale
ū n
th ang
in fest
in filtr
an ad
re be
re vive
re creational
is ance
en es
en forced
en sible
en joys
to id
al u
as cent
es cal
ic orn
wh arf
ac om
for the
ld orf
ch assis
ad joining
co on
co cked
et an
ir ce
im mers
out fits
ag in
un re
un just
un sub
un limited
un healthy
sh ern
Wh ist
lo x
tr on
te as
his to
con son
pl aza
est uary
res ides
com positions
op pression
ess ions
pro hibited
qu el
And romeda
ind rical
own ing
So mer
ber ed
el en
ine ffect
gr avy
gr uff
bl ers
more over
over coming
over turned
over lap
ach man
red es
red dish
back bone
fir s
tor ches
St ur
Ch at
Ch um
Ch oose
She pherd
gu iding
dis trust
dis closed
dis dain
ret ic
min ent
sto oped
pres chool
ank ar
." "
mar a
mar ines
hi ko
Co sen
mean er
fl ue
du chess
ng a
Be h
Be cca
ask ia
pre mier
pre aching
Al arm
Mar cy
Mar jorie
Re ach
Re peat
Ne e
Ne wh
thought fully
clo thed
start ling
18 21
18 47
vis ory
ton nes
ten or
ship ment
fr ustration
che v
par ole
comm issions
sur passed
jo sh
log na
gl are
gl ared
ins anity
ball er
tri angles
rest rials
ste ward
sub species
Con fu
bed side
Ind igenous
Com petition
fun k
fun nel
Or din
arch bishop
press es
eas ter
ago gue
Pro posal
Pro blem
sk ulls
build ers
fil ing
Tr ou
Ex peri
door bell
ier o
16 3
fac tori
app arel
sent encing
week days
Jan a
anim ator
Ple asure
Fe ll
Fe ather
Wor st
inv in
har p
fire arms
Pe irce
angu ish
US D
fast en
bas ics
Sp in
25 3
25 5
Sep ar
Ke ys
AL EX
Sha ku
Mon o
Mon aco
Oc cident
sal uted
bri bes
ote i
Ed dy
Gen eration
Gen esis
pract ise
Lu igi
tro ll
iv ory
Mc Pherson
super hero
grad ient
Ca ul
une as
RO BER
Spe ars
ba the
sus cep
pet als
honey moon
fed s
stat utory
invest ing
Med ium
hop ped
dev oured
bul bs
enjoy able
Bal k
Bal och
gri pped
master piece
bra very
stor med
cro ssover
Mer lin
DO ING
bud gets
White hall
ji ang
Dis ci
Pan cakes
fresh water
sele cting
Im age
inn keeper
comed ies
uk ichi
Ap pear
Kore ans
Congress man
habit ats
Au ge
LO T
bio logist
Green wich
Mill ions
Has n
Emp ty
Sun ny
Na omi
Hy otei
Ru by
Cos by
Ly ons
finan ced
asc ending
Ty pical
rum our
HO G
dete ction
alcohol ics
awa its
Down town
sor rows
chem ists
UT C
tend encies
wheel ed
motor way
Sub way
transfer ring
tex tile
afford ed
Ce cilia
Arch ive
Arch ives
Cas shern
App in
princess es
Fire fox
Pen guin
Gard ner
Had ley
PO S
PO WER
loose ly
Sc ree
protest ing
Offic ial
49 ers
auto graph
auto psy
chuck led
pon der
cycl one
conver tible
lap se
---- ”
Ocean ia
infl icted
convict ions
rem acy
overall s
Nic ola
pent agonal
Tour ism
sne e
Ni ven
Ni agara
hydro xide
Tang ak
tender ly
Wed ding
neut ron
Hang ing
Rober ta
Sk ip
Wonder land
fasc ist
splend or
Short s
Main land
moun ting
ku y
enorm ously
ester ol
Ran ke
Kno b
evol ve
arc ade
Gas pard
survey ed
hug ged
quis ition
clar ity
lime y
resem bles
Ara u
Ara mean
affection ate
escort ed
Exam ple
Ky ung
knot s
Bour bon
shaw l
Fan ny
Sign al
veter ans
rud dy
assem ble
cyl indrical
dwar fs
hex agonal
Rena ult
Spl it
## #
eleg ance
prejud ices
Stock holm
astronom ical
Swi ft
Wheat on
elector ate
geograph ic
Kab ir
extract ed
[...]
