{"<s>":0,"<pad>":1,"</s>":2,"<unk>":3,"<mask>":4,"!":5,"\"":6,"#":7,"$":8,"%":9,"&":10,"'":11,"(":12,")":13,"*":14,"+":15,",":16,"-":17,".":18,"/":19,"0":20,"1":21,"2":22,"3":23,"4":24,"5":25,"6":26,"7":27,"8":28,"9":29,":":30,";":31,"<":32,"=":33,">":34,"?":35,"@":36,"A":37,"B":38,"C":39,"D":40,"E":41,"F":42,"G":43,"H":44,"I":45,"J":46,"K":47,"L":48,"M":49,"N":50,"O":51,"P":52,"Q":53,"R":54,"S":55,"T":56,"U":57,"V":58,"W":59,"X":60,"Y":61,"Z":62,"[":63,"\\":64,"]":65,"^":66,"_":67,"`":68,"a":69,"b":70,"c":71,"d":72,"e":73,"f":74,"g":75,"h":76,"i":77,"j":78,"k":79,"l":80,"m":81,"n":82,"o":83,"p":84,"q":85,"r":86,"s":87,"t":88,"u":89,"v":90,"w":91,"x":92,"y":93,"z":94,"{":95,"|":96,"}":97,"~":98,"":99,"":100,"":101,"":102,"":103,"":104,"":105,"":106,"":107,"":108,"":109,"":110,"¡":111,"¢":112,"£":113,"¤":114,"¦":115,"§":116,"¨":117,"©":118,"ª":119,"«":120,"¬":121,"­":122,"®":123,"¯":124,"°":125,"±":126,"²":127,"³":128,"´":129,"µ":130,"¶":131,"·":132,"¸":133,"¹":134,"º":135,"»":136,"¼":137,"½":138,"¾":139,"¿":140,"À":141,"Á":142,"Â":143,"Ã":144,"Ä":145,"Å":146,"Æ":147,"Ç":148,"È":149,"É":150,"Ê":151,"Ë":152,"Ì":153,"Í":154,"Î":155,"Ï":156,"Ð":157,"Ñ":158,"Ò":159,"Ó":160,"Ô":161,"Ö":162,"×":163,"Ø":164,"Ù":165,"Ú":166,"Ü":167,"ß":168,"à":169,"á":170,"â":171,"ã":172,"ä":173,"å":174,"æ":175,"ç":176,"è":177,"é":178,"ê":179,"ë":180,"ì":181,"í":182,"î":183,"ï":184,"ð":185,"ñ":186,"ò":187,"ó":188,"ô":189,"õ":190,"ö":191,"÷":192,"ø":193,"ù":194,"ú":195,"û":196,"ü":197,"ý":198,"þ":199,"ÿ":200,"Ā":201,"ā":202,"Ă":203,"ă":204,"ą":205,"Ć":206,"ć":207,"ċ":208,"Č":209,"č":210,"ď":211,"Đ":212,"đ":213,"Ē":214,"ē":215,"ė":216,"ę":217,"ě":218,"ğ":219,"ģ":220,"Ħ":221,"ħ":222,"ĩ":223,"Ī":224,"ī":225,"İ":226,"ı":227,"Ķ":228,"Ļ":229,"ļ":230,"Ľ":231,"ľ":232,"Ł":233,"ł":234,"ń":235,"ņ":236,"ň":237,"ŋ":238,"Ō":239,"ō":240,"ŏ":241,"Ő":242,"ő":243,"Œ":244,"œ":245,"ŕ":246,"Ř":247,"ř":248,"Ś":249,"ś":250,"Ş":251,"ş":252,"Š":253,"š":254,"Ţ":255,"ţ":256,"ť":257,"ũ":258,"Ū":259,"ū":260,"ŭ":261,"ů":262,"ŵ":263,"Ź":264,"ź":265,"ż":266,"Ž":267,"ž":268,"Ɔ":269,"ơ":270,"ư":271,"ǎ":272,"ǐ":273,"ǒ":274,"ǔ":275,"ǧ":276,"ǫ":277,"Ș":278,"ș":279,"Ț":280,"ț":281,"ɒ":282,"ɓ":283,"ɔ":284,"ə":285,"ɛ":286,"ɜ":287,"ɪ":288,"ɹ":289,"ɾ":290,"ʁ":291,"ʊ":292,"ʋ":293,"ʒ":294,"ʔ":295,"ʰ":296,"ʲ":297,"ʷ":298,"ʹ":299,"ʻ":300,"ʼ":301,"ʾ":302,"ʿ":303,"ˇ":304,"ˈ":305,"ˊ":306,"ˋ":307,"ˌ":308,"ː":309,"˚":310,"˜":311,"ˡ":312,"́":313,"̄":314,"̍":315,"̤":316,"̧":317,"̨":318,"·":319,"Α":320,"Β":321,"Γ":322,"Δ":323,"Ε":324,"Η":325,"Θ":326,"Ι":327,"Κ":328,"Μ":329,"Ν":330,"Ο":331,"Π":332,"Τ":333,"Υ":334,"Φ":335,"Χ":336,"Ω":337,"ά":338,"έ":339,"ή":340,"ί":341,"α":342,"β":343,"γ":344,"δ":345,"ε":346,"η":347,"θ":348,"ι":349,"κ":350,"λ":351,"μ":352,"ν":353,"ξ":354,"ο":355,"π":356,"ρ":357,"ς":358,"σ":359,"τ":360,"υ":361,"φ":362,"χ":363,"ψ":364,"ω":365,"ό":366,"ύ":367,"ώ":368,"ϕ":369,"Ђ":370,"Є":371,"І":372,"Ї":373,"Ј":374,"А":375,"Б":376,"В":377,"Г":378,"Д":379,"Е":380,"Ж":381,"З":382,"И":383,"Й":384,"К":385,"Л":386,"М":387,"Н":388,"О":389,"П":390,"Р":391,"С":392,"Т":393,"У":394,"Ф":395,"Х":396,"Ц":397,"Ч":398,"Ш":399,"Щ":400,"Ь":401,"Э":402,"Ю":403,"Я":404,"а":405,"б":406,"в":407,"г":408,"д":409,"е":410,"ж":411,"з":412,"и":413,"й":414,"к":415,"л":416,"м":417,"н":418,"о":419,"п":420,"р":421,"с":422,"т":423,"у":424,"ф":425,"х":426,"ц":427,"ч":428,"ш":429,"щ":430,"ы":431,"ь":432,"ю":433,"я":434,"ђ":435,"є":436,"і":437,"ї":438,"ј":439,"њ":440,"ћ":441,"Ґ":442,"ґ":443,"Қ":444,"ү":445,"ұ":446,"Ә":447,"ә":448,"ӱ":449,"Ա":450,"Հ":451,"Ռ":452,"Ս":453,"Վ":454,"Ց":455,"Փ":456,"Ֆ":457,"ա":458,"բ":459,"ե":460,"թ":461,"ի":462,"լ":463,"կ":464,"հ":465,"ղ":466,"մ":467,"յ":468,"ն":469,"ո":470,"ս":471,"վ":472,"տ":473,"ր":474,"ց":475,"ւ":476,"օ":477,"ָ":478,"ׁ":479,"א":480,"ב":481,"ג":482,"ד":483,"ה":484,"ו":485,"ח":486,"י":487,"כ":488,"ל":489,"מ":490,"ן":491,"נ":492,"ס":493,"ע":494,"פ":495,"ץ":496,"צ":497,"ר":498,"ש":499,"ת":500,"،":501,"ء":502,"آ":503,"أ":504,"إ":505,"ئ":506,"ا":507,"ب":508,"ة":509,"ت":510,"ث":511,"ج":512,"ح":513,"خ":514,"د":515,"ذ":516,"ر":517,"ز":518,"س":519,"ش":520,"ص":521,"ض":522,"ط":523,"ظ":524,"ع":525,"غ":526,"ـ":527,"ف":528,"ق":529,"ك":530,"ل":531,"م":532,"ن":533,"ه":534,"و":535,"ى":536,"ي":537,"ً":538,"َ":539,"ُ":540,"ِ":541,"ّ":542,"ْ":543,"ٓ":544,"١":545,"٨":546,"ٰ":547,"ٱ":548,"پ":549,"چ":550,"ژ":551,"ک":552,"گ":553,"ہ":554,"ۆ":555,"ی":556,"ە":557,"ۚ":558,"۟":559,"ۢ":560,"ۥ":561,"ं":562,"ः":563,"अ":564,"आ":565,"इ":566,"उ":567,"ओ":568,"क":569,"ख":570,"ग":571,"च":572,"छ":573,"ज":574,"ट":575,"ण":576,"त":577,"थ":578,"द":579,"ध":580,"न":581,"प":582,"ब":583,"भ":584,"म":585,"य":586,"र":587,"ल":588,"व":589,"श":590,"ष":591,"स":592,"ह":593,"़":594,"ा":595,"ि":596,"ी":597,"ु":598,"ू":599,"ृ":600,"े":601,"ै":602,"ो":603,"्":604,"।":605,"०":606,"२":607,"ং":608,"আ":609,"ই":610,"ও":611,"ক":612,"খ":613,"গ":614,"ঙ":615,"চ":616,"ছ":617,"জ":618,"ঞ":619,"ট":620,"ণ":621,"ত":622,"থ":623,"দ":624,"ধ":625,"ন":626,"প":627,"ব":628,"ভ":629,"ম":630,"য":631,"র":632,"ল":633,"শ":634,"ষ":635,"স":636,"হ":637,"়":638,"া":639,"ি":640,"ী":641,"ু":642,"ূ":643,"ৃ":644,"ে":645,"ৈ":646,"ো":647,"্":648,"ਂ":649,"ਆ":650,"ਓ":651,"ਗ":652,"ਚ":653,"ਜ":654,"ਣ":655,"ਥ":656,"ਨ":657,"ਪ":658,"ਬ":659,"ਮ":660,"ਰ":661,"ਲ":662,"ਵ":663,"ਾ":664,"ੀ":665,"ੁ":666,"ੇ":667,"ੈ":668,"ੰ":669,"ੱ":670,"ક":671,"ગ":672,"જ":673,"ત":674,"ર":675,"લ":676,"ા":677,"ી":678,"ુ":679,"ો":680,"க":681,"த":682,"ப":683,"ம":684,"ய":685,"ல":686,"ா":687,"ி":688,"ொ":689,"்":690,"ಕ":691,"ಟ":692,"ಡ":693,"ಣ":694,"ಪ":695,"ರ":696,"ಲ":697,"ಶ":698,"ಾ":699,"ೀ":700,"್":701,"ം":702,"ച":703,"ഞ":704,"ര":705,"സ":706,"ാ":707,"്":708,"ක":709,"ජ":710,"න":711,"ප":712,"ම":713,"ර":714,"ල":715,"ෂ":716,"ස":717,"්":718,"ා":719,"ි":720,"ු":721,"ෙ":722,"ก":723,"ค":724,"ง":725,"จ":726,"ช":727,"ญ":728,"ณ":729,"ท":730,"ธ":731,"น":732,"บ":733,"ป":734,"ผ":735,"พ":736,"ภ":737,"ม":738,"ร":739,"ล":740,"ว":741,"ศ":742,"ส":743,"ห":744,"ฬ":745,"อ":746,"ะ":747,"า":748,"ิ":749,"ุ":750,"ู":751,"เ":752,"แ":753,"โ":754,"ไ":755,"่":756,"้":757,"์":758,"ກ":759,"ດ":760,"ອ":761,"ີ":762,"ເ":763,"ແ":764,"່":765,"້":766,"ር":767,"ሳ":768,"ስ":769,"ቂ":770,"ኢ":771,"ኣ":772,"ወ":773,"ያ":774,"ይ":775,"ፍ":776,"Ꭴ":777,"Ꭹ":778,"Ꮅ":779,"Ꮕ":780,"Ꮝ":781,"Ꮢ":782,"Ꮣ":783,"Ᏹ":784,"ᛖ":785,"ᵇ":786,"ᵉ":787,"ḍ":788,"Ḥ":789,"ḥ":790,"Ḩ":791,"ḩ":792,"ḵ":793,"ḻ":794,"ṁ":795,"ṃ":796,"ṅ":797,"ṇ":798,"ṛ":799,"ṟ":800,"Ṣ":801,"ṣ":802,"ṭ":803,"ṯ":804,"ẓ":805,"ẕ":806,"ạ":807,"ả":808,"ấ":809,"ầ":810,"ậ":811,"ắ":812,"ặ":813,"ẽ":814,"Ế":815,"ế":816,"ề":817,"ể":818,"ễ":819,"ệ":820,"ỉ":821,"ọ":822,"ỏ":823,"ố":824,"ồ":825,"ổ":826,"ỗ":827,"ộ":828,"ớ":829,"ờ":830,"ở":831,"ợ":832,"ụ":833,"ủ":834,"ứ":835,"ừ":836,"ử":837,"ữ":838,"ự":839,"ỳ":840,"ἀ":841,"ἄ":842,"Ἀ":843,"ἐ":844,"ἑ":845,"ἔ":846,"ἡ":847,"ἢ":848,"ἥ":849,"ἦ":850,"Ἤ":851,"ἰ":852,"ἱ":853,"ὁ":854,"ὅ":855,"ὐ":856,"ὑ":857,"ὡ":858,"ὤ":859,"Ὦ":860,"ὰ":861,"ά":862,"ὲ":863,"έ":864,"ὴ":865,"ή":866,"ὶ":867,"ί":868,"ὸ":869,"ό":870,"ὺ":871,"ύ":872,"ὼ":873,"ᾖ":874,"ᾧ":875,"ᾳ":876,"ᾷ":877,"ῃ":878,"ῆ":879,"ῇ":880,"ῖ":881,"ῦ":882,"ῶ":883,"ῷ":884,"​":885,"‌":886,"‎":887,"‏":888,"‐":889,"‑":890,"–":891,"—":892,"―":893,"‘":894,"’":895,"“":896,"”":897,"„":898,"†":899,"•":900,"…":901,"‭":902,"′":903,"″":904,"⁄":905,"⁺":906,"⁻":907,"₀":908,"₁":909,"₂":910,"₃":911,"₄":912,"₅":913,"₆":914,"₇":915,"₈":916,"₤":917,"₦":918,"€":919,"₹":920,"℈":921,"℔":922,"№":923,"℞":924,"™":925,"℥":926,"⅘":927,"⅛":928,"⅝":929,"⅞":930,"→":931,"∈":932,"−":933,"√":934,"∞":935,"∼":936,"≈":937,"≔":938,"≤":939,"≥":940,"⊂":941,"⊆":942,"⋅":943,"⌀":944,"①":945,"②":946,"③":947,"④":948,"⑤":949,"⑥":950,"⑦":951,"◾":952,"★":953,"☆":954,"♠":955,"♣":956,"♥":957,"♦":958,"♪":959,"♫":960,"♬":961,"⟨":962,"⟩":963,"⬄":964,"⿰":965,"⿱":966,"⿺":967,"、":968,"。":969,"《":970,"》":971,"「":972,"」":973,"『":974,"』":975,"あ":976,"え":977,"お":978,"か":979,"が":980,"き":981,"く":982,"け":983,"こ":984,"ご":985,"さ":986,"ざ":987,"し":988,"す":989,"せ":990,"ぜ":991,"た":992,"ち":993,"つ":994,"づ":995,"て":996,"で":997,"と":998,"な":999,"に":1000,"ね":1001,"の":1002,"は":1003,"ひ":1004,"び":1005,"ま":1006,"み":1007,"め":1008,"も":1009,"ゃ":1010,"や":1011,"ら":1012,"り":1013,"る":1014,"れ":1015,"ろ":1016,"わ":1017,"を":1018,"ん":1019,"ア":1020,"ィ":1021,"イ":1022,"ウ":1023,"ェ":1024,"エ":1025,"オ":1026,"カ":1027,"ガ":1028,"キ":1029,"ク":1030,"グ":1031,"ケ":1032,"コ":1033,"ゴ":1034,"サ":1035,"ザ":1036,"シ":1037,"ジ":1038,"ス":1039,"ズ":1040,"タ":1041,"ダ":1042,"ッ":1043,"テ":1044,"デ":1045,"ト":1046,"ド":1047,"ナ":1048,"ニ":1049,"バ":1050,"パ":1051,"ヒ":1052,"ビ":1053,"フ":1054,"ブ":1055,"プ":1056,"ベ":1057,"ペ":1058,"ホ":1059,"ボ":1060,"ポ":1061,"マ":1062,"ミ":1063,"ム":1064,"メ":1065,"モ":1066,"ャ":1067,"ヤ":1068,"ュ":1069,"ユ":1070,"ョ":1071,"ラ":1072,"リ":1073,"ル":1074,"ロ":1075,"ワ":1076,"ン":1077,"ヶ":1078,"・":1079,"ー":1080,"ㄌ":1081,"ㄑ":1082,"ㄒ":1083,"ㄓ":1084,"ㄕ":1085,"ㄘ":1086,"ㄚ":1087,"ㄢ":1088,"ㄣ":1089,"ㄤ":1090,"ㄧ":1091,"ㄨ":1092,"ㄩ":1093,"一":1094,"三":1095,"上":1096,"下":1097,"世":1098,"业":1099,"中":1100,"丸":1101,"久":1102,"亂":1103,"事":1104,"二":1105,"于":1106,"井":1107,"亡":1108,"京":1109,"人":1110,"介":1111,"仙":1112,"代":1113,"仲":1114,"伐":1115,"会":1116,"作":1117,"你":1118,"使":1119,"供":1120,"信":1121,"倉":1122,"値":1123,"倫":1124,"做":1125,"傳":1126,"元":1127,"光":1128,"公":1129,"共":1130,"关":1131,"兴":1132,"内":1133,"円":1134,"凱":1135,"刀":1136,"刃":1137,"分":1138,"刊":1139,"初":1140,"利":1141,"前":1142,"剣":1143,"力":1144,"务":1145,"動":1146,"勝":1147,"化":1148,"北":1149,"匯":1150,"區":1151,"十":1152,"協":1153,"南":1154,"博":1155,"卵":1156,"原":1157,"収":1158,"口":1159,"台":1160,"史":1161,"司":1162,"吉":1163,"名":1164,"后":1165,"味":1166,"命":1167,"和":1168,"啓":1169,"啦":1170,"喃":1171,"喇":1172,"喜":1173,"営":1174,"嘛":1175,"四":1176,"回":1177,"団":1178,"国":1179,"國":1180,"圖":1181,"土":1182,"在":1183,"均":1184,"城":1185,"培":1186,"堂":1187,"報":1188,"境":1189,"墨":1190,"夏":1191,"夕":1192,"多":1193,"大":1194,"天":1195,"夫":1196,"央":1197,"奈":1198,"好":1199,"子":1200,"字":1201,"存":1202,"学":1203,"守":1204,"安":1205,"完":1206,"宗":1207,"定":1208,"宮":1209,"實":1210,"寿":1211,"尹":1212,"尾":1213,"属":1214,"山":1215,"岁":1216,"岛":1217,"岡":1218,"岩":1219,"島":1220,"崔":1221,"川":1222,"工":1223,"巴":1224,"市":1225,"希":1226,"帯":1227,"幫":1228,"干":1229,"平":1230,"幸":1231,"幻":1232,"広":1233,"式":1234,"弥":1235,"彦":1236,"御":1237,"德":1238,"心":1239,"志":1240,"忠":1241,"念":1242,"情":1243,"想":1244,"愛":1245,"成":1246,"我":1247,"战":1248,"戯":1249,"戲":1250,"戸":1251,"扇":1252,"才":1253,"扬":1254,"承":1255,"技":1256,"挂":1257,"措":1258,"揚":1259,"摺":1260,"敎":1261,"敏":1262,"教":1263,"文":1264,"斗":1265,"新":1266,"方":1267,"日":1268,"早":1269,"旺":1270,"昌":1271,"時":1272,"晃":1273,"景":1274,"智":1275,"書":1276,"會":1277,"望":1278,"朝":1279,"木":1280,"末":1281,"本":1282,"村":1283,"束":1284,"東":1285,"松":1286,"析":1287,"染":1288,"柚":1289,"校":1290,"桥":1291,"森":1292,"楊":1293,"楼":1294,"楽":1295,"樂":1296,"横":1297,"次":1298,"歌":1299,"正":1300,"步":1301,"死":1302,"民":1303,"気":1304,"水":1305,"永":1306,"江":1307,"決":1308,"沢":1309,"河":1310,"法":1311,"活":1312,"浦":1313,"海":1314,"清":1315,"渋":1316,"渡":1317,"港":1318,"湖":1319,"漢":1320,"漬":1321,"澧":1322,"濡":1323,"火":1324,"灯":1325,"炊":1326,"煮":1327,"熱":1328,"燃":1329,"父":1330,"物":1331,"狙":1332,"玉":1333,"珍":1334,"珪":1335,"現":1336,"球":1337,"理":1338,"琉":1339,"生":1340,"田":1341,"由":1342,"男":1343,"町":1344,"画":1345,"畵":1346,"疆":1347,"疎":1348,"発":1349,"白":1350,"的":1351,"皇":1352,"益":1353,"盧":1354,"県":1355,"真":1356,"知":1357,"研":1358,"破":1359,"社":1360,"祀":1361,"神":1362,"祥":1363,"祭":1364,"福":1365,"稔":1366,"稲":1367,"積":1368,"究":1369,"笑":1370,"第":1371,"筆":1372,"筑":1373,"節":1374,"系":1375,"紅":1376,"純":1377,"素":1378,"絵":1379,"綱":1380,"線":1381,"縣":1382,"结":1383,"置":1384,"美":1385,"群":1386,"義":1387,"职":1388,"股":1389,"育":1390,"能":1391,"腕":1392,"臨":1393,"致":1394,"臼":1395,"興":1396,"舞":1397,"良":1398,"芦":1399,"花":1400,"若":1401,"英":1402,"茶":1403,"药":1404,"莫":1405,"藍":1406,"藥":1407,"藻":1408,"虫":1409,"蝶":1410,"行":1411,"街":1412,"衫":1413,"袁":1414,"裕":1415,"要":1416,"観":1417,"言":1418,"記":1419,"誌":1420,"語":1421,"議":1422,"训":1423,"讲":1424,"谷":1425,"豊":1426,"象":1427,"豫":1428,"貞":1429,"財":1430,"賞":1431,"赤":1432,"赫":1433,"起":1434,"越":1435,"蹴":1436,"軍":1437,"軒":1438,"転":1439,"轄":1440,"轉":1441,"辦":1442,"辺":1443,"込":1444,"返":1445,"进":1446,"迫":1447,"逆":1448,"通":1449,"週":1450,"進":1451,"遊":1452,"運":1453,"過":1454,"道":1455,"郎":1456,"鄉":1457,"鄰":1458,"里":1459,"野":1460,"金":1461,"鉄":1462,"錦":1463,"録":1464,"鎮":1465,"鑴":1466,"長":1467,"长":1468,"開":1469,"関":1470,"问":1471,"阪":1472,"院":1473,"霞":1474,"靈":1475,"青":1476,"静":1477,"面":1478,"革":1479,"韓":1480,"音":1481,"题":1482,"風":1483,"飯":1484,"館":1485,"香":1486,"體":1487,"高":1488,"魁":1489,"魚":1490,"鮮":1491,"鳥":1492,"黃":1493,"黄":1494,"ꯀ":1495,"ꯁ":1496,"ꯂ":1497,"ꯃ":1498,"ꯄ":1499,"ꯅ":1500,"ꯈ":1501,"ꯉ":1502,"ꯊ":1503,"ꯍ":1504,"ꯏ":1505,"ꯑ":1506,"ꯔ":1507,"ꯕ":1508,"ꯗ":1509,"ꯜ":1510,"ꯟ":1511,"ꯡ":1512,"ꯢ":1513,"ꯣ":1514,"ꯤ":1515,"ꯥ":1516,"ꯦ":1517,"ꯧ":1518,"ꯨ":1519,"ꯩ":1520,"가":1521,"강":1522,"괴":1523,"국":1524,"나":1525,"널":1526,"노":1527,"대":1528,"도":1529,"두":1530,"라":1531,"란":1532,"래":1533,"럼":1534,"리":1535,"말":1536,"매":1537,"미":1538,"민":1539,"백":1540,"보":1541,"부":1542,"불":1543,"사":1544,"산":1545,"삼":1546,"서":1547,"선":1548,"소":1549,"술":1550,"스":1551,"승":1552,"실":1553,"아":1554,"안":1555,"애":1556,"어":1557,"옥":1558,"왕":1559,"우":1560,"유":1561,"윤":1562,"이":1563,"익":1564,"일":1565,"정":1566,"제":1567,"조":1568,"중":1569,"진":1570,"창":1571,"채":1572,"최":1573,"치":1574,"코":1575,"티":1576,"포":1577,"하":1578,"한":1579,"행":1580,"헌":1581,"혁":1582,"협":1583,"호":1584,"화":1585,"회":1586,"휴":1587,"희":1588,"ﬂ":1589,"︢":1590,"ﺍ":1591,"ﺒ":1592,"ﻟ":1593,"ﻨ":1594,"ﻲ":1595,"！":1596,"（":1597,"）":1598,"，":1599,"．":1600,"２":1601,"５":1602,"？":1603,"～":1604,"�":1605,"𐎹":1606,"𒀸":1607,"𒁺":1608,"𒋗":1609,"th":1610,"in":1611,"er":1612,"an":1613,"the":1614,"ou":1615,"on":1616,"at":1617,"re":1618,"is":1619,"en":1620,"to":1621,"ed":1622,"or":1623,"ing":1624,"al":1625,"as":1626,"it":1627,"es":1628,"and":1629,"ar":1630,"of":1631,"he":1632,"you":1633,"me":1634,"le":1635,"st":1636,"ll":1637,"ic":1638,"ow":1639,"se":1640,"ve":1641,"be":1642,"wh":1643,"ha":1644,"ro":1645,"ay":1646,"that":1647,"ere":1648,"ac":1649,"ly":1650,"ion":1651,"id":1652,"ot":1653,"gh":1654,"ent":1655,"for":1656,"was":1657,"ld":1658,"ch":1659,"ut":1660,"ver":1661,"wi":1662,"ad":1663,"so":1664,"li":1665,"ri":1666,"..":1667,"co":1668,"et":1669,"we":1670,"ir":1671,"ke":1672,"nd":1673,"are":1674,"ght":1675,"am":1676,"all":1677,"oo":1678,"The":1679,"im":1680,"do":1681,"ter":1682,"ab":1683,"with":1684,"out":1685,"us":1686,"ne":1687,"ur":1688,"one":1689,"ce":1690,"now":1691,"ag":1692,"Th":1693,"mo":1694,"un":1695,"pe":1696,"ther":1697,"have":1698,"de":1699,"this":1700,"not":1701,"go":1702,"sh":1703,"Wh":1704,"ould":1705,"il":1706,"ant":1707,"up":1708,"lo":1709,"ain":1710,"ust":1711,"ation":1712,"tr":1713,"You":1714,"te":1715,"if":1716,"my":1717,"po":1718,"It":1719,"his":1720,"con":1721,"He":1722,"man":1723,"ct":1724,"know":1725,"pl":1726,"...":1727,"ul":1728,"rom":1729,"can":1730,"what":1731,"fe":1732,"thing":1733,"est":1734,"ap":1735,"our":1736,"by":1737,"they":1738,"sa":1739,"no":1740,"her":1741,"art":1742,"res":1743,"com":1744,"ill":1745,"op":1746,"but":1747,"your":1748,"ers":1749,"from":1750,"ess":1751,"there":1752,"um":1753,"some":1754,"ca":1755,"We":1756,"had":1757,"wor":1758,"ti":1759,"ate":1760,"ally":1761,"pro":1762,"qu":1763,"him":1764,"like":1765,"ard":1766,"ex":1767,"su":1768,"get":1769,"way":1770,"ah":1771,"ig":1772,"ack":1773,"And":1774,"very":1775,"bo":1776,"don":1777,"ind":1778,"end":1779,"ge":1780,"she":1781,"king":1782,"19":1783,"ood":1784,"ight":1785,"about":1786,"ry":1787,"ist":1788,"ong":1789,"ake":1790,"were":1791,"ie":1792,"ye":1793,"ive":1794,"ment":1795,"ound":1796,"ich":1797,"who":1798,"ity":1799,"ast":1800,"use":1801,"20":1802,"just":1803,"own":1804,"ink":1805,"ck":1806,"here":1807,"any":1808,"right":1809,"So":1810,"ook":1811,"What":1812,"see":1813,"did":1814,"fo":1815,"ber":1816,"na":1817,"el":1818,"ho":1819,"them":1820,"wo":1821,"ine":1822,"gr":1823,"No":1824,"In":1825,"would":1826,"ish":1827,"want":1828,"ven":1829,"will":1830,"per":1831,"ide":1832,"ra":1833,"other":1834,"ort":1835,"got":1836,"ous":1837,"act":1838,"has":1839,"ep":1840,"ice":1841,"which":1842,"ci":1843,"ak":1844,"think":1845,"om":1846,"ough":1847,"bl":1848,"day":1849,"when":1850,"time":1851,"ure":1852,"said":1853,"di":1854,"say":1855,"oun":1856,"itt":1857,"But":1858,"age":1859,"ol":1860,"ans":1861,"af":1862,"been":1863,"more":1864,"ace":1865,"cl":1866,"off":1867,"Oh":1868,"Ye":1869,"ty":1870,"ass":1871,"ang":1872,"ople":1873,"over":1874,"their":1875,"sp":1876,"then":1877,"come":1878,"ies":1879,"br":1880,"ia":1881,"ick":1882,"ree":1883,"too":1884,"ite":1885,"Yeah":1886,"und":1887,"going":1888,"ple":1889,"ach":1890,"That":1891,"--":1892,"where":1893,"red":1894,"back":1895,"pp":1896,"people":1897,"could":1898,"cause":1899,"part":1900,"how":1901,"ary":1902,"ated":1903,"let":1904,"fir":1905,"tor":1906,"St":1907,"ars":1908,"sel":1909,"ud":1910,"ble":1911,"good":1912,"Ch":1913,"av":1914,"mer":1915,"than":1916,"two":1917,"look":1918,"ue":1919,"They":1920,"pr":1921,"ade":1922,"ved":1923,"ord":1924,"This":1925,"ase":1926,"down":1927,"into":1928,"well":1929,"first":1930,"work":1931,"em":1932,"She":1933,"ance":1934,"Well":1935,"call":1936,"fore":1937,"reat":1938,"ence":1939,"kay":1940,"ave":1941,"able":1942,"oh":1943,"also":1944,"its":1945,"ip":1946,"au":1947,"gu":1948,"put":1949,"dis":1950,"new":1951,"dy":1952,"ittle":1953,"int":1954,"si":1955,"land":1956,"ought":1957,"only":1958,"ser":1959,"ater":1960,"fer":1961,"ions":1962,"00":1963,"play":1964,"again":1965,"every":1966,"port":1967,"pos":1968,"ret":1969,"little":1970,"mu":1971,"min":1972,"self":1973,"ren":1974,"bet":1975,"orn":1976,"urn":1977,"bu":1978,"tal":1979,"mber":1980,"ever":1981,"sto":1982,"ving":1983,"because":1984,"str":1985,"read":1986,"aw":1987,"pres":1988,"ian":1989,"ank":1990,"Un":1991,"after":1992,"form":1993,"need":1994,"spe":1995,"ild":1996,"ob":1997,"came":1998,"take":1999,"ves":2000,"make":2001,"tell":2002,"pt":2003,".\"":2004,"There":2005,"should":2006,"most":2007,"mon":2008,"ose":2009,"sc":2010,"try":2011,"ma":2012,"fa":2013,"ph":2014,"tain":2015,"really":2016,"long":2017,"mar":2018,"od":2019,"happ":2020,"hi":2021,"under":2022,"Yes":2023,"thr":2024,"old":2025,"these":2026,"iz":2027,"ical":2028,"ile":2029,"ign":2030,"does":2031,"gon":2032,"201":2033,"coun":2034,"men":2035,"Co":2036,"much":2037,"ens":2038,"How":2039,"mean":2040,"inter":2041,"something":2042,"wr":2043,"ates":2044,"fl":2045,"An":2046,"du":2047,"used":2048,"ting":2049,"gonna":2050,"even":2051,"may":2052,"ath":2053,"made":2054,"went":2055,"many":2056,"iss":2057,"If":2058,"uh":2059,"ts":2060,"ng":2061,"Do":2062,"car":2063,"hel":2064,"Be":2065,"ire":2066,"cr":2067,"ction":2068,"ps":2069,"''":2070,"ask":2071,"``":2072,"fu":2073,"before":2074,"hand":2075,"never":2076,"won":2077,"ta":2078,"ited":2079,"cent":2080,"didn":2081,"200":2082,"ms":2083,"side":2084,"Ro":2085,"ft":2086,"ys":2087,"amp":2088,"med":2089,"body":2090,"ss":2091,"yes":2092,"cont":2093,"dif":2094,"les":2095,"Mr":2096,"ouse":2097,"att":2098,"ually":2099,"fin":2100,"life":2101,"ition":2102,"lie":2103,"atch":2104,"ict":2105,"ried":2106,"ool":2107,"great":2108,"vers":2109,"pre":2110,"ily":2111,"des":2112,"ious":2113,"through":2114,"der":2115,"ces":2116,"years":2117,"ful":2118,"okay":2119,"ations":2120,"dr":2121,"Al":2122,"stand":2123,"All":2124,"Mar":2125,"ise":2126,"head":2127,"Re":2128,"Ne":2129,"cle":2130,"sup":2131,"cour":2132,"Is":2133,"comp":2134,"thought":2135,"still":2136,"those":2137,"cess":2138,"things":2139,"son":2140,"night":2141,"three":2142,"cer":2143,"away":2144,"called":2145,"found":2146,"ff":2147,"tim":2148,"clo":2149,"start":2150,"De":2151,"col":2152,"18":2153,"Br":2154,"cre":2155,"ways":2156,"ince":2157,"last":2158,"light":2159,"give":2160,"vis":2161,"yeah":2162,"love":2163,"sm":2164,"llow":2165,"ward":2166,"ton":2167,"must":2168,"ten":2169,"show":2170,"oney":2171,"Now":2172,"Ar":2173,"ship":2174,"doing":2175,"being":2176,"Why":2177,"find":2178,"als":2179,"home":2180,"fr":2181,"cond":2182,"fri":2183,"less":2184,"ange":2185,"name":2186,"ear":2187,"gen":2188,"ult":2189,"lot":2190,"sy":2191,"pri":2192,"help":2193,"\".":2194,"bit":2195,"place":2196,"Don":2197,"che":2198,"ced":2199,"bro":2200,"such":2201,"gan":2202,"sure":2203,"When":2204,"fam":2205,"Se":2206,"ings":2207,"irl":2208,"friend":2209,"care":2210,"why":2211,"reg":2212,"Fr":2213,"ened":2214,"uck":2215,"set":2216,"pol":2217,"meric":2218,"ident":2219,"Americ":2220,"kind":2221,"gi":2222,"nor":2223,"On":2224,"ress":2225,"kill":2226,"par":2227,"la":2228,"same":2229,"comm":2230,"As":2231,"pers":2232,"unt":2233,"differ":2234,"Le":2235,"ug":2236,"point":2237,"big":2238,"sch":2239,"sur":2240,"pu":2241,"ash":2242,"ait":2243,"bab":2244,"At":2245,"num":2246,"vie":2247,"Let":2248,"IN":2249,"cur":2250,"air":2251,"ased":2252,"times":2253,"world":2254,"vent":2255,"child":2256,"ning":2257,"house":2258,"My":2259,"might":2260,"je":2261,"Come":2262,"ial":2263,"ele":2264,"feel":2265,"jo":2266,"atter":2267,"ks":2268,"turn":2269,"sing":2270,"member":2271,"ower":2272,"val":2273,"outh":2274,"word":2275,"For":2276,"xt":2277,"ational":2278,"ub":2279,"year":2280,"ame":2281,"led":2282,"around":2283,"cted":2284,"ating":2285,"ese":2286,"ctor":2287,"ason":2288,"ready":2289,"main":2290,"high":2291,").":2292,"ered":2293,"mp":2294,"another":2295,"bre":2296,"uring":2297,"Okay":2298,"\",":2299,"log":2300,"gl":2301,"talk":2302,"cy":2303,"known":2304,"always":2305,"erm":2306,"ins":2307,"cons":2308,"run":2309,"Hey":2310,"TH":2311,"four":2312,"),":2313,"girl":2314,"Thank":2315,"war":2316,"ith":2317,"ner":2318,"real":2319,"Then":2320,"ween":2321,"Sh":2322,"room":2323,"Mo":2324,"vi":2325,"keep":2326,"ball":2327,"left":2328,"better":2329,"while":2330,"money":2331,"ics":2332,"belie":2333,"United":2334,"anything":2335,"New":2336,"person":2337,"cha":2338,"cord":2339,"ular":2340,"To":2341,"though":2342,"ute":2343,"io":2344,"ness":2345,"ors":2346,"199":2347,"God":2348,"lar":2349,"orry":2350,"mus":2351,"told":2352,"tri":2353,"Ju":2354,"different":2355,"born":2356,"city":2357,"done":2358,"water":2359,"between":2360,"book":2361,"incl":2362,"cap":2363,"rest":2364,"ale":2365,"ER":2366,"ared":2367,"Can":2368,"May":2369,"tern":2370,"ste":2371,"bus":2372,"loo":2373,"second":2374,"ris":2375,"ird":2376,",\"":2377,"ents":2378,"cial":2379,"His":2380,"eng":2381,"school":2382,"os":2383,"mb":2384,"sub":2385,"wn":2386,"far":2387,"took":2388,"row":2389,"ual":2390,"full":2391,"sha":2392,"ished":2393,"Con":2394,"add":2395,"ail":2396,"Just":2397,"ef":2398,"Who":2399,"Eng":2400,"ters":2401,"char":2402,"pass":2403,"produ":2404,"wee":2405,"Where":2406,"States":2407,"course":2408,"Joh":2409,"father":2410,"az":2411,"AN":2412,"lt":2413,"bed":2414,"vol":2415,"tory":2416,"gg":2417,"ames":2418,"10":2419,"Ind":2420,"ities":2421,"follow":2422,"fect":2423,"list":2424,"both":2425,"ative":2426,"next":2427,"Some":2428,"saw":2429,"Com":2430,"rel":2431,"top":2432,"nothing":2433,"each":2434,"mother":2435,"Are":2436,"coming":2437,"cal":2438,"mor":2439,"American":2440,"John":2441,"face":2442,"until":2443,"number":2444,"ross":2445,"mind":2446,"sl":2447,"best":2448,"cept":2449,"Not":2450,"Go":2451,"sol":2452,"vo":2453,"plan":2454,"quest":2455,"later":2456,"ark":2457,"small":2458,"ped":2459,"actually":2460,"dec":2461,"died":2462,"fun":2463,"gether":2464,"hard":2465,"akes":2466,"gin":2467,"Bo":2468,"pop":2469,"Nor":2470,"hal":2471,"line":2472,"eral":2473,"doesn":2474,"aren":2475,"Good":2476,"appe":2477,"ted":2478,"ivers":2479,"uary":2480,"miss":2481,"once":2482,"aught":2483,"together":2484,"One":2485,"leg":2486,"stu":2487,"hu":2488,"state":2489,"town":2490,"ures":2491,"198":2492,"wait":2493,"wanted":2494,"ush":2495,"wal":2496,"ny":2497,"ject":2498,"else":2499,"family":2500,"sho":2501,"against":2502,"cri":2503,"ung":2504,"present":2505,"vid":2506,"pret":2507,"seen":2508,"15":2509,"ned":2510,"band":2511,"ister":2512,"cut":2513,"ments":2514,"live":2515,"Look":2516,"enough":2517,"proble":2518,"open":2519,"looking":2520,"dri":2521,"boy":2522,"became":2523,"hold":2524,"blic":2525,"Or":2526,"fi":2527,"ons":2528,"few":2529,"five":2530,"sim":2531,"says":2532,"everything":2533,"arch":2534,"round":2535,"without":2536,"young":2537,"den":2538,"bad":2539,"17":2540,"serv":2541,"ze":2542,"quite":2543,"ific":2544,"stay":2545,"lad":2546,"Er":2547,"import":2548,"sign":2549,"move":2550,"pect":2551,"six":2552,"Af":2553,"197":2554,"since":2555,"igh":2556,"sorry":2557,"hear":2558,"iness":2559,"Car":2560,"understand":2561,"ls":2562,"sit":2563,"meet":2564,"press":2565,"llo":2566,"ger":2567,"Ger":2568,"eas":2569,"fact":2570,"mm":2571,"ago":2572,"ather":2573,"wer":2574,"Pro":2575,"Right":2576,"days":2577,"ones":2578,"cover":2579,"gre":2580,"wan":2581,"dire":2582,"nam":2583,"Coun":2584,"Did":2585,"near":2586,"kid":2587,"orning":2588,"during":2589,"believe":2590,"law":2591,"Ma":2592,"remember":2593,"leave":2594,"getting":2595,"team":2596,"children":2597,"music":2598,"stem":2599,"sk":2600,"vil":2601,"ants":2602,"happened":2603,"ream":2604,"trans":2605,"Gr":2606,"isn":2607,"ley":2608,"build":2609,"today":2610,"ury":2611,"tre":2612,"whole":2613,"ling":2614,"woman":2615,"King":2616,"aut":2617,"power":2618,"Uh":2619,"please":2620,"ike":2621,"interest":2622,"asked":2623,"half":2624,"sir":2625,"cus":2626,"sle":2627,"aster":2628,"ai":2629,"heard":2630,"includ":2631,"nice":2632,"bar":2633,"rele":2634,"mil":2635,"velo":2636,"ING":2637,"ital":2638,"order":2639,"ond":2640,"eyes":2641,"eat":2642,"ont":2643,"himself":2644,"possi":2645,"job":2646,"huh":2647,"ked":2648,"country":2649,"fil":2650,"ism":2651,"having":2652,"grou":2653,"lead":2654,"change":2655,"oc":2656,"ina":2657,"sort":2658,"Pr":2659,"heart":2660,"case":2661,"view":2662,"ane":2663,"ature":2664,"ON":2665,"Tr":2666,"shall":2667,"12":2668,"hour":2669,"ised":2670,"yet":2671,"OU":2672,"stop":2673,"upon":2674,"ists":2675,"gave":2676,"morning":2677,"watch":2678,"ield":2679,"ither":2680,"Ex":2681,"Get":2682,"door":2683,"pain":2684,"death":2685,"Your":2686,"000":2687,"peri":2688,"After":2689,"matter":2690,"important":2691,"vision":2692,"Me":2693,"ene":2694,"itch":2695,"pay":2696,"ier":2697,"dead":2698,"comes":2699,"dist":2700,"lish":2701,"ude":2702,"196":2703,"iversity":2704,"ines":2705,"game":2706,"already":2707,"Mm":2708,"ator":2709,"ution":2710,"16":2711,"ages":2712,"exam":2713,"knew":2714,"ense":2715,"Here":2716,"song":2717,"hy":2718,"certain":2719,"lay":2720,"?\"":2721,"ral":2722,"win":2723,"foot":2724,"wrong":2725,"wind":2726,"system":2727,"II":2728,"aughter":2729,"soon":2730,"saying":2731,"cor":2732,"gover":2733,"mill":2734,"qui":2735,"stud":2736,"allow":2737,"gt":2738,"means":2739,"fac":2740,"app":2741,"met":2742,"que":2743,"guy":2744,"Ho":2745,"talking":2746,".”":2747,"offic":2748,"began":2749,"urch":2750,"month":2751,"lear":2752,"ring":2753,"AR":2754,"fall":2755,"posed":2756,"hur":2757,"ically":2758,"often":2759,"Ge":2760,"ety":2761,"return":2762,"fight":2763,"ork":2764,"ati":2765,"record":2766,"ran":2767,"started":2768,"along":2769,"bring":2770,"trying":2771,"pped":2772,"chang":2773,"eter":2774,"contin":2775,"comple":2776,"sent":2777,"ries":2778,"Man":2779,"low":2780,"gone":2781,"ied":2782,"Ah":2783,"Te":2784,"wife":2785,"Ab":2786,"Will":2787,"ural":2788,"tem":2789,"week":2790,"brother":2791,"cho":2792,"idea":2793,"wards":2794,"swe":2795,"ized":2796,"polit":2797,"prom":2798,"class":2799,"bably":2800,"road":2801,"inking":2802,"fort":2803,"played":2804,"reason":2805,"nment":2806,"cot":2807,"ended":2808,"30":2809,"Ad":2810,"suc":2811,"AT":2812,"ster":2813,"dad":2814,"wanna":2815,"late":2816,"hor":2817,"dra":2818,"ility":2819,"ets":2820,"ats":2821,"Because":2822,"Col":2823,"sound":2824,"Jo":2825,"happen":2826,"pie":2827,"ann":2828,"Bl":2829,"soci":2830,"story":2831,"uro":2832,"pretty":2833,"stru":2834,"gy":2835,"gram":2836,"14":2837,"making":2838,"uc":2839,"ional":2840,"clear":2841,"goes":2842,"plac":2843,"mark":2844,"ney":2845,"fine":2846,"human":2847,"oper":2848,"iter":2849,"develo":2850,"colle":2851,"women":2852,"Jan":2853,"ground":2854,"fic":2855,"var":2856,"plain":2857,"moment":2858,"key":2859,"train":2860,"vel":2861,"grap":2862,"aken":2863,"English":2864,"Fo":2865,"problem":2866,"Cha":2867,"dep":2868,"anim":2869,"Ple":2870,"area":2871,"Po":2872,"Brit":2873,"someone":2874,"Fe":2875,"dro":2876,"lost":2877,"ino":2878,"prof":2879,"Every":2880,"organ":2881,"sleep":2882,"large":2883,"Her":2884,"orig":2885,"Jap":2886,"whe":2887,"194":2888,"Wor":2889,"business":2890,"wasn":2891,"partic":2892,"aper":2893,"Dr":2894,"fre":2895,"contro":2896,"ices":2897,"working":2898,"probably":2899,"ards":2900,"looked":2901,"inv":2902,"short":2903,"Japan":2904,"vide":2905,"commun":2906,"test":2907,"hm":2908,"War":2909,"OR":2910,"beaut":2911,"true":2912,"pose":2913,"blood":2914,"yourself":2915,"hon":2916,"bum":2917,"ok":2918,"Har":2919,"ately":2920,"har":2921,"guys":2922,"free":2923,"!\"":2924,"13":2925,"given":2926,"Pres":2927,"fire":2928,"195":2929,"hope":2930,"break":2931,"THE":2932,"Pe":2933,"ili":2934,"maybe":2935,"angu":2936,"become":2937,"almost":2938,"origin":2939,"Please":2940,"beh":2941,"baby":2942,"equ":2943,"rew":2944,"field":2945,"ama":2946,"exp":2947,"Cal":2948,"ulation":2949,"France":2950,"ison":2951,"These":2952,"happy":2953,"With":2954,"possible":2955,"ilt":2956,"tru":2957,"South":2958,"ery":2959,"cas":2960,"University":2961,"wouldn":2962,"rent":2963,"lock":2964,"Mrs":2965,"pen":2966,"stit":2967,"US":2968,"deal":2969,"pa":2970,"aged":2971,"kes":2972,"pur":2973,"rece":2974,"movie":2975,"emp":2976,"hands":2977,"haven":2978,"gent":2979,"words":2980,"ix":2981,"reach":2982,"close":2983,"public":2984,"mom":2985,"early":2986,"resp":2987,"Lo":2988,"wonder":2989,"jor":2990,"ides":2991,"augh":2992,"friends":2993,"using":2994,"released":2995,"group":2996,"22":2997,"dog":2998,"question":2999,"cra":3000,"wood":3001,"York":3002,"ined":3003,"killed":3004,"Cl":3005,"ru":3006,"ouble":3007,"black":3008,"ances":3009,"lly":3010,"January":3011,"ouch":3012,"event":3013,"company":3014,"bur":3015,"taken":3016,"istr":3017,"myself":3018,"hot":3019,"ony":3020,"brought":3021,"daughter":3022,"consid":3023,"wish":3024,"least":3025,"stuff":3026,"ES":3027,"fair":3028,"station":3029,"sever":3030,"Par":3031,"food":3032,"die":3033,"logy":3034,"lim":3035,"unch":3036,"loc":3037,"white":3038,"appro":3039,"van":3040,"lig":3041,"front":3042,"government":3043,"fast":3044,"langu":3045,"mid":3046,"gar":3047,"aking":3048,"bas":3049,"fully":3050,"cast":3051,"season":3052,"search":3053,"County":3054,"million":3055,"tom":3056,"Euro":3057,"iful":3058,"cu":3059,"mal":3060,"behind":3061,"selves":3062,"squ":3063,"lled":3064,"Gu":3065,"Char":3066,"taking":3067,"haps":3068,"guess":3069,"Je":3070,"acti":3071,"Aust":3072,"pick":3073,"ete":3074,"example":3075,"married":3076,"grow":3077,"ik":3078,"ham":3079,"Sch":3080,"rench":3081,"national":3082,"Hello":3083,"eight":3084,"Bar":3085,"alone":3086,"Ser":3087,"gun":3088,"strong":3089,"formation":3090,"thank":3091,"rather":3092,"Miss":3093,"alth":3094,"phone":3095,"stead":3096,"EN":3097,"Sp":3098,"success":3099,"Of":3100,"cret":3101,"iver":3102,"sold":3103,"tra":3104,"vious":3105,"charac":3106,"several":3107,"Ste":3108,"fig":3109,"makes":3110,"turned":3111,"north":3112,"ica":3113,"wel":3114,"design":3115,"ib":3116,"lling":3117,"sed":3118,"reet":3119,"Mic":3120,"dam":3121,"either":3122,"March":3123,"gn":3124,"action":3125,"Scot":3126,"speak":3127,"cou":3128,"cking":3129,"iam":3130,"aring":3131,"buy":3132,"Have":3133,"ford":3134,"iting":3135,"World":3136,"sum":3137,"pict":3138,"undred":3139,"thor":3140,"party":3141,"step":3142,"series":3143,"ext":3144,"rid":3145,"ending":3146,"report":3147,",”":3148,"21":3149,"rock":3150,"program":3151,"25":3152,"attack":3153,"North":3154,"named":3155,"oud":3156,"ory":3157,"ality":3158,"Europe":3159,"held":3160,"living":3161,"rist":3162,"ken":3163,"British":3164,"mag":3165,"sat":3166,"quick":3167,"anger":3168,"Cap":3169,"Sep":3170,"Any":3171,"ming":3172,"thinking":3173,"itten":3174,"tele":3175,"ured":3176,"sometimes":3177,"dream":3178,"ler":3179,"utes":3180,"Per":3181,"cient":3182,"11":3183,"others":3184,"remain":3185,"ged":3186,"atic":3187,"Geor":3188,"position":3189,"Ke":3190,"ches":3191,"support":3192,"Chris":3193,"aim":3194,"mand":3195,"fle":3196,"ump":3197,"gener":3198,"listen":3199,"moved":3200,"hundred":3201,"net":3202,"looks":3203,"drink":3204,"AL":3205,"ize":3206,"couldn":3207,"third":3208,"built":3209,"German":3210,"Fl":3211,"bot":3212,"album":3213,"past":3214,"minute":3215,"ply":3216,"vill":3217,"por":3218,"sou":3219,"spo":3220,"ague":3221,"usually":3222,"shot":3223,"ief":3224,"history":3225,"seven":3226,"tember":3227,"Jack":3228,"begin":3229,"Dan":3230,"sw":3231,"President":3232,"actly":3233,"CH":3234,"Pl":3235,"within":3236,"Sha":3237,"poor":3238,"Min":3239,"issu":3240,"ues":3241,"works":3242,"Mon":3243,"IS":3244,"July":3245,"based":3246,"zy":3247,"beautiful":3248,"cir":3249,"bor":3250,"rad":3251,"itting":3252,"By":3253,"vir":3254,"September":3255,"mess":3256,"box":3257,"Qu":3258,"ax":3259,"gest":3260,"wenty":3261,"ron":3262,"god":3263,"French":3264,"board":3265,"south":3266,"Tom":3267,"gold":3268,"RE":3269,"wants":3270,"prote":3271,"gets":3272,"ows":3273,"sun":3274,"sil":3275,"playing":3276,"Oc":3277,"including":3278,"bird":3279,"tle":3280,"police":3281,"24":3282,"fish":3283,"building":3284,"dom":3285,"special":3286,"thern":3287,"cies":3288,"cost":3289,"Aug":3290,"film":3291,"inside":3292,"50":3293,"OK":3294,"hit":3295,"sea":3296,"mbers":3297,"Lon":3298,"ived":3299,"Ac":3300,"mur":3301,"dear":3302,"mis":3303,"ering":3304,"tit":3305,"dle":3306,"across":3307,"formed":3308,"single":3309,"sex":3310,"check":3311,"June":3312,"abo":3313,"laugh":3314,"estern":3315,"leav":3316,"fur":3317,"flo":3318,"sal":3319,"hair":3320,"former":3321,"ences":3322,"Maybe":3323,"National":3324,"bri":3325,"months":3326,"answer":3327,"London":3328,"local":3329,"hus":3330,"outside":3331,"minutes":3332,"tood":3333,"tw":3334,"ided":3335,"August":3336,"del":3337,"bert":3338,"ctr":3339,"incre":3340,"Like":3341,"ana":3342,"mit":3343,"star":3344,"written":3345,"ote":3346,"gotta":3347,"century":3348,"ctions":3349,"fell":3350,"lived":3351,"tors":3352,"walk":3353,"among":3354,"See":3355,"concer":3356,"effect":3357,"Hi":3358,"joy":3359,"morrow":3360,"West":3361,"dark":3362,"ousand":3363,"Ed":3364,"idge":3365,"depart":3366,"arr":3367,"Sir":3368,"touch":3369,"pril":3370,"April":3371,"ians":3372,"arm":3373,"match":3374,"profess":3375,"iled":3376,"raid":3377,"tried":3378,"Em":3379,"common":3380,"Take":3381,"Rep":3382,"Cent":3383,"cell":3384,"felt":3385,"office":3386,"England":3387,"till":3388,"Dad":3389,"cop":3390,"tract":3391,"major":3392,"west":3393,"cry":3394,"tober":3395,"However":3396,"population":3397,"En":3398,"LA":3399,"process":3400,"irth":3401,"ends":3402,"rain":3403,"Ital":3404,"following":3405,"October":3406,"ime":3407,"flu":3408,"Wal":3409,"YOU":3410,"lying":3411,"Dav":3412,"covered":3413,"terri":3414,"hell":3415,"||":3416,"Dece":3417,"ountain":3418,"spir":3419,"cup":3420,"roy":3421,"husband":3422,"lands":3423,"complete":3424,"voice":3425,"Sy":3426,"attle":3427,"language":3428,"teen":3429,"fav":3430,"inst":3431,"anyone":3432,"December":3433,"From":3434,"La":3435,"thousand":3436,"Nove":3437,"Gen":3438,"Bu":3439,"worry":3440,"0s":3441,"doctor":3442,"rote":3443,"camp":3444,"cross":3445,"paren":3446,"table":3447,"cold":3448,"November":3449,"vin":3450,"boys":3451,"mine":3452,"experi":3453,"tries":3454,"changed":3455,"Am":3456,"Roman":3457,"Thanks":3458,"cum":3459,"write":3460,"particular":3461,"ding":3462,"proper":3463,"worked":3464,"da":3465,"trad":3466,"members":3467,"City":3468,"draw":3469,"fif":3470,"ulti":3471,"pract":3472,"ples":3473,"clean":3474,"IT":3475,"ric":3476,"dest":3477,"enn":3478,"lives":3479,"Cor":3480,"wrote":3481,"whether":3482,"grand":3483,"conf":3484,"pal":3485,"cannot":3486,"develop":3487,"Pri":3488,"Christ":3489,"chance":3490,"hours":3491,"Pa":3492,"193":3493,"Ear":3494,"Lu":3495,"bruary":3496,"2013":3497,"stra":3498,"February":3499,"23":3500,"Wait":3501,"paper":3502,"everyone":3503,"served":3504,"invol":3505,"worth":3506,"mun":3507,"service":3508,"ior":3509,"diffic":3510,"dress":3511,"count":3512,"America":3513,"easy":3514,"seems":3515,"mune":3516,"information":3517,"tomorrow":3518,"cli":3519,"itions":3520,"....":3521,"Su":3522,"ium":3523,"unk":3524,"post":3525,"news":3526,"couple":3527,"wall":3528,"fill":3529,"plic":3530,"sense":3531,"however":3532,"LE":3533,"feet":3534,"sweet":3535,"knows":3536,"Ber":3537,"tro":3538,"Indian":3539,"James":3540,"twenty":3541,"bes":3542,"iv":3543,"anc":3544,"current":3545,"ges":3546,"Mc":3547,"reco":3548,"mad":3549,"super":3550,"bal":3551,"Ill":3552,"2010":3553,"birth":3554,"bers":3555,"gain":3556,"nat":3557,"Ph":3558,"ount":3559,"fuck":3560,"def":3561,"piece":3562,"mpion":3563,"irst":3564,"exactly":3565,"tech":3566,"lady":3567,"aven":3568,"ula":3569,"pho":3570,"type":3571,"arri":3572,"control":3573,"zer":3574,"longer":3575,"ently":3576,"exc":3577,"general":3578,"George":3579,"alright":3580,"claim":3581,"din":3582,"relig":3583,"lies":3584,"adv":3585,"commune":3586,"letter":3587,"supposed":3588,"priv":3589,"dies":3590,"mach":3591,"ounds":3592,"court":3593,"character":3594,"conne":3595,"cos":3596,"burn":3597,"ata":3598,"themselves":3599,"ots":3600,"kept":3601,"Great":3602,"tree":3603,"asure":3604,"tian":3605,"grad":3606,"perhaps":3607,"period":3608,"truth":3609,"ublic":3610,"reen":3611,"author":3612,"space":3613,"AS":3614,"thes":3615,"Peter":3616,"Sup":3617,"ban":3618,"shit":3619,"running":3620,"graph":3621,"irty":3622,"bye":3623,"100":3624,"det":3625,"hael":3626,"trave":3627,"popular":3628,"mission":3629,"wed":3630,"ified":3631,"afraid":3632,"region":3633,"Afr":3634,"career":3635,"appear":3636,"ore":3637,"defin":3638,"Ca":3639,"Part":3640,"cially":3641,"sister":3642,"educ":3643,"quar":3644,"descri":3645,"IC":3646,"non":3647,"sn":3648,"force":3649,"cried":3650,"refer":3651,"level":3652,"bs":3653,"ida":3654,"cil":3655,"hurt":3656,"acher":3657,"anti":3658,"eye":3659,"comput":3660,"lied":3661,"vince":3662,"luck":3663,"ya":3664,"accept":3665,"kids":3666,"loy":3667,"jud":3668,"Rus":3669,"Tell":3670,"cording":3671,"learn":3672,"secret":3673,"church":3674,"trouble":3675,"cience":3676,"Vir":3677,"tour":3678,"uses":3679,"received":3680,"needs":3681,"ency":3682,"shop":3683,"Sorry":3684,"publ":3685,"video":3686,"football":3687,"tee":3688,"seemed":3689,"28":3690,"ament":3691,"uation":3692,"television":3693,"avy":3694,"murder":3695,"mist":3696,"acc":3697,"picture":3698,"club":3699,"Rich":3700,"mic":3701,"send":3702,"rian":3703,"ky":3704,"ilo":3705,"mouth":3706,"appeared":3707,"entire":3708,"above":3709,"Hen":3710,"Lord":3711,"except":3712,"tonight":3713,"hang":3714,"rich":3715,"Atl":3716,"include":3717,"shoot":3718,"respon":3719,"26":3720,"sof":3721,"perfect":3722,"Even":3723,"ilar":3724,"whatever":3725,"People":3726,"Pol":3727,"serious":3728,"ener":3729,"respect":3730,"answ":3731,"Stop":3732,"creat":3733,"instead":3734,"TO":3735,"track":3736,"horse":3737,"green":3738,"agree":3739,"za":3740,"player":3741,"fut":3742,"village":3743,"27":3744,"mir":3745,"dden":3746,"ught":3747,"trust":3748,"created":3749,"ention":3750,"waiting":3751,"due":3752,"gas":3753,"represent":3754,"GH":3755,"Captain":3756,"inde":3757,"ada":3758,"prison":3759,"Two":3760,"rul":3761,"itself":3762,"William":3763,"mes":3764,"blue":3765,"famous":3766,"books":3767,"tar":3768,"depend":3769,"ka":3770,"stri":3771,"State":3772,"ships":3773,"pot":3774,"somebody":3775,"29":3776,"nine":3777,"une":3778,"TV":3779,"High":3780,"bi":3781,"cts":3782,"fucking":3783,"bow":3784,"bill":3785,"chan":3786,"chair":3787,"department":3788,"House":3789,"Que":3790,"countries":3791,"compet":3792,"Erm":3793,"rep":3794,"ribut":3795,"sugg":3796,"solute":3797,"crit":3798,"suggest":3799,"comb":3800,"ED":3801,"acy":3802,"Frank":3803,"role":3804,"explain":3805,"sudden":3806,"everybody":3807,"Austral":3808,"ror":3809,"tic":3810,"push":3811,"host":3812,"RO":3813,"bon":3814,"dou":3815,"rap":3816,"Sal":3817,"lls":3818,"San":3819,"pati":3820,"recogn":3821,"Bro":3822,"Mary":3823,"spital":3824,"Act":3825,"Spe":3826,"ba":3827,"treat":3828,"ffic":3829,"study":3830,"pes":3831,"era":3832,"bag":3833,"Jim":3834,"rail":3835,"takes":3836,"Virgin":3837,"cat":3838,"Give":3839,"itive":3840,"aint":3841,"passed":3842,"catch":3843,"exist":3844,"girls":3845,"Ben":3846,"Distr":3847,"cture":3848,"prin":3849,"surpr":3850,"capital":3851,"Michael":3852,"contain":3853,"safe":3854,"Cour":3855,"health":3856,"straight":3857,"tired":3858,"telling":3859,"tempt":3860,"memor":3861,"bear":3862,"president":3863,"stood":3864,"deep":3865,"feeling":3866,"decided":3867,"hol":3868,"01":3869,"weeks":3870,"District":3871,"fix":3872,"wide":3873,"seem":3874,"electr":3875,"imag":3876,"inc":3877,"moder":3878,"slow":3879,"term":3880,"First":3881,"jour":3882,"yr":3883,"AM":3884,"sus":3885,"engine":3886,"Mus":3887,"carry":3888,"ination":3889,"teach":3890,"David":3891,"evening":3892,"giving":3893,"moving":3894,"funny":3895,"parents":3896,"EL":3897,"social":3898,"Japanese":3899,"2011":3900,"famili":3901,"expect":3902,"gentle":3903,"bt":3904,"future":3905,"40":3906,"List":3907,"opened":3908,"continu":3909,"East":3910,"ga":3911,"necess":3912,"original":3913,"ben":3914,"fro":3915,"games":3916,"forget":3917,"placed":3918,"relation":3919,"wise":3920,"agon":3921,"illy":3922,"distr":3923,"earth":3924,"further":3925,"nia":3926,"pet":3927,"lose":3928,"owers":3929,"airs":3930,"lin":3931,"ses":3932,"meant":3933,"ife":3934,"problems":3935,"figure":3936,"milit":3937,"School":3938,"sequ":3939,"throw":3940,"ially":3941,"nal":3942,"beat":3943,"cool":3944,"riage":3945,"appoint":3946,"India":3947,"honey":3948,"2006":3949,"glass":3950,"meeting":3951,"returned":3952,"ahead":3953,"spec":3954,"ays":3955,"Ken":3956,"herself":3957,"Nothing":3958,"2012":3959,"medi":3960,"ashing":3961,"Lou":3962,"standing":3963,"photo":3964,"thy":3965,"county":3966,"followed":3967,"mommy":3968,"pan":3969,"Sar":3970,"corn":3971,"male":3972,"command":3973,"whose":3974,"anyway":3975,"viol":3976,"species":3977,"cult":3978,"yle":3979,"Fin":3980,"Germany":3981,"ceed":3982,"wear":3983,"ization":3984,"parts":3985,"During":3986,"mi":3987,"hey":3988,"drive":3989,"ville":3990,"Park":3991,"fed":3992,"ni":3993,"ctive":3994,"stat":3995,"invest":3996,"zz":3997,"thou":3998,"forest":3999,"bey":4000,"ager":4001,"teacher":4002,"stick":4003,"floor":4004,"Med":4005,"mass":4006,"bel":4007,"project":4008,"AP":4009,"Republic":4010,"fing":4011,"estab":4012,"Really":4013,"inois":4014,"viously":4015,"sen":4016,"TER":4017,"animals":4018,"danger":4019,"allowed":4020,"street":4021,"Mal":4022,"bank":4023,"save":4024,"paid":4025,"activ":4026,"econ":4027,"island":4028,"audi":4029,"result":4030,"whom":4031,"nel":4032,"natural":4033,"Hel":4034,"finished":4035,"boo":4036,"happens":4037,"Sm":4038,"similar":4039,"places":4040,"hop":4041,"decis":4042,"subject":4043,"crazy":4044,"mas":4045,"actor":4046,"market":4047,"General":4048,"doll":4049,"AND":4050,"bly":4051,"phys":4052,"western":4053,"Sam":4054,"sick":4055,"yer":4056,"Intern":4057,"certainly":4058,"beginning":4059,"separ":4060,"Ale":4061,"final":4062,"Illinois":4063,"mater":4064,"wit":4065,"dev":4066,"pack":4067,"ician":4068,"vari":4069,"mountain":4070,"Virginia":4071,"Che":4072,"Vi":4073,"ising":4074,"ican":4075,"Most":4076,"ffer":4077,"kiss":4078,"sitting":4079,"Henry":4080,"interesting":4081,"Sure":4082,"river":4083,"ensive":4084,"ST":4085,"enter":4086,"forward":4087,"liver":4088,"compan":4089,"ils":4090,"bul":4091,"enjoy":4092,"ient":4093,"middle":4094,"hung":4095,"fee":4096,"ordin":4097,"quickly":4098,"towards":4099,"boat":4100,"cks":4101,"nin":4102,"mention":4103,"pping":4104,"ena":4105,"load":4106,"answered":4107,"announ":4108,"Was":4109,"multi":4110,"tin":4111,"itted":4112,"Flor":4113,"Gover":4114,"Mom":4115,"shut":4116,"Paul":4117,"Bal":4118,"date":4119,"va":4120,"direct":4121,"Li":4122,"total":4123,"ria":4124,"fly":4125,"icy":4126,"glad":4127,"difficult":4128,"amount":4129,"ible":4130,"plant":4131,"intro":4132,"Cali":4133,"leaving":4134,"Ha":4135,"Which":4136,"fellow":4137,"questions":4138,"gri":4139,"hood":4140,"Jes":4141,"political":4142,"daddy":4143,"Church":4144,"master":4145,"Bel":4146,"hed":4147,"ju":4148,"influ":4149,"stage":4150,"version":4151,"modern":4152,"quiet":4153,"bell":4154,"belong":4155,"Mad":4156,"NO":4157,"loved":4158,"object":4159,"(\"":4160,"Bet":4161,"Our":4162,"sess":4163,"oose":4164,"ert":4165,"ques":4166,"vided":4167,"located":4168,"experience":4169,"espe":4170,"Califor":4171,"consider":4172,"Many":4173,"bra":4174,"ato":4175,"indust":4176,"suppose":4177,"reached":4178,"tax":4179,"Di":4180,"ging":4181,"students":4182,"sco":4183,"River":4184,"rup":4185,"neigh":4186,"forms":4187,"Would":4188,"ico":4189,"Only":4190,"community":4191,".,":4192,"terms":4193,"stor":4194,"Black":4195,"Cong":4196,"cape":4197,"California":4198,"lam":4199,"cand":4200,"wild":4201,"ady":4202,"abad":4203,"ify":4204,"published":4205,"ability":4206,"Mu":4207,"sian":4208,"stone":4209,"introdu":4210,"Sen":4211,"ping":4212,"bridge":4213,"various":4214,"especially":4215,"wa":4216,"nature":4217,"chief":4218,"itional":4219,"apo":4220,"numbers":4221,"hospital":4222,"ID":4223,"Val":4224,"egg":4225,"spl":4226,"anch":4227,"El":4228,"Red":4229,"express":4230,"2014":4231,"writing":4232,"volution":4233,"Hu":4234,"Other":4235,"ded":4236,"tie":4237,"discus":4238,"Christian":4239,"cro":4240,"window":4241,"Sim":4242,"ults":4243,"size":4244,"broad":4245,"miles":4246,"UN":4247,"sell":4248,"rate":4249,"uni":4250,"clothes":4251,"Grand":4252,"gle":4253,"ref":4254,"logical":4255,"pected":4256,"iling":4257,"equal":4258,"base":4259,"cious":4260,"seat":4261,"League":4262,"caught":4263,"ensus":4264,"fear":4265,"anymore":4266,"vict":4267,"imp":4268,"2007":4269,"color":4270,"strange":4271,"occur":4272,"OF":4273,"suffer":4274,"involved":4275,"Very":4276,"ns":4277,"Bur":4278,"peace":4279,"shows":4280,"stitution":4281,"indi":4282,"solutely":4283,"Gree":4284,"ME":4285,"bour":4286,"swi":4287,"feat":4288,"BC":4289,"Bob":4290,"block":4291,"mot":4292,"arms":4293,"iment":4294,"cam":4295,"title":4296,"Tur":4297,"simple":4298,"gives":4299,"finish":4300,"leng":4301,"fit":4302,"forgot":4303,"somewhere":4304,"Queen":4305,"join":4306,"Since":4307,"Du":4308,"ode":4309,"needed":4310,"Colle":4311,"favor":4312,"Florida":4313,"Pal":4314,"Listen":4315,"Mac":4316,"fund":4317,"destroy":4318,"Rob":4319,"prove":4320,"2016":4321,"value":4322,"?”":4323,"Mart":4324,"ender":4325,"produced":4326,"Scott":4327,"hat":4328,"alive":4329,"ston":4330,"finally":4331,"energy":4332,"\")":4333,"constru":4334,"yours":4335,"dinner":4336,"hum":4337,"path":4338,"recent":4339,"aver":4340,"dance":4341,"weight":4342,"abor":4343,"antic":4344,"Mer":4345,"sour":4346,"Union":4347,"cing":4348,"note":4349,"anybody":4350,"bles":4351,"suit":4352,"added":4353,"private":4354,"stant":4355,"ties":4356,"responsi":4357,"ki":4358,"nder":4359,"apart":4360,"professional":4361,"Party":4362,"uel":4363,"ption":4364,"Does":4365,"liter":4366,"upid":4367,"iel":4368,"gress":4369,"considered":4370,"drug":4371,"situation":4372,"Mor":4373,"research":4374,"Port":4375,"spent":4376,"leader":4377,"seeing":4378,"ference":4379,"speaking":4380,"Air":4381,"Cr":4382,"ably":4383,"grew":4384,"plays":4385,"hid":4386,"coach":4387,"umb":4388,"hill":4389,"mhm":4390,"firm":4391,"thanks":4392,"plus":4393,"aker":4394,"fol":4395,"lip":4396,"viron":4397,"Alex":4398,"army":4399,"indeed":4400,"active":4401,"immedi":4402,"stopped":4403,"summer":4404,"Des":4405,"Got":4406,"raised":4407,"Robert":4408,"Cam":4409,"spirit":4410,"Gl":4411,"bought":4412,"dig":4413,"rout":4414,"avail":4415,"Dar":4416,"cul":4417,"broke":4418,"dry":4419,"hate":4420,"race":4421,"190":4422,"lines":4423,"2009":4424,"length":4425,"card":4426,"Richard":4427,"DO":4428,"gard":4429,"vidence":4430,"bud":4431,"Exc":4432,"rough":4433,"iday":4434,"names":4435,"blow":4436,"largest":4437,"ease":4438,"science":4439,"although":4440,"tea":4441,"noon":4442,"address":4443,"ids":4444,"development":4445,"vic":4446,"text":4447,"Its":4448,"Roy":4449,"AC":4450,"mocr":4451,"WH":4452,"speed":4453,"earli":4454,"Um":4455,"kno":4456,"attempt":4457,"2008":4458,"Thom":4459,"meaning":4460,"stairs":4461,"attention":4462,"broken":4463,"Ok":4464,"points":4465,"soft":4466,"east":4467,"psy":4468,"Oly":4469,"2015":4470,"Three":4471,"epis":4472,"brain":4473,"ension":4474,"Pre":4475,"eh":4476,"vert":4477,"White":4478,"square":4479,"military":4480,"2000":4481,"ously":4482,"print":4483,"joined":4484,"cook":4485,"dio":4486,"personal":4487,"computer":4488,"regular":4489,"Charles":4490,"fan":4491,"smo":4492,"erson":4493,"Ange":4494,"groups":4495,"decl":4496,"simply":4497,"doubt":4498,"sight":4499,"rey":4500,"opport":4501,"thus":4502,"closed":4503,"normal":4504,"issue":4505,"Excuse":4506,"BE":4507,"Res":4508,"asking":4509,"ument":4510,"page":4511,"illa":4512,"individ":4513,"Dick":4514,"battle":4515,"ji":4516,"knowled":4517,"pic":4518,"60":4519,"iers":4520,"rect":4521,"sport":4522,"carried":4523,"ura":4524,"CO":4525,"medic":4526,"college":4527,"AD":4528,"lic":4529,"apers":4530,"exper":4531,"captain":4532,"marriage":4533,"vironment":4534,"reed":4535,"district":4536,"bility":4537,"Alan":4538,"included":4539,"opportun":4540,"While":4541,"damn":4542,"Dep":4543,"hous":4544,"difference":4545,"phy":4546,"ites":4547,"officer":4548,"extra":4549,"warm":4550,"education":4551,"aste":4552,"completely":4553,"ae":4554,"nie":4555,"Father":4556,"dut":4557,"trade":4558,"ops":4559,"regard":4560,"Jer":4561,"uce":4562,"init":4563,"los":4564,"istic":4565,"Court":4566,"Dam":4567,"Washing":4568,"offee":4569,"mat":4570,"mix":4571,"charge":4572,"ker":4573,"vies":4574,"heavy":4575,"founded":4576,"writer":4577,"2005":4578,"watching":4579,"approach":4580,"cab":4581,"lower":4582,"rac":4583,"els":4584,"Washington":4585,"fool":4586,"clock":4587,"temper":4588,"cases":4589,"meth":4590,"shouldn":4591,"lli":4592,"coll":4593,"comfort":4594,"associ":4595,"coast":4596,"sym":4597,"yn":4598,"below":4599,"ators":4600,"neg":4601,"Jesus":4602,"Put":4603,"access":4604,"Street":4605,"Foot":4606,"animal":4607,"loss":4608,"itely":4609,"share":4610,"sme":4611,"continued":4612,"2022":4613,"trees":4614,"VE":4615,"ecut":4616,"site":4617,"Champion":4618,"ram":4619,"independ":4620,"Hill":4621,"sad":4622,"xim":4623,"states":4624,"rial":4625,"likely":4626,"Island":4627,"benef":4628,"gor":4629,"nearly":4630,"European":4631,"radio":4632,"Earth":4633,"Fer":4634,"scient":4635,"utter":4636,"Dis":4637,"sand":4638,"manage":4639,"yo":4640,"terday":4641,"mance":4642,"suddenly":4643,"Pan":4644,"reading":4645,"prep":4646,"uit":4647,"hero":4648,"Master":4649,"talked":4650,"honest":4651,"han":4652,"shar":4653,"quired":4654,"lebr":4655,"caused":4656,"Span":4657,"detail":4658,"onto":4659,"RI":4660,"fat":4661,"director":4662,"sky":4663,"families":4664,"aha":4665,"milk":4666,"birds":4667,"Mark":4668,"celebr":4669,"iced":4670,"areas":4671,"orders":4672,"scene":4673,"interested":4674,"Vic":4675,"stupid":4676,"aff":4677,"higher":4678,"Ra":4679,"asse":4680,"icip":4681,"roll":4682,"promise":4683,"happening":4684,"developed":4685,"Ham":4686,"arg":4687,"Sid":4688,"evidence":4689,"feed":4690,"Reg":4691,"International":4692,"irt":4693,"Cup":4694,"Gold":4695,"bath":4696,"Mex":4697,"pir":4698,"style":4699,"astic":4700,"pull":4701,"census":4702,"anal":4703,"Cath":4704,"ome":4705,"assist":4706,"legal":4707,"songs":4708,"lished":4709,"rat":4710,"snow":4711,"curity":4712,"About":4713,"necessary":4714,"Pat":4715,"bright":4716,"apped":4717,"China":4718,"pray":4719,"College":4720,"thro":4721,"More":4722,"pieces":4723,"Africa":4724,"Up":4725,"threat":4726,"asket":4727,"atives":4728,"fresh":4729,"available":4730,"protect":4731,"Mil":4732,"Never":4733,"eating":4734,"perfor":4735,"oil":4736,"weather":4737,"Australia":4738,"ises":4739,"esh":4740,"marry":4741,"announced":4742,"showed":4743,"bled":4744,"bound":4745,"coffee":4746,"nes":4747,"ift":4748,"rights":4749,"aves":4750,"lights":4751,"production":4752,"Ter":4753,"ched":4754,"icket":4755,"SE":4756,"né":4757,"asing":4758,"spot":4759,"econom":4760,"cket":4761,"tail":4762,"crew":4763,"huge":4764,"movies":4765,"burg":4766,"arrow":4767,"percent":4768,"movement":4769,"changes":4770,"sele":4771,"Str":4772,"vor":4773,"tho":4774,"wash":4775,"Wil":4776,"lf":4777,"Their":4778,"History":4779,"Could":4780,"store":4781,"center":4782,"Those":4783,"helped":4784,"itor":4785,"wonderful":4786,"Italian":4787,"Paris":4788,"nut":4789,"pig":4790,"opin":4791,"offer":4792,"spoke":4793,"iloso":4794,"Mike":4795,"rub":4796,"abs":4797,"visit":4798,"vot":4799,"bottom":4800,"GO":4801,"sens":4802,"data":4803,"pun":4804,"usion":4805,"cked":4806,"knowledge":4807,"Out":4808,"ials":4809,"189":4810,"weren":4811,"Maj":4812,"MAN":4813,"Sat":4814,"scared":4815,"Bill":4816,"Mag":4817,"inte":4818,"forced":4819,"stories":4820,"election":4821,"ration":4822,"faith":4823,"commit":4824,"ek":4825,"gro":4826,"nation":4827,"ride":4828,"sac":4829,"sounds":4830,"Hon":4831,"Iran":4832,"ov":4833,"demand":4834,"ours":4835,"bling":4836,"putting":4837,"award":4838,"Joe":4839,"society":4840,"Mid":4841,"Sa":4842,"calling":4843,"environment":4844,"Before":4845,"successful":4846,"lets":4847,"reng":4848,"aware":4849,"starting":4850,"accident":4851,"politician":4852,"Over":4853,"pat":4854,"neck":4855,"cean":4856,"minus":4857,"careful":4858,"specific":4859,"Big":4860,"PE":4861,"worse":4862,"2004":4863,"Im":4864,"ox":4865,"useum":4866,"walked":4867,"training":4868,"Award":4869,"arrest":4870,"forth":4871,"distance":4872,"learned":4873,"princi":4874,"Kar":4875,"kn":4876,"GE":4877,"graphy":4878,"Olymp":4879,"choice":4880,"decision":4881,"Ano":4882,"fourth":4883,"official":4884,"Central":4885,"birthday":4886,"nobody":4887,"Super":4888,"contract":4889,"letters":4890,"Chin":4891,"avo":4892,"Love":4893,"Girl":4894,"Law":4895,"thirty":4896,"lla":4897,"truck":4898,"ministr":4899,"create":4900,"gs":4901,"Cathol":4902,"een":4903,"chick":4904,"mostly":4905,"park":4906,"Sing":4907,"pair":4908,"tall":4909,"extre":4910,"yesterday":4911,"capt":4912,"31":4913,"cow":4914,"hall":4915,"35":4916,"Met":4917,"double":4918,"account":4919,"impress":4920,"docum":4921,"aign":4922,"lord":4923,"inn":4924,"review":4925,"angry":4926,"Hold":4927,"comed":4928,"2001":4929,"moon":4930,"Thomas":4931,"Mur":4932,"Tim":4933,"ech":4934,"none":4935,"2020":4936,"formula":4937,"crow":4938,"schools":4939,"Hur":4940,"believed":4941,"occas":4942,"Rad":4943,"uk":4944,"repe":4945,"Minister":4946,"ideas":4947,"iction":4948,"method":4949,"80":4950,"cities":4951,"plane":4952,"mum":4953,"ona":4954,"university":4955,"omen":4956,"theory":4957,"liked":4958,"ests":4959,"events":4960,"Another":4961,"Sou":4962,"gree":4963,"hun":4964,"ential":4965,"fail":4966,"Anne":4967,"Tor":4968,"glo":4969,"ancient":4970,"section":4971,"spend":4972,"emot":4973,"‎.":4974,"usual":4975,"Army":4976,"Everything":4977,"bloody":4978,"stars":4979,"icle":4980,"Stu":4981,"Once":4982,"busy":4983,"rule":4984,"Ap":4985,"Carol":4986,"Pyr":4987,"liament":4988,"skin":4989,"enemy":4990,"message":4991,"immediately":4992,"afternoon":4993,"Kore":4994,"itude":4995,"rose":4996,"Prin":4997,"drop":4998,"Italy":4999,"established":5000,"Day":5001,"streng":5002,"ables":5003,"iff":5004,"lovely":5005,"soul":5006,"Mat":5007,"SH":5008,"code":5009,"ilities":5010,"therefore":5011,"disease":5012,"serve":5013,"2018":5014,"farm":5015,"Province":5016,"Prof":5017,"vere":5018,"scri":5019,"Canada":5020,"Congress":5021,"guard":5022,"holding":5023,"fighting":5024,"condu":5025,"welve":5026,".'":5027,"70":5028,"zen":5029,"habit":5030,"Au":5031,"Sus":5032,"opt":5033,"purpose":5034,"Keep":5035,"Yo":5036,"tur":5037,"bomb":5038,"continue":5039,"fortun":5040,"ev":5041,"lots":5042,"arrived":5043,"LO":5044,"link":5045,"slight":5046,"sail":5047,"ashion":5048,"bio":5049,"ummer":5050,"fault":5051,"Doctor":5052,"Associ":5053,"discuss":5054,"Royal":5055,"earlier":5056,"dish":5057,"uten":5058,"weap":5059,"Bye":5060,"Ele":5061,"nur":5062,"ero":5063,"spring":5064,"Alright":5065,"Lee":5066,"Wow":5067,"bing":5068,"forces":5069,"welcome":5070,"feature":5071,"terrible":5072,"contact":5073,"45":5074,"Jud":5075,"asant":5076,"amaz":5077,"2017":5078,"Spanish":5079,"Green":5080,"pound":5081,"alo":5082,"itation":5083,"acqu":5084,"oseph":5085,"AK":5086,"weak":5087,"related":5088,"nology":5089,"satis":5090,"Louis":5091,"Kent":5092,"Under":5093,"aled":5094,"kin":5095,"ara":5096,"heat":5097,"186":5098,"ull":5099,"inct":5100,"settle":5101,"According":5102,"municip":5103,"()":5104,"jump":5105,"mate":5106,"directed":5107,"systems":5108,"WE":5109,"model":5110,"signific":5111,"Mother":5112,"Perhaps":5113,"appointed":5114,"kick":5115,"yellow":5116,"policy":5117,"deter":5118,"absolutely":5119,"Phi":5120,"emer":5121,"pical":5122,"sides":5123,"price":5124,"Ooh":5125,"shire":5126,"partner":5127,"Scotland":5128,"relationship":5129,"Bay":5130,"ival":5131,"éné":5132,"owned":5133,"flowers":5134,"histor":5135,"practice":5136,"TS":5137,"Tex":5138,"Ze":5139,"escape":5140,"shown":5141,"international":5142,"communic":5143,"investig":5144,"aries":5145,"sey":5146,"berg":5147,"signed":5148,"patient":5149,"acting":5150,"corner":5151,"Saint":5152,"elected":5153,"Boy":5154,"Lat":5155,"launch":5156,"leaves":5157,"campaign":5158,"Tony":5159,"ini":5160,"execut":5161,"Kingdom":5162,"machine":5163,"cred":5164,"thee":5165,"istan":5166,"atory":5167,"respond":5168,"minal":5169,"tells":5170,"walking":5171,"gradu":5172,"ali":5173,"Wel":5174,"screen":5175,"sett":5176,"antiques":5177,"extreme":5178,"Fre":5179,"Show":5180,"ari":5181,"esty":5182,"philoso":5183,"media":5184,"opening":5185,"correct":5186,"religious":5187,"leep":5188,"function":5189,"ja":5190,"unless":5191,"Del":5192,"Ver":5193,"dé":5194,"ners":5195,"Pyréné":5196,"Pyrénées":5197,"IL":5198,"nic":5199,"wound":5200,"ively":5201,"calls":5202,"Today":5203,"fied":5204,"craft":5205,"NE":5206,"pounds":5207,"missed":5208,"filled":5209,"beyond":5210,"Bra":5211,"edge":5212,"fant":5213,"plat":5214,"laid":5215,"Atlantiques":5216,"fashion":5217,"conscious":5218,"stitute":5219,"brief":5220,"constant":5221,"hole":5222,"kinds":5223,"services":5224,"twice":5225,"Old":5226,"aps":5227,"grown":5228,"legs":5229,"dogs":5230,"IF":5231,"winter":5232,"deser":5233,"release":5234,"Four":5235,"cars":5236,"discovered":5237,"growing":5238,"tu":5239,"scar":5240,"ano":5241,"ald":5242,"dropped":5243,"fifty":5244,"jack":5245,"female":5246,"hasn":5247,"singer":5248,"imagine":5249,"deliver":5250,"wing":5251,"beg":5252,"nose":5253,"counter":5254,"preci":5255,"average":5256,"Western":5257,"according":5258,"soldiers":5259,"chall":5260,"stream":5261,"possess":5262,"material":5263,"Life":5264,"enced":5265,"ander":5266,"lia":5267,"achie":5268,"champion":5269,"Sometimes":5270,"houses":5271,"Hall":5272,"rot":5273,"newsp":5274,"maid":5275,"biggest":5276,"Bre":5277,"Fred":5278,"rob":5279,"Although":5280,"highest":5281,"product":5282,"opportunity":5283,"Mill":5284,"surface":5285,"currently":5286,"90":5287,"cit":5288,"ired":5289,"lor":5290,"entered":5291,"arts":5292,"symbo":5293,"Ass":5294,"Little":5295,"Sil":5296,"Comp":5297,"driving":5298,"Chinese":5299,"Bab":5300,"amed":5301,"arent":5302,"Hal":5303,"bread":5304,"ray":5305,"dollars":5306,"nu":5307,"vice":5308,"tot":5309,"ained":5310,"anywhere":5311,"2003":5312,"Council":5313,"fra":5314,"victim":5315,"folk":5316,"via":5317,"lift":5318,"foreign":5319,"memory":5320,"pill":5321,"liber":5322,"ulations":5323,"risk":5324,".--":5325,"Eli":5326,"Say":5327,"san":5328,"indic":5329,"minated":5330,"Rock":5331,"plants":5332,"issues":5333,"dangerous":5334,"garden":5335,"basket":5336,"ives":5337,"older":5338,"Democr":5339,"religion":5340,"Time":5341,"spread":5342,"Something":5343,"Prince":5344,"originally":5345,"episode":5346,"Ray":5347,"boss":5348,"thinks":5349,"unders":5350,"proud":5351,"Shut":5352,"frequ":5353,"mistake":5354,"Da":5355,"Gar":5356,"Has":5357,"wine":5358,"rie":5359,"positive":5360,"condition":5361,"Brother":5362,"aine":5363,"willing":5364,"brown":5365,"twelve":5366,"survi":5367,"definitely":5368,"lucky":5369,"negative":5370,"ius":5371,"inj":5372,"smaller":5373,"easily":5374,"characters":5375,"inno":5376,"commer":5377,"direction":5378,"isters":5379,"whis":5380,"resour":5381,"ademy":5382,"strate":5383,"2002":5384,"throughout":5385,"teams":5386,",--":5387,"range":5388,"ams":5389,"temp":5390,"missing":5391,"pictures":5392,"Smith":5393,"Emp":5394,"Sun":5395,"iron":5396,"notice":5397,"zed":5398,"myster":5399,"surround":5400,"orses":5401,"!”":5402,"NA":5403,"bits":5404,"von":5405,"symp":5406,"reve":5407,"rious":5408,"expected":5409,"angle":5410,"industry":5411,"Fine":5412,"Ir":5413,"ko":5414,"sec":5415,"iles":5416,"Chic":5417,"gency":5418,"duty":5419,"phe":5420,"players":5421,"central":5422,"solution":5423,"500":5424,"bac":5425,"thin":5426,"eds":5427,"stre":5428,"wearing":5429,"qual":5430,"includes":5431,"leading":5432,"remained":5433,"cate":5434,"agreed":5435,"ucky":5436,"trip":5437,"faces":5438,"particularly":5439,"electric":5440,"BO":5441,"utch":5442,"rules":5443,"Catholic":5444,"Association":5445,"asty":5446,"courage":5447,"Jackson":5448,"AY":5449,"Na":5450,"brand":5451,"Ba":5452,"Next":5453,"gather":5454,"forty":5455,"defe":5456,"degree":5457,"tight":5458,"bother":5459,"keeping":5460,"hide":5461,"security":5462,"yan":5463,"hello":5464,"estival":5465,"crime":5466,"claimed":5467,"Cro":5468,"Hy":5469,"Ru":5470,"content":5471,"188":5472,"Profess":5473,"Best":5474,"Fuck":5475,"Lin":5476,"rank":5477,"culture":5478,"mentioned":5479,"Sto":5480,"lack":5481,"III":5482,"kins":5483,"rush":5484,"refle":5485,"ado":5486,"switch":5487,"yard":5488,"civil":5489,"strength":5490,"IR":5491,"Pet":5492,"Sand":5493,"metal":5494,"coo":5495,"raise":5496,"occup":5497,"Play":5498,"Spain":5499,"maintain":5500,"Dou":5501,"Rail":5502,"vote":5503,"Both":5504,"Gor":5505,"Pak":5506,"Yu":5507,"flight":5508,"pi":5509,"grave":5510,"prevent":5511,"travel":5512,"Chicago":5513,"CE":5514,"focus":5515,"heaven":5516,"trick":5517,"izing":5518,"employ":5519,"Help":5520,"cher":5521,"choose":5522,"peror":5523,"types":5524,"ordered":5525,"critic":5526,"utenant":5527,"youth":5528,"mob":5529,"Chief":5530,"heads":5531,"dreams":5532,"judge":5533,"slowly":5534,"eld":5535,"stock":5536,"Road":5537,"ification":5538,"picked":5539,"finger":5540,"formula_":5541,"mere":5542,"aling":5543,"aret":5544,"concept":5545,"umber":5546,"ALL":5547,"Mass":5548,"tes":5549,"staff":5550,"aging":5551,"2021":5552,"lawyer":5553,"zero":5554,"eggs":5555,"source":5556,"36":5557,"Sund":5558,"cere":5559,"instru":5560,"verse":5561,"provide":5562,"2019":5563,"actions":5564,"student":5565,"particip":5566,"32":5567,"jam":5568,"demon":5569,"divided":5570,"larger":5571,"designed":5572,"Cle":5573,"rit":5574,"pressure":5575,"tape":5576,"ashed":5577,"breath":5578,"Haw":5579,"mary":5580,"ider":5581,"worried":5582,"planet":5583,"brothers":5584,"operation":5585,"honor":5586,"Lady":5587,"Mel":5588,"Nice":5589,"dim":5590,"gate":5591,"yeh":5592,"powerful":5593,"Trans":5594,"Lake":5595,"aur":5596,"drew":5597,"oned":5598,"mail":5599,"Cos":5600,"mainly":5601,"Commun":5602,"corpor":5603,"individual":5604,"Texas":5605,"Off":5606,"roof":5607,"produce":5608,"explo":5609,"Bud":5610,"lif":5611,"addition":5612,"southwestern":5613,"African":5614,"quarter":5615,"determin":5616,"ost":5617,"Also":5618,"itchen":5619,"records":5620,"companies":5621,"totally":5622,"SO":5623,"ades":5624,"singing":5625,"promot":5626,"generally":5627,"performance":5628,"significant":5629,"iverse":5630,"influence":5631,"UR":5632,"ases":5633,"stro":5634,"sevent":5635,"sake":5636,"Christmas":5637,"ordinary":5638,"Greek":5639,"Huh":5640,"iot":5641,"request":5642,"pleasure":5643,"bigger":5644,"copy":5645,"troops":5646,"teeth":5647,"Ly":5648,"Nat":5649,"taught":5650,"becomes":5651,"vey":5652,"Star":5653,"empty":5654,"Indiana":5655,"Princess":5656,"asy":5657,"itar":5658,"conditions":5659,"consist":5660,"wedding":5661,"cohol":5662,"Rome":5663,"smart":5664,"Arab":5665,"reported":5666,"Russian":5667,"storm":5668,"tempor":5669,"(,":5670,"Long":5671,"measure":5672,"waste":5673,"...?":5674,"recorded":5675,"replaced":5676,"medical":5677,"Secret":5678,"complex":5679,"castle":5680,"steps":5681,"Mont":5682,"Tal":5683,"nest":5684,"instr":5685,"ami":5686,"bless":5687,"speech":5688,"kne":5689,"etc":5690,"plans":5691,"istics":5692,"Fort":5693,"lu":5694,"wet":5695,"mode":5696,"performed":5697,"bitch":5698,"1999":5699,"medicine":5700,";/":5701,"IV":5702,"loud":5703,"arily":5704,"archite":5705,"basically":5706,"ancis":5707,"Call":5708,"smile":5709,"rupt":5710,"butter":5711,"odd":5712,"flat":5713,"Major":5714,"lect":5715,"obviously":5716,"pin":5717,"convers":5718,"finan":5719,"witness":5720,"Majesty":5721,"oom":5722,"Inter":5723,"offered":5724,"eventually":5725,"replied":5726,"Championship":5727,"Hot":5728,"Los":5729,"horses":5730,"coat":5731,"poly":5732,"clearly":5733,"Bang":5734,"Later":5735,"eli":5736,"astern":5737,"...\"":5738,"phen":5739,"owa":5740,"urs":5741,"calm":5742,"Phil":5743,"described":5744,"competition":5745,"Open":5746,"evil":5747,"native":5748,"idence":5749,"ulous":5750,"parte":5751,"Back":5752,"Cast":5753,"stuck":5754,"becoming":5755,"killing":5756,"painting":5757,"Line":5758,"pool":5759,"vels":5760,"shi":5761,"tray":5762,"concerned":5763,"features":5764,"Make":5765,"bid":5766,"fright":5767,"neither":5768,"Still":5769,"failed":5770,"shape":5771,"oured":5772,"reck":5773,"tool":5774,"asc":5775,"Young":5776,"actress":5777,"greatest":5778,"Jimmy":5779,"Egy":5780,"Tri":5781,"remind":5782,"ita":5783,"interview":5784,"handle":5785,"prepared":5786,"sia":5787,"meat":5788,"administr":5789,"provid":5790,"ardon":5791,"cru":5792,"ancing":5793,"partement":5794,"sam":5795,"button":5796,"northern":5797,"hotel":5798,"onel":5799,"concl":5800,"nament":5801,"Club":5802,"crying":5803,"34":5804,"Ty":5805,"wow":5806,"results":5807,"quire":5808,"rooms":5809,"structure":5810,"département":5811,"Men":5812,"dar":5813,"goal":5814,"shout":5815,"breakfast":5816,"opinion":5817,"mn":5818,"applic":5819,"officers":5820,"citiz":5821,"Each":5822,"kitchen":5823,"lan":5824,"manager":5825,"ulty":5826,"progress":5827,"strug":5828,"Brown":5829,"circum":5830,"Tai":5831,"mechan":5832,"contr":5833,"fold":5834,"Uncle":5835,"greater":5836,"Academy":5837,"sexual":5838,"property":5839,"rare":5840,"taste":5841,"chi":5842,"poll":5843,"saved":5844,"affe":5845,"buried":5846,"contribut":5847,"SC":5848,"rum":5849,"iny":5850,"likes":5851,"impossible":5852,"poet":5853,"complain":5854,"Sovi":5855,"hurry":5856,"Government":5857,"blind":5858,"studio":5859,"omy":5860,"reme":5861,"ller":5862,"pel":5863,"novel":5864,"THAT":5865,"shoes":5866,"reasons":5867,"papers":5868,"vation":5869,"standard":5870,"Francis":5871,"realize":5872,"studied":5873,"advant":5874,"Dor":5875,"HO":5876,"flying":5877,"rang":5878,"weird":5879,"screw":5880,"starts":5881,"learning":5882,"traditional":5883,"Wood":5884,"dare":5885,"fare":5886,"lunch":5887,"oppos":5888,"flower":5889,"palace":5890,"directly":5891,"camera":5892,"HE":5893,"Mah":5894,"dete":5895,"gal":5896,"rise":5897,"shad":5898,"wick":5899,"sole":5900,"lips":5901,"anta":5902,"runs":5903,"surprised":5904,"gentlemen":5905,";&":5906,"thick":5907,"beach":5908,"uncle":5909,"Shar":5910,"technology":5911,"'.":5912,"drag":5913,"comfortable":5914,"Women":5915,"itz":5916,"icles":5917,"artist":5918,"worst":5919,"valu":5920,"easier":5921,"Jeff":5922,"Mexico":5923,"AB":5924,"Iowa":5925,"ining":5926,"belief":5927,"seconds":5928,"Son":5929,"sque":5930,"quality":5931,"brea":5932,"azine":5933,"buildings":5934,"Football":5935,"Empire":5936,"64":5937,"lN":5938,"silly":5939,"scream":5940,"Islam":5941,"consum":5942,"decide":5943,"hedron":5944,"Dire":5945,"Fil":5946,"cise":5947,"mut":5948,"cancer":5949,"igned":5950,"vili":5951,"appears":5952,"increase":5953,"surprise":5954,"lat":5955,"vac":5956,"pocket":5957,"appreci":5958,"climb":5959,"municipality":5960,"alcohol":5961,"beha":5962,"drinking":5963,"187":5964,"construction":5965,"38":5966,"Shi":5967,"pian":5968,"flow":5969,"eteen":5970,"network":5971,"recently":5972,"IM":5973,"pite":5974,"ening":5975,"ourselves":5976,"actual":5977,"awa":5978,"distribut":5979,"sleeping":5980,"frog":5981,"Down":5982,"image":5983,"tellig":5984,"arently":5985,"37":5986,"Far":5987,"asleep":5988,"Remember":5989,"Americans":5990,"smell":5991,"Cla":5992,"ee":5993,"province":5994,"crack":5995,"Second":5996,"laws":5997,"succeed":5998,"journey":5999,"Han":6000,"fal":6001,"gue":6002,"patter":6003,"sor":6004,"owe":6005,"ache":6006,"cting":6007,"syn":6008,"1997":6009,"Nan":6010,"bat":6011,"chem":6012,"Music":6013,"Blue":6014,"Professor":6015,".]":6016,"ips":6017,"185":6018,"Martin":6019,"document":6020,"Ori":6021,"UT":6022,"Won":6023,"tend":6024,"unit":6025,"vention":6026,"1996":6027,"1998":6028,"shore":6029,"ladies":6030,"hungry":6031,"meter":6032,"drunk":6033,"turns":6034,"stayed":6035,"Everybody":6036,"silver":6037,"tun":6038,"cles":6039,"council":6040,"organization":6041,"separate":6042,"Governor":6043,"amazing":6044,"cash":6045,"mitted":6046,"forever":6047,"Fran":6048,"multiple":6049,"LD":6050,"oul":6051,"Pope":6052,"listening":6053,"threw":6054,"grant":6055,"ansas":6056,"costs":6057,"journal":6058,"Satur":6059,"Company":6060,"Gi":6061,"wheel":6062,"soldier":6063,"avoid":6064,"rated":6065,"proved":6066,"igan":6067,"ishop":6068,"Art":6069,"promised":6070,"freed":6071,"centre":6072,"cream":6073,"Prime":6074,"fficient":6075,"RB":6076,"Sw":6077,"isto":6078,"asha":6079,"Cause":6080,"Actually":6081,"cards":6082,"ima":6083,"aving":6084,"Canad":6085,"chocol":6086,"location":6087,"DE":6088,"Ko":6089,"lit":6090,"pure":6091,"sar":6092,"ume":6093,"reven":6094,"motor":6095,"delight":6096,"possibly":6097,"dressed":6098,"excuse":6099,"economic":6100,"Soviet":6101,"Again":6102,"Turn":6103,"len":6104,"pup":6105,"required":6106,"saf":6107,"struck":6108,"Bon":6109,"Den":6110,"Lie":6111,"bury":6112,"previous":6113,"Isn":6114,"planning":6115,"languages":6116,"favour":6117,"Sunday":6118,"Jane":6119,"isher":6120,"bub":6121,"broadcast":6122,"favorite":6123,"Ob":6124,"eper":6125,"pil":6126,"stret":6127,"Whate":6128,"loves":6129,"bodies":6130,"Stay":6131,"programs":6132,"Anyway":6133,"appearance":6134,"split":6135,"Van":6136,"ears":6137,"owner":6138,"reality":6139,"rocks":6140,"sports":6141,"UK":6142,"Way":6143,"tough":6144,"ufact":6145,"wake":6146,"proof":6147,"turning":6148,"Last":6149,"toms":6150,"fruit":6151,"schol":6152,"introduced":6153,"Whatever":6154,"Camp":6155,"Mem":6156,"zing":6157,"stal":6158,"chos":6159,"units":6160,"division":6161,"pleased":6162,"--&":6163,"numer":6164,"harm":6165,"physical":6166,"Sub":6167,"Watch":6168,"aces":6169,"aded":6170,"cock":6171,"Carter":6172,"Kenned":6173,"Ow":6174,"altern":6175,"beth":6176,"pla":6177,"Sea":6178,"transfer":6179,"beauty":6180,"spoken":6181,"Angeles":6182,"Mi":6183,"anda":6184,"losing":6185,"tex":6186,"managed":6187,"grass":6188,"prefer":6189,"solve":6190,"responsible":6191,"39":6192,"Light":6193,"brary":6194,"scen":6195,"finding":6196,"transl":6197,"winning":6198,"Susan":6199,"streets":6200,"FC":6201,"Lis":6202,"Ox":6203,"Sl":6204,"wave":6205,"ths":6206,"alty":6207,"deb":6208,"cycle":6209,"smoke":6210,"Squ":6211,"km":6212,"ette":6213,"univers":6214,"iously":6215,"Parliament":6216,"Center":6217,"Penn":6218,"map":6219,"tick":6220,"perform":6221,"transport":6222,"micro":6223,"nineteen":6224,"destroyed":6225,"Robin":6226,"route":6227,"Sho":6228,"meas":6229,"Nobody":6230,"rison":6231,"southern":6232,"fixed":6233,"Mich":6234,"veh":6235,"debut":6236,"statement":6237,"apping":6238,"Bor":6239,"wealth":6240,"ooh":6241,"shirt":6242,"1995":6243,"Max":6244,"Jac":6245,"dirty":6246,"toward":6247,"begg":6248,"doors":6249,"scale":6250,"independent":6251,"Kennedy":6252,"CK":6253,"retired":6254,"universe":6255,"redu":6256,"sigh":6257,"afterwards":6258,"sche":6259,"drawn":6260,"arrange":6261,"connected":6262,"Hans":6263,"gay":6264,"afford":6265,"marked":6266,"Friday":6267,"giant":6268,"relative":6269,"hardly":6270,"accepted":6271,"treatment":6272,"ELL":6273,"Fed":6274,"fought":6275,"tire":6276,"Soci":6277,"bull":6278,"showing":6279,"understanding":6280,"falling":6281,"comedy":6282,"Five":6283,"bast":6284,"noticed":6285,"resist":6286,"Leave":6287,"Command":6288,"humans":6289,"FOR":6290,"Wind":6291,"civili":6292,"dying":6293,"serving":6294,"minister":6295,"azz":6296,"sweetie":6297,"Care":6298,"cous":6299,"gers":6300,"sword":6301,"rier":6302,"feels":6303,"trial":6304,"Scottish":6305,"ology":6306,"tong":6307,"hamm":6308,"apt":6309,"Britain":6310,"eth":6311,"require":6312,"hib":6313,"limate":6314,"audience":6315,"33":6316,"48":6317,"Gal":6318,"selling":6319,"ota":6320,"complic":6321,"products":6322,"Everyone":6323,"bottle":6324,",'":6325,"Daw":6326,"jail":6327,"oup":6328,"Think":6329,"Asia":6330,"stein":6331,"brave":6332,"Division":6333,"GR":6334,"Gy":6335,"Ram":6336,"Wo":6337,"pred":6338,"ghost":6339,"quarters":6340,"neighbor":6341,"occasion":6342,"Cur":6343,"Rose":6344,"pher":6345,"agent":6346,"antly":6347,"Station":6348,"Didn":6349,"laughing":6350,"activity":6351,"financial":6352,"Swed":6353,"dan":6354,"dess":6355,"sin":6356,"onic":6357,"armed":6358,"estim":6359,"affair":6360,"drama":6361,"helping":6362,"Daddy":6363,"candid":6364,"rab":6365,"vous":6366,"assu":6367,"union":6368,"hadn":6369,"affect":6370,"Child":6371,"guil":6372,"1994":6373,"ERE":6374,"Daniel":6375,"throat":6376,"Nick":6377,"skill":6378,"prince":6379,"Clar":6380,"coal":6381,"ports":6382,"Tommy":6383,"laughed":6384,"Damn":6385,"understood":6386,"Kat":6387,"Run":6388,"cake":6389,"geant":6390,"acted":6391,"ANT":6392,"drugs":6393,"Canadian":6394,"\"?":6395,"til":6396,"relie":6397,"aland":6398,"breaking":6399,"matters":6400,"walls":6401,"chemical":6402,"Bat":6403,"Summer":6404,"knowing":6405,"kingdom":6406,"Chuck":6407,"pulled":6408,"Should":6409,"balls":6410,"Saturday":6411,"Ay":6412,"Joseph":6413,"Sit":6414,"vest":6415,"spin":6416,"Shit":6417,"target":6418,"fingers":6419,"Valley":6420,"safety":6421,"Dutch":6422,"Pac":6423,"theast":6424,"ains":6425,"uments":6426,"minor":6427,"norm":6428,"younger":6429,"jobs":6430,"temperature":6431,"management":6432,"Latin":6433,"mort":6434,"ying":6435,"improve":6436,"manufact":6437,"ctic":6438,"1990":6439,"Someone":6440,"fired":6441,"swear":6442,"Russia":6443,"GHT":6444,"railway":6445,"teaching":6446,"tiny":6447,"Ce":6448,"Ve":6449,"Water":6450,"Move":6451,"enger":6452,"barr":6453,"politics":6454,"circle":6455,"Early":6456,"entirely":6457,"SI":6458,"Ten":6459,"plate":6460,"reser":6461,"tied":6462,"sphere":6463,"1992":6464,"Gri":6465,"Ire":6466,"Mir":6467,"lab":6468,"chant":6469,"etch":6470,"Maria":6471,"Holy":6472,"silence":6473,"settled":6474,"ceremon":6475,"99":6476,"Koh":6477,"aye":6478,"oph":6479,"assum":6480,"ission":6481,"1980":6482,"remains":6483,"fifth":6484,"gentleman":6485,"crowd":6486,"thousands":6487,"tournament":6488,"psycho":6489,"Wall":6490,"itors":6491,"jun":6492,"removed":6493,"ador":6494,"keys":6495,"cel":6496,"wore":6497,"dram":6498,"honour":6499,"bare":6500,"jum":6501,"sees":6502,"advent":6503,"Ann":6504,"chocolate":6505,"Land":6506,"bringing":6507,"guns":6508,"Eliza":6509,"opposite":6510,"lvan":6511,"task":6512,"atre":6513,"acts":6514,"1991":6515,"musical":6516,"defeated":6517,"Cra":6518,"Mountain":6519,"equi":6520,"rand":6521,"duck":6522,"Arch":6523,"passing":6524,"basic":6525,"delic":6526,"entertain":6527,"knife":6528,"Metro":6529,"symbol":6530,"VER":6531,"enge":6532,"Chan":6533,"driver":6534,"expensive":6535,"limited":6536,"cellent":6537,"forgotten":6538,"details":6539,"TR":6540,"UGH":6541,"bin":6542,"thetic":6543,"reign":6544,"utions":6545,"--\"":6546,"ysis":6547,"Juli":6548,"effort":6549,"attacked":6550,"rapid":6551,"Cho":6552,"Mum":6553,"Tre":6554,"anx":6555,"ental":6556,"proceed":6557,"quid":6558,"awful":6559,"setting":6560,"receive":6561,"Cas":6562,"Rural":6563,"Sur":6564,"UL":6565,"faster":6566,"sli":6567,"tts":6568,"witch":6569,"irk":6570,"trail":6571,"provided":6572,"sels":6573,"everywhere":6574,"colour":6575,"joke":6576,"1993":6577,"Whoa":6578,"calcul":6579,"completed":6580,"collection":6581,"authority":6582,"Southern":6583,"Rick":6584,"accom":6585,"comment":6586,"somewhat":6587,"marks":6588,"nights":6589,"queen":6590,"Ash":6591,"Bad":6592,"ani":6593,"notes":6594,"mond":6595,"Constitution":6596,"Australian":6597,"establish":6598,"credit":6599,"Ci":6600,"Dun":6601,"Must":6602,"Ted":6603,"intellig":6604,"manner":6605,"dons":6606,"hammad":6607,"App":6608,"Six":6609,"ales":6610,"stances":6611,"carbon":6612,"solid":6613,"slightly":6614,"newspaper":6615,"conversation":6616,"300":6617,"gil":6618,"labor":6619,"pleasant":6620,"closer":6621,"highly":6622,"matches":6623,"majority":6624,"drawing":6625,"advantage":6626,"Hor":6627,"wis":6628,"icts":6629,"iding":6630,"traf":6631,"estic":6632,"apple":6633,"sugar":6634,"ached":6635,"contains":6636,"chicken":6637,"bang":6638,"tt":6639,"trou":6640,"causes":6641,"Death":6642,"Harry":6643,"Secretary":6644,"traffic":6645,"75":6646,"Awards":6647,"Tele":6648,"uals":6649,"uyeh":6650,"useful":6651,"goods":6652,"prime":6653,"trem":6654,"Ari":6655,"achuse":6656,"disci":6657,"attend":6658,"Frances":6659,"pressed":6660,"Group":6661,"allows":6662,"shooting":6663,"score":6664,"punish":6665,"PS":6666,"Spr":6667,"Town":6668,"thur":6669,"plent":6670,"feelings":6671,"keeps":6672,"status":6673,"Republican":6674,"committee":6675,"achusetts":6676,"gall":6677,"pha":6678,"blank":6679,"icks":6680,"presence":6681,"Georg":6682,"golden":6683,"isl":6684,"agan":6685,"lom":6686,"branch":6687,"helps":6688,"restaur":6689,"passion":6690,"Jean":6691,"extremely":6692,"Massachusetts":6693,"ocean":6694,"studies":6695,"custom":6696,"changing":6697,"Depart":6698,"AA":6699,"Kansas":6700,"Si":6701,"recomm":6702,"prior":6703,"planned":6704,"horri":6705,"LAUGH":6706,"Hung":6707,"gang":6708,"vine":6709,"spect":6710,"tradition":6711,"fifteen":6712,"Pakistan":6713,"behavi":6714,"lvania":6715,"exer":6716,"excl":6717,"mination":6718,"eastern":6719,"ONE":6720,"represented":6721,"princess":6722,"victory":6723,"Welcome":6724,"guilty":6725,"tone":6726,"wings":6727,"arian":6728,"chest":6729,"element":6730,"mixed":6731,"Michigan":6732,"Society":6733,"Fire":6734,"Games":6735,"ads":6736,"cloud":6737,"flag":6738,"suggested":6739,"Victo":6740,"Hmm":6741,"Naz":6742,"wrest":6743,"attract":6744,"chain":6745,"Carolina":6746,"Gra":6747,"Kim":6748,"ares":6749,"Boston":6750,"fields":6751,"basis":6752,"hanging":6753,"Dave":6754,"Try":6755,"Stand":6756,"advice":6757,"Bas":6758,"Tam":6759,"escap":6760,"root":6761,"quit":6762,"hase":6763,"shame":6764,"Home":6765,"Class":6766,"Prize":6767,"benefit":6768,"commercial":6769,"Pen":6770,"gment":6771,"strict":6772,"visions":6773,"Addons":6774,"defend":6775,"isy":6776,"noise":6777,"portion":6778,"northwest":6779,"resources":6780,"Bes":6781,"cute":6782,"umn":6783,"otherwise":6784,"background":6785,"parties":6786,"steam":6787,"perfectly":6788,"Senate":6789,"expression":6790,"Gard":6791,"Too":6792,"Vol":6793,"meal":6794,"upstairs":6795,"killer":6796,"damage":6797,"flew":6798,"royal":6799,"whisper":6800,"narrow":6801,"vy":6802,"astr":6803,"forts":6804,"rig":6805,"web":6806,"Institute":6807,"Ohio":6808,"Stan":6809,"scr":6810,"Brad":6811,"awarded":6812,"Lar":6813,"brush":6814,"carefully":6815,"occurred":6816,"chosen":6817,"Department":6818,"Ven":6819,"cation":6820,"aked":6821,"desire":6822,"signal":6823,"expand":6824,"44":6825,"Had":6826,"Night":6827,"hes":6828,"hook":6829,"stations":6830,"oops":6831,"shoulder":6832,"1989":6833,"presented":6834,"watched":6835,"federal":6836,"PO":6837,"jan":6838,"zo":6839,"insur":6840,"devil":6841,"workers":6842,"Record":6843,"instance":6844,"connection":6845,"budget":6846,"Broad":6847,"Pete":6848,"Tra":6849,"dancing":6850,"py":6851,"mel":6852,"concent":6853,"iana":6854,"obtain":6855,"loose":6856,"Johnson":6857,"remembered":6858,"Shakes":6859,"Enter":6860,"neighbour":6861,"Olympics":6862,"Maz":6863,"admit":6864,"upper":6865,"grav":6866,"hearing":6867,"fallen":6868,"Anything":6869,".)":6870,"Mhm":6871,"league":6872,"quant":6873,"Arthur":6874,"paral":6875,"Exactly":6876,"effects":6877,"ricane":6878,"billion":6879,"cabin":6880,"sharp":6881,"Dom":6882,"Sc":6883,"gift":6884,"ware":6885,"tears":6886,"governor":6887,"excited":6888,"freedom":6889,"pit":6890,"ws":6891,"wid":6892,"thri":6893,"protest":6894,"Andrew":6895,"gler":6896,"signs":6897,"growth":6898,"response":6899,"Shakespe":6900,"Offic":6901,"Sher":6902,"Sel":6903,"rick":6904,"rug":6905,"reaction":6906,"stated":6907,"acle":6908,"diag":6909,"magazine":6910,"Aunt":6911,"Ell":6912,"Game":6913,"Ron":6914,"iation":6915,"tha":6916,"aters":6917,"atom":6918,"beer":6919,"justice":6920,"cheese":6921,"eleven":6922,"increased":6923,"carrying":6924,"familiar":6925,"violence":6926,"declared":6927,"Shakespeare":6928,"\"\"":6929,"Es":6930,"SPE":6931,"Vo":6932,"ching":6933,"core":6934,"grade":6935,"magic":6936,"teachers":6937,"mountains":6938,"Pennsy":6939,"Pacific":6940,"Kohgil":6941,"Kohgiluyeh":6942,"47":6943,"laughter":6944,"severe":6945,"sons":6946,"colon":6947,"lax":6948,"Edward":6949,"bullet":6950,"fortunately":6951,"Braz":6952,"frame":6953,"Fam":6954,"SB":6955,"vector":6956,"guitar":6957,"Steve":6958,"beside":6959,"ninety":6960,"knock":6961,"Free":6962,"height":6963,"unique":6964,"Ali":6965,"bone":6966,"horn":6967,"icking":6968,"disco":6969,"headed":6970,"shared":6971,"Follow":6972,"Such":6973,"Hurry":6974,"Kentucky":6975,"46":6976,"Gil":6977,"hmm":6978,"powers":6979,"tap":6980,"lyn":6981,"forgive":6982,"grab":6983,"dragon":6984,"thoughts":6985,"visible":6986,"Order":6987,"Williams":6988,"achieve":6989,"normally":6990,"Asian":6991,"Pu":6992,"bene":6993,"pitch":6994,"advert":6995,"worn":6996,"inda":6997,"Soon":6998,"chap":6999,"ception":7000,"invited":7001,"hiding":7002,"historical":7003,"temporary":7004,"Ireland":7005,"dust":7006,"furn":7007,"upset":7008,"indu":7009,"ishing":7010,"divor":7011,"Shall":7012,"falls":7013,"drove":7014,"fancy":7015,"plenty":7016,"Jones":7017,"climate":7018,"museum":7019,"vad":7020,"poison":7021,"ulate":7022,"resent":7023,"blame":7024,"ava":7025,"mathem":7026,"1988":7027,"kidding":7028,"factory":7029,"figures":7030,"daily":7031,"failure":7032,"Democratic":7033,"49":7034,"Ku":7035,"MP":7036,"Museum":7037,"latter":7038,"slo":7039,"vig":7040,"preser":7041,"Brand":7042,"joint":7043,"staying":7044,"burgh":7045,"uniform":7046,"captured":7047,"\").":7048,"55":7049,"Edu":7050,"Found":7051,"Greg":7052,"Hit":7053,"Pap":7054,"rant":7055,"conference":7056,"supported":7057,"motion":7058,"Amy":7059,"Cat":7060,"Eh":7061,"Tu":7062,"sheep":7063,"seek":7064,"presents":7065,"Alice":7066,"windows":7067,"Emperor":7068,"feder":7069,"bunch":7070,"pow":7071,"sust":7072,"terror":7073,"oma":7074,"writ":7075,"desc":7076,"attered":7077,"follows":7078,"Looks":7079,"1979":7080,"struct":7081,"fairly":7082,"Sidney":7083,"sacri":7084,"script":7085,"Pennsylvania":7086,"ras":7087,"sie":7088,"zes":7089,"inhabit":7090,"eding":7091,"auto":7092,"supply":7093,"operations":7094,"protection":7095,"variety":7096,"piano":7097,"Cy":7098,"Yet":7099,"cig":7100,"ux":7101,"vive":7102,"onia":7103,"endo":7104,"stab":7105,"stable":7106,"chuck":7107,"weet":7108,"somehow":7109,"organis":7110,"gods":7111,"tori":7112,"heav":7113,"1987":7114,"classes":7115,"silent":7116,"advance":7117,"NOW":7118,"apolog":7119,"integr":7120,"Kong":7121,"Wend":7122,"pon":7123,"entially":7124,"unknown":7125,"confl":7126,"propos":7127,"disappeared":7128,"desper":7129,"treated":7130,"slept":7131,"paying":7132,"border":7133,"purch":7134,"aside":7135,"icide":7136,"ustration":7137,"Year":7138,"string":7139,"steel":7140,"eaten":7141,"locked":7142,"Middle":7143,"innocent":7144,"Castle":7145,"Lieutenant":7146,"tongue":7147,"MA":7148,"lone":7149,"mig":7150,"rings":7151,"inch":7152,"proposed":7153,"oldest":7154,"incident":7155,"associated":7156,"Cross":7157,"bite":7158,"rance":7159,"meters":7160,"aki":7161,"interpret":7162,"pursu":7163,"squared":7164,"strike":7165,"suspect":7166,"scientific":7167,"launched":7168,"Hard":7169,"Tro":7170,"dun":7171,"gam":7172,"rice":7173,"orange":7174,"aspect":7175,"artists":7176,"pregn":7177,"previously":7178,"prize":7179,"logist":7180,"listed":7181,"ski":7182,"CD":7183,"aband":7184,"bride":7185,"cheer":7186,"producer":7187,"1982":7188,"salt":7189,"analysis":7190,"Times":7191,"settlement":7192,"Kill":7193,"dip":7194,"puts":7195,"clever":7196,"Adam":7197,"profit":7198,"chestra":7199,"Korea":7200,"featured":7201,"mobile":7202,"chose":7203,"soil":7204,"plement":7205,"holiday":7206,"begins":7207,"IE":7208,"ION":7209,"Jen":7210,"file":7211,"pink":7212,"roles":7213,"ooth":7214,"homes":7215,"primary":7216,"nervous":7217,"mbly":7218,"1984":7219,"onds":7220,"arrested":7221,"Song":7222,"Zig":7223,"orm":7224,"veget":7225,"Thus":7226,"rence":7227,"attended":7228,"cycl":7229,"Atlantic":7230,"patients":7231,"glasses":7232,"Lincol":7233,"darling":7234,"Wendy":7235,"41":7236,"ito":7237,"ires":7238,"tower":7239,"advan":7240,"user":7241,"embarr":7242,"awn":7243,"Anna":7244,"moral":7245,"generation":7246,"tware":7247,"channel":7248,"bastard":7249,"FL":7250,"Ga":7251,"Hol":7252,"angers":7253,"priest":7254,"shake":7255,"approxim":7256,"Bull":7257,"crossed":7258,"materials":7259,"embarrass":7260,"Laugh":7261,"Pop":7262,"mama":7263,"lean":7264,"endment":7265,"19th":7266,"maxim":7267,"Isra":7268,"180":7269,"friendly":7270,"realized":7271,"Northern":7272,"sixty":7273,"Sergeant":7274,"experiment":7275,"basketball":7276,"determined":7277,"Lincoln":7278,"Ak":7279,"HA":7280,"Isa":7281,"Win":7282,"kit":7283,"wich":7284,"invent":7285,"ultim":7286,"tort":7287,"stomach":7288,"sched":7289,"boyfriend":7290,"leaders":7291,"seasons":7292,"platform":7293,"Bank":7294,"WO":7295,"tum":7296,"commonly":7297,"engaged":7298,"Commission":7299,"mming":7300,"Admir":7301,"juice":7302,"Baby":7303,"Irish":7304,"insurance":7305,"Eastern":7306,"mud":7307,"holds":7308,"increasing":7309,"professor":7310,"confess":7311,"agreement":7312,"suffered":7313,"suffering":7314,"responsibility":7315,"weapons":7316,"instrument":7317,"SPEAK":7318,"MO":7319,"Pic":7320,"TING":7321,"tub":7322,"istry":7323,"adium":7324,"tive":7325,"aho":7326,"aks":7327,"dia":7328,"anged":7329,"1986":7330,"burned":7331,"existence":7332,"hoping":7333,"weapon":7334,"philosophy":7335,"Khan":7336,"alous":7337,"grace":7338,"crash":7339,"prepar":7340,"jected":7341,"charged":7342,"1976":7343,"faced":7344,"Wales":7345,"economy":7346,"Jacob":7347,"lake":7348,"online":7349,"ila":7350,"plot":7351,"guest":7352,"discover":7353,"thrown":7354,"towns":7355,"wondering":7356,"hundreds":7357,"critical":7358,"healthy":7359,"Viet":7360,"argument":7361,"Besides":7362,"42":7363,"delay":7364,"apparently":7365,"activities":7366,"apartment":7367,"Id":7368,"Tha":7369,"bun":7370,"pul":7371,"levels":7372,"kings":7373,"happiness":7374,"commission":7375,"Leg":7376,"1981":7377,"weekend":7378,"fortune":7379,"Assy":7380,"circumstances":7381,"Film":7382,"appreciate":7383,"Battle":7384,"Festival":7385,"Ur":7386,"batter":7387,"ological":7388,"urally":7389,"conserv":7390,"consequ":7391,"brings":7392,"phr":7393,"films":7394,"Fox":7395,"Por":7396,"vit":7397,"replace":7398,"argu":7399,"sta":7400,"amb":7401,"aman":7402,"ulated":7403,"resident":7404,"gotten":7405,"mayor":7406,"stands":7407,"ARR":7408,"Tech":7409,"Jewish":7410,"riding":7411,"sales":7412,"seriously":7413,"ffici":7414,"suspic":7415,"Civil":7416,"Ka":7417,"Ker":7418,"gust":7419,"remark":7420,"article":7421,"girlfriend":7422,"capac":7423,"officially":7424,"lNG":7425,"Elizabeth":7426,"powder":7427,"Sof":7428,"cue":7429,"noted":7430,"conce":7431,"Johnny":7432,"pression":7433,"ARE":7434,"chester":7435,"Danny":7436,"Emily":7437,"false":7438,"EP":7439,"Were":7440,"mers":7441,"nasty":7442,"wished":7443,"adop":7444,"moves":7445,"conver":7446,"iger":7447,"goodness":7448,"earned":7449,"ugly":7450,"pointed":7451,"paint":7452,"continues":7453,"Director":7454,"95":7455,"Brian":7456,"Rac":7457,"lap":7458,"mile":7459,"relax":7460,"mental":7461,"tooth":7462,"intended":7463,"handed":7464,"finds":7465,"1971":7466,"appy":7467,"limit":7468,"Service":7469,"Ziggler":7470,"Fair":7471,"Want":7472,"islands":7473,"ora":7474,"stones":7475,"feather":7476,"worship":7477,"cheap":7478,"appropri":7479,"recognized":7480,"(;":7481,"gie":7482,"library":7483,"ira":7484,"brid":7485,"----":7486,"display":7487,"Bell":7488,"contest":7489,"1985":7490,"photograph":7491,"Jersey":7492,"Ocean":7493,"Seven":7494,"Top":7495,"ingu":7496,"isted":7497,"whoa":7498,"handsome":7499,"Confeder":7500,"virt":7501,"client":7502,"techni":7503,"combination":7504,"Zealand":7505,"400":7506,"Cer":7507,"Know":7508,"Twenty":7509,"Yep":7510,"hunt":7511,"ola":7512,"fled":7513,"flash":7514,"voc":7515,"150":7516,"Calvad":7517,"waited":7518,"Oxford":7519,"Calvados":7520,"Book":7521,"Die":7522,"Fall":7523,"Grey":7524,"Navy":7525,"Ryan":7526,"ography":7527,"patch":7528,"pension":7529,"rd":7530,"solved":7531,"1978":7532,"ridic":7533,"wounded":7534,"Hand":7535,"ey":7536,"evolution":7537,"Until":7538,"mont":7539,"Force":7540,"additional":7541,"repeated":7542,"cousin":7543,"cats":7544,"sion":7545,"compon":7546,"ulture":7547,"survive":7548,"Colonel":7549,"concern":7550,"senior":7551,"challenge":7552,"BA":7553,"mart":7554,"infl":7555,"rend":7556,"oring":7557,"acid":7558,"mann":7559,"exchange":7560,"avar":7561,"odes":7562,"Anton":7563,"bitter":7564,"sentence":7565,"techn":7566,"refused":7567,"hunting":7568,"Bush":7569,"mam":7570,"atmo":7571,"stir":7572,"stress":7573,"shal":7574,"autom":7575,"efforts":7576,"ENT":7577,"Cab":7578,"Les":7579,"ders":7580,"erk":7581,"som":7582,"mod":7583,"breast":7584,"importance":7585,"hidden":7586,"mood":7587,"zation":7588,"enem":7589,"tories":7590,"icated":7591,"domin":7592,"dozen":7593,"cia":7594,"distur":7595,"Alexander":7596,"assistant":7597,"lon":7598,"tank":7599,"poem":7600,"minim":7601,"Roger":7602,"atherine":7603,"reference":7604,"recognize":7605,"lliant":7606,"Radio":7607,"LY":7608,"Tan":7609,"nap":7610,"sty":7611,"sets":7612,"secut":7613,"whist":7614,"exped":7615,"igno":7616,"formal":7617,"Commit":7618,"sites":7619,"1964":7620,"fishing":7621,"Police":7622,"decisions":7623,"Vietnam":7624,"Mun":7625,"Ton":7626,"tack":7627,"accoun":7628,"convict":7629,"obvious":7630,"elements":7631,"capable":7632,"pretend":7633,"Holly":7634,"Simon":7635,"Turk":7636,"literature":7637,"Fa":7638,"estate":7639,"1970":7640,"sorts":7641,"Guard":7642,"effective":7643,"Ais":7644,"Bus":7645,"Billy":7646,"Kh":7647,"Tem":7648,"XX":7649,"hr":7650,"lion":7651,"heim":7652,"webs":7653,"flood":7654,"drum":7655,"Eric":7656,"1975":7657,"Berlin":7658,"creating":7659,"seventy":7660,"',":7661,"Ever":7662,"UP":7663,"Wol":7664,"pity":7665,"mole":7666,"shook":7667,"convin":7668,"aka":7669,"surely":7670,"Boss":7671,"custo":7672,"Chair":7673,"beneath":7674,"65":7675,"Person":7676,"Whe":7677,"ds":7678,"greg":7679,"nick":7680,"ule":7681,"uries":7682,"deck":7683,"proced":7684,"excellent":7685,"diet":7686,"Revolution":7687,"grees":7688,"Without":7689,"darkness":7690,"territory":7691,"Sarah":7692,"Duke":7693,"Jill":7694,"ez":7695,"fli":7696,"seed":7697,"agric":7698,"unable":7699,"ante":7700,"boats":7701,"perial":7702,"committed":7703,"News":7704,"Common":7705,"garage":7706,"Egypt":7707,"complicated":7708,".[":7709,"None":7710,"doo":7711,"ias":7712,"pages":7713,"idiot":7714,"weigh":7715,"attitude":7716,"cert":7717,"incredi":7718,"referred":7719,"67":7720,"Fri":7721,"Power":7722,"gian":7723,"shel":7724,"spare":7725,"positions":7726,"creation":7727,"ERS":7728,"Board":7729,"criminal":7730,"appointment":7731,"hibition":7732,"1st":7733,"Vice":7734,"vul":7735,"vity":7736,"insp":7737,"owl":7738,"earn":7739,"values":7740,"burst":7741,"Monday":7742,"properly":7743,"explained":7744,"selected":7745,"communication":7746,"Committee":7747,"MD":7748,"PR":7749,"degrees":7750,"plastic":7751,"bran":7752,"spector":7753,"Goodbye":7754,"1972":7755,"1974":7756,"winner":7757,"dealing":7758,"concert":7759,"Supreme":7760,"nuts":7761,"CT":7762,"Cub":7763,"Glo":7764,"Lab":7765,"Nar":7766,"Swit":7767,"Test":7768,"ern":7769,"rem":7770,"toi":7771,"assa":7772,"overall":7773,"shock":7774,"Eras":7775,"Columb":7776,"Michel":7777,"Romanized":7778,"scientists":7779,"enemies":7780,"Nic":7781,"pent":7782,"rhy":7783,"asion":7784,"grat":7785,"1973":7786,"operating":7787,"empire":7788,"woods":7789,"touched":7790,"Bern":7791,"Switzer":7792,"Kal":7793,"MS":7794,"Sab":7795,"dread":7796,"fate":7797,"slip":7798,"ouri":7799,"retire":7800,"rol":7801,"20th":7802,"phant":7803,"hired":7804,"Beat":7805,"Islands":7806,"colors":7807,"steal":7808,"harder":7809,"1983":7810,"sixth":7811,"gery":7812,"nearby":7813,"millions":7814,"trained":7815,"IFA":7816,"scarce":7817,"discipl":7818,"].":7819,"sale":7820,"theme":7821,"Beach":7822,"compared":7823,"regret":7824,"1969":7825,"buying":7826,"reports":7827,"uri":7828,"beast":7829,"suicide":7830,"shell":7831,"Social":7832,"cruel":7833,"supp":7834,"register":7835,"Trust":7836,"painted":7837,"domestic":7838,"belongs":7839,"scholar":7840,"random":7841,"Switzerland":7842,"43":7843,"CL":7844,"Jr":7845,"Net":7846,"Wr":7847,"nod":7848,"diam":7849,"reek":7850,"medal":7851,"Count":7852,"aired":7853,"depends":7854,"organized":7855,"communities":7856,"truly":7857,"Walter":7858,"software":7859,"citizens":7860,"Records":7861,"PLA":7862,"Work":7863,"encies":7864,"lem":7865,"composed":7866,"cahedron":7867,"exact":7868,"whenever":7869,"spending":7870,"Dear":7871,"Point":7872,"equals":7873,"fleet":7874,"creature":7875,"literally":7876,"elder":7877,"Francisco":7878,"horrible":7879,"Mazra":7880,"kilo":7881,"sisters":7882,"revolution":7883,"Coast":7884,"Nether":7885,"Justice":7886,"funeral":7887,"1960":7888,"ruled":7889,"Senator":7890,"pattern":7891,"Erasmus":7892,"\"),":7893,"Basse":7894,"Din":7895,"Tour":7896,"aunt":7897,"sne":7898,"attr":7899,"ories":7900,"rode":7901,"ented":7902,"wire":7903,"agu":7904,"nominated":7905,"Instead":7906,"akh":7907,"driven":7908,"roads":7909,"closely":7910,"CHAP":7911,"parent":7912,"boom":7913,"Turkey":7914,"Mazraeh":7915,"CHAPTER":7916,"Goo":7917,"Oper":7918,"aid":7919,"cular":7920,"infin":7921,"reput":7922,"iments":7923,"tip":7924,"woke":7925,"perman":7926,"Charlie":7927,"Germans":7928,"Betty":7929,"emergency":7930,"Budd":7931,"Gun":7932,"Pers":7933,"kh":7934,"lest":7935,"tered":7936,"celer":7937,"akers":7938,"iley":7939,"dude":7940,"Marg":7941,"organiz":7942,"eighty":7943,"challeng":7944,"advanced":7945,"FIFA":7946,"mant":7947,"Head":7948,"explan":7949,"eping":7950,"stole":7951,"observed":7952,"decor":7953,"Normand":7954,"1968":7955,"Ahmad":7956,"borrow":7957,"........":7958,"swim":7959,"Philip":7960,"numerous":7961,"Hun":7962,"Kur":7963,"bones":7964,"stance":7965,"advis":7966,"arest":7967,"saving":7968,"1930":7969,"poses":7970,"highway":7971,"chamber":7972,"views":7973,"describe":7974,"enjoyed":7975,"impact":7976,"independence":7977,"Georgia":7978,"Bah":7979,"IP":7980,"mates":7981,"pants":7982,"swimming":7983,"buddy":7984,"reviews":7985,"investigation":7986,"injury":7987,"instructions":7988,"application":7989,"Woman":7990,"Children":7991,"Victoria":7992,"Aye":7993,"BS":7994,"LES":7995,"hast":7996,"iring":7997,"Through":7998,"unte":7999,"illust":8000,"Bring":8001,"Leon":8002,"Somebody":8003,"Carl":8004,"OUT":8005,"controlled":8006,"Quick":8007,"satisfied":8008,"secure":8009,"Mind":8010,"Rab":8011,"seas":8012,"adel":8013,"etic":8014,"umes":8015,"Anim":8016,"airport":8017,"jection":8018,"rising":8019,"metro":8020,"titles":8021,"burning":8022,"folks":8023,"tools":8024,"Mod":8025,"lung":8026,"toys":8027,"edition":8028,"hem":8029,"ipment":8030,"label":8031,"volume":8032,"relations":8033,"1970s":8034,"grey":8035,"recording":8036,"trains":8037,"stronger":8038,"cooking":8039,"Gre":8040,"Jess":8041,"Ni":8042,"TA":8043,"anne":8044,"otic":8045,"aming":8046,"tale":8047,"angel":8048,"aircraft":8049,"servant":8050,"metres":8051,"opera":8052,"tracks":8053,"Greece":8054,"regarded":8055,"affected":8056,"adopted":8057,"Hong":8058,"UD":8059,"gig":8060,"gory":8061,"tag":8062,"chart":8063,"talks":8064,"gling":8065,"badly":8066,"ladder":8067,"balance":8068,"lonely":8069,"Fu":8070,"Gro":8071,"Haven":8072,"MY":8073,"Ta":8074,"ticket":8075,"waves":8076,"reform":8077,"shine":8078,"romantic":8079,"fuel":8080,"visited":8081,"smith":8082,"parish":8083,"slide":8084,"possibility":8085,"hydro":8086,"Missouri":8087,"practical":8088,"frightened":8089,"Commander":8090,"appropriate":8091,"Bha":8092,"Ira":8093,"SS":8094,"Tot":8095,"Tang":8096,"pour":8097,"actors":8098,"pled":8099,"centuries":8100,"appeal":8101,"legisl":8102,"1977":8103,"Mean":8104,"exciting":8105,"statistics":8106,"Wilson":8107,"methods":8108,"Korean":8109,"Office":8110,"atmosphere":8111,"Columbia":8112,"98":8113,"Hay":8114,"Jun":8115,"Oliver":8116,"Public":8117,"bike":8118,"income":8119,"liar":8120,"covers":8121,"cris":8122,"identity":8123,"jealous":8124,"1963":8125,"issued":8126,"potential":8127,"engineering":8128,"intel":8129,"restaurant":8130,"website":8131,"CON":8132,"Sud":8133,"tab":8134,"wand":8135,"infe":8136,"tians":8137,"provin":8138,"torn":8139,"glas":8140,"apply":8141,"magn":8142,"checked":8143,"difficulty":8144,"device":8145,"industrial":8146,"environmental":8147,"succeeded":8148,"68":8149,"Ban":8150,"BBC":8151,"Cut":8152,"Gon":8153,"pale":8154,"vain":8155,"acks":8156,"ultural":8157,"applied":8158,"Manip":8159,"annual":8160,"1945":8161,"necessarily":8162,"revealed":8163,"ridiculous":8164,"Find":8165,"Number":8166,"Rod":8167,"sending":8168,"tender":8169,"yards":8170,"beating":8171,"adult":8172,"agues":8173,"grate":8174,"enses":8175,"Conne":8176,"correspond":8177,"Banglad":8178,"DON":8179,"Morning":8180,"iest":8181,"unusual":8182,"shed":8183,"uded":8184,"desert":8185,"puzz":8186,"babies":8187,"Probably":8188,"examples":8189,"Poor":8190,"Eddie":8191,"install":8192,"cultural":8193,"Disney":8194,"AV":8195,"Ot":8196,"ende":8197,"accur":8198,"acceler":8199,"opposed":8200,"itty":8201,"equipment":8202,"System":8203,"gained":8204,"Stuart":8205,"option":8206,"surrounded":8207,"pipe":8208,"shadow":8209,"Dawson":8210,"Aisne":8211,"Aw":8212,"Science":8213,"bage":8214,"gic":8215,"sem":8216,"ulting":8217,"agement":8218,"pron":8219,"interests":8220,"Absolutely":8221,"eighteen":8222,"figured":8223,"impression":8224,"Sweden":8225,"Family":8226,"\"...":8227,"Bi":8228,"Wed":8229,"bust":8230,"thir":8231,"neut":8232,"expl":8233,"thaniel":8234,"earch":8235,"Protest":8236,"1967":8237,"emplo":8238,"curious":8239,"authorities":8240,"shopping":8241,"Gordon":8242,"paralle":8243,"BY":8244,"Luc":8245,"Tar":8246,"Tenn":8247,"gur":8248,"onom":8249,"reward":8250,"agger":8251,"democr":8252,"Ready":8253,"Indians":8254,"voices":8255,"Team":8256,"1944":8257,"goddess":8258,"instant":8259,"Better":8260,"WHAT":8261,"expert":8262,"capture":8263,"scratch":8264,"mathemat":8265,"Margaret":8266,"KE":8267,"fans":8268,"jury":8269,"vast":8270,"anna":8271,"envelo":8272,"ader":8273,"spite":8274,"ensions":8275,"crown":8276,"leads":8277,"confidence":8278,"symptoms":8279,"97":8280,"Cir":8281,"Mand":8282,"hip":8283,"thed":8284,"bean":8285,"rope":8286,"entrance":8287,"Though":8288,"defeat":8289,"resto":8290,"wanting":8291,"permission":8292,"asks":8293,"versions":8294,"desk":8295,"musician":8296,"Stephen":8297,"confused":8298,"Cape":8299,"pushed":8300,"separated":8301,"Human":8302,"victims":8303,"Douglas":8304,"conflict":8305,"Hang":8306,"sters":8307,"udes":8308,"Howard":8309,"clothing":8310,"identified":8311,"subsequ":8312,"cutting":8313,"males":8314,"remaining":8315,"laughs":8316,"murdered":8317,"massive":8318,"Liber":8319,"blocks":8320,"analy":8321,"GRUN":8322,"dramatic":8323,"accompl":8324,"Dal":8325,"Jay":8326,"Kr":8327,"venue":8328,"cricket":8329,"Rober":8330,"Albert":8331,"Dean":8332,"Bruce":8333,"Contin":8334,"adding":8335,"1965":8336,"1947":8337,"initi":8338,"pilot":8339,"assume":8340,"Mas":8341,"Sk":8342,"eager":8343,"oon":8344,"stall":8345,"shift":8346,"athy":8347,"destru":8348,"regions":8349,"identify":8350,"valent":8351,"allowing":8352,"bowl":8353,"Golden":8354,"bathroom":8355,"scenes":8356,"skills":8357,"jumped":8358,"RA":8359,"Sin":8360,"UE":8361,"WI":8362,"oop":8363,"compo":8364,"hoc":8365,"phia":8366,"brilliant":8367,"machines":8368,"sources":8369,"sacred":8370,"revenge":8371,"approximately":8372,"57":8373,"600":8374,"Lad":8375,"Nint":8376,"Rh":8377,"Rel":8378,"dumb":8379,"tles":8380,"keeper":8381,"amin":8382,"assign":8383,"guar":8384,"spell":8385,"Cole":8386,"crap":8387,"attles":8388,"persons":8389,"erald":8390,"Tru":8391,"factor":8392,"draft":8393,"Illustration":8394,"connect":8395,"vehicle":8396,"escaped":8397,"BI":8398,"Cu":8399,"OD":8400,"Pho":8401,"zu":8402,"οu":8403,"inher":8404,"stim":8405,"aced":8406,"rix":8407,"suck":8408,"avan":8409,"Marie":8410,"passage":8411,"situ":8412,"hypo":8413,"Joy":8414,"swing":8415,"doctors":8416,"combined":8417,"dollar":8418,"Taiwan":8419,"Channel":8420,"EM":8421,"Ti":8422,"dates":8423,"obey":8424,"thouse":8425,"iser":8426,"encour":8427,"itary":8428,"rog":8429,"choo":8430,"goals":8431,"Health":8432,"noble":8433,"probab":8434,"stranger":8435,"monster":8436,"phan":8437,"Bridge":8438,"Arts":8439,"Argent":8440,"mighty":8441,"horror":8442,"arranged":8443,"besides":8444,"studying":8445,"Talk":8446,"provides":8447,"Wonder":8448,"Nintendo":8449,"Ball":8450,"boun":8451,"fid":8452,"fasc":8453,"ancy":8454,"amo":8455,"agents":8456,"tel":8457,"conven":8458,"yep":8459,"typical":8460,"shoulders":8461,"valley":8462,"fecture":8463,"distinct":8464,"cuit":8465,"Plat":8466,"YOUR":8467,"tropical":8468,"Railway":8469,"sustain":8470,"inhabitants":8471,"pregnant":8472,"Netherlands":8473,"Gul":8474,"sang":8475,"bec":8476,"admir":8477,"lipp":8478,"Thurs":8479,"sheet":8480,"specially":8481,"Anti":8482,"mirror":8483,"widely":8484,"districts":8485,"objects":8486,"Muhammad":8487,"splend":8488,"knocked":8489,"deserve":8490,"administration":8491,"discovery":8492,"Israel":8493,"bach":8494,"flies":8495,"rein":8496,"esome":8497,"ros":8498,"washed":8499,"ideal":8500,"compar":8501,"regional":8502,"legend":8503,"temple":8504,"politan":8505,"operated":8506,"explos":8507,"fairy":8508,"ibi":8509,"worthy":8510,"reduced":8511,"Ri":8512,"Santa":8513,"sought":8514,"rolled":8515,"loan":8516,"naked":8517,"phones":8518,"elect":8519,"chae":8520,"copies":8521,"hoped":8522,"ceremony":8523,"Kan":8524,"Tay":8525,"bent":8526,"vet":8527,"haust":8528,"cops":8529,"negot":8530,"blast":8531,"span":8532,"Anth":8533,"Ross":8534,"consists":8535,"Short":8536,"collect":8537,"shortly":8538,"drinks":8539,"prisoners":8540,"earthqu":8541,"apore":8542,"Singapore":8543,"discussion":8544,"delivered":8545,"maiden":8546,"demonstr":8547,"struggle":8548,"Honey":8549,"Ms":8550,"uff":8551,"thew":8552,"lover":8553,"personally":8554,"personality":8555,"engers":8556,"onsense":8557,"videos":8558,"clubs":8559,"investment":8560,"spiritual":8561,"individuals":8562,"benefits":8563,"washing":8564,"tube":8565,"Education":8566,"inspired":8567,"Ama":8568,"Fi":8569,"Main":8570,"SA":8571,"liquid":8572,"constitution":8573,"1920":8574,"torney":8575,"aws":8576,"tons":8577,"1962":8578,"Blood":8579,"Steven":8580,"programme":8581,"Represent":8582,"Grandma":8583,"Toronto":8584,"toilet":8585,"Buck":8586,"LI":8587,"ograph":8588,"inary":8589,"anno":8590,"rear":8591,"toast":8592,"aser":8593,"iture":8594,"moments":8595,"tram":8596,"hers":8597,"exhaust":8598,"aska":8599,"gene":8600,"shaped":8601,"hearts":8602,"snake":8603,"quietly":8604,"Darling":8605,"graduate":8606,"graduated":8607,"jacket":8608,"Normandie":8609,"intellect":8610,"grateful":8611,"86":8612,"Band":8613,"Ford":8614,"Morgan":8615,"TE":8616,"bay":8617,"dum":8618,"waters":8619,"sufficient":8620,"raw":8621,"items":8622,"guests":8623,"stolen":8624,"cloth":8625,"aughters":8626,"cript":8627,"purple":8628,"collap":8629,"principal":8630,"merely":8631,"Philadel":8632,"recommend":8633,"branches":8634,"Philadelphia":8635,"85":8636,"Pier":8637,"revol":8638,"tos":8639,"tomb":8640,"alleg":8641,"betray":8642,"uss":8643,"Heaven":8644,"icted":8645,"Allen":8646,"Def":8647,"Ark":8648,"ctors":8649,"1941":8650,"equation":8651,"soup":8652,"Miller":8653,"knees":8654,"breathing":8655,"relief":8656,"Brazil":8657,"employe":8658,"Him":8659,"PA":8660,"Wild":8661,"nit":8662,"punch":8663,"vant":8664,"leaf":8665,"oted":8666,"aints":8667,"extr":8668,"Start":8669,"inton":8670,"Donald":8671,"surgery":8672,"ATOR":8673,"extended":8674,"experienced":8675,"Corpor":8676,"Brook":8677,"Special":8678,"nuclear":8679,"frequently":8680,"stroke":8681,"architect":8682,"alternative":8683,"neighborhood":8684,"Google":8685,"Thursday":8686,"89":8687,"800":8688,"Happy":8689,"fab":8690,"festival":8691,"rating":8692,"inations":8693,"remove":8694,"ceased":8695,"cano":8696,"intend":8697,"crush":8698,"Austria":8699,"IST":8700,"grandfather":8701,"answers":8702,"existing":8703,"kissed":8704,"Honor":8705,"nurse":8706,"granted":8707,"Officer":8708,"Mmm":8709,"Mount":8710,"ugu":8711,"ygen":8712,"debt":8713,"illness":8714,"proto":8715,"letting":8716,"izes":8717,"distingu":8718,"iami":8719,"stepped":8720,"defense":8721,"devices":8722,"Mexican":8723,"valuable":8724,"metery":8725,"composer":8726,"66":8727,"Sweet":8728,"moun":8729,"inal":8730,"theless":8731,"atically":8732,"enna":8733,"orrow":8734,"implement":8735,"demo":8736,"prise":8737,"despite":8738,"minds":8739,"1966":8740,"Post":8741,"Kevin":8742,"claims":8743,"description":8744,"physics":8745,"emotions":8746,"Philipp":8747,"Croat":8748,"Bul":8749,"Winter":8750,"fond":8751,"inse":8752,"rever":8753,"begun":8754,"ading":8755,"umph":8756,"smiled":8757,"smiling":8758,"Indones":8759,"listened":8760,"crossing":8761,"defined":8762,"loaded":8763,"executive":8764,"occupied":8765,"Ald":8766,"Aren":8767,"End":8768,"Jam":8769,"Maine":8770,"Rom":8771,"cant":8772,"ku":8773,"rage":8774,"sid":8775,"error":8776,"toy":8777,"lecture":8778,"belt":8779,"chat":8780,"uts":8781,"confir":8782,"disput":8783,"margin":8784,"throne":8785,"Asse":8786,"childhood":8787,"1980s":8788,"alongside":8789,"operate":8790,"profession":8791,"Palace":8792,"global":8793,"pollution":8794,"punishment":8795,"abandoned":8796,"explanation":8797,"hockey":8798,"Dy":8799,"Gall":8800,"LL":8801,"Pret":8802,"bishop":8803,"zi":8804,"isk":8805,"Things":8806,"nathaniel":8807,"spit":8808,"Chi":8809,"disgust":8810,"crete":8811,"Conference":8812,"reasonable":8813,"lately":8814,"1954":8815,"craw":8816,"mistry":8817,"Centre":8818,"capacity":8819,"83":8820,"Econ":8821,"Miami":8822,"Pad":8823,"Sly":8824,"dict":8825,"gies":8826,"joseph":8827,"uous":8828,"leap":8829,"images":8830,"shr":8831,"sailed":8832,"gray":8833,"reduce":8834,"preh":8835,"frag":8836,"fourteen":8837,"attacks":8838,"villages":8839,"championship":8840,"electricity":8841,"maximum":8842,"Eight":8843,"Rilla":8844,"eu":8845,"fiction":8846,"sul":8847,"ua":8848,"ón":8849,"eration":8850,"aga":8851,"lod":8852,"conqu":8853,"Web":8854,"Stone":8855,"aux":8856,"lotte":8857,"persu":8858,"elections":8859,"drives":8860,"returning":8861,"commander":8862,"Finally":8863,"grim":8864,"scored":8865,"pirate":8866,"emotional":8867,"strategy":8868,"gathered":8869,"Assembly":8870,"Face":8871,"HL":8872,"Live":8873,"Laughter":8874,"dating":8875,"piss":8876,"woo":8877,"reci":8878,"alpha":8879,"chess":8880,"usive":8881,"urban":8882,"tric":8883,"collected":8884,"borough":8885,"shops":8886,"chairman":8887,"printed":8888,"architecture":8889,"Bishop":8890,"Fun":8891,"preced":8892,"founder":8893,"column":8894,"voy":8895,"shots":8896,"Doesn":8897,"promoted":8898,"plause":8899,"candidate":8900,"Bla":8901,"Hook":8902,"Matt":8903,"PC":8904,"TED":8905,"WAS":8906,"bie":8907,"dated":8908,"admitted":8909,"coordin":8910,"absolute":8911,"depos":8912,"bold":8913,"holes":8914,"iao":8915,"avia":8916,"observ":8917,"underground":8918,"Beaut":8919,"Neil":8920,"parliament":8921,"Ask":8922,"meetings":8923,"Gram":8924,"violent":8925,"forests":8926,"absor":8927,"Idaho":8928,"convinced":8929,"FI":8930,"Mit":8931,"Os":8932,"Sever":8933,"fisher":8934,"sper":8935,"twin":8936,"vard":8937,"editor":8938,"tear":8939,"friendship":8940,"elev":8941,"warning":8942,"Moon":8943,"bedroom":8944,"Produ":8945,"experiences":8946,"bags":8947,"Silver":8948,"lifted":8949,"Hawai":8950,"rabbit":8951,"DNA":8952,"blo":8953,"daughters":8954,"merged":8955,"carriage":8956,"attering":8957,"largely":8958,"Plan":8959,"Emma":8960,"critics":8961,"Between":8962,"introduce":8963,"hills":8964,"initial":8965,"HAVE":8966,"phrase":8967,"expedition":8968,"BR":8969,"Coo":8970,"Press":8971,"Pardon":8972,"mier":8973,"wag":8974,"incorpor":8975,"enorm":8976,"icing":8977,"hay":8978,"acade":8979,"fox":8980,"merchant":8981,"sible":8982,"Coll":8983,"linear":8984,"1956":8985,"cleaning":8986,"contained":8987,"Airport":8988,"picking":8989,"nesday":8990,"ashamed":8991,"Federal":8992,"heavily":8993,"**":8994,"77":8995,"Nine":8996,"Pass":8997,"Sports":8998,"gross":8999,"rics":9000,"hab":9001,"Andy":9002,"foss":9003,"stops":9004,"INE":9005,"charges":9006,"fili":9007,"OUR":9008,"miser":9009,"cells":9010,"naturally":9011,"banks":9012,"votes":9013,"istol":9014,"Picard":9015,"Bible":9016,"Hop":9017,"Jos":9018,"Moo":9019,"OP":9020,"Sister":9021,"eve":9022,"gaz":9023,"sink":9024,"thief":9025,"imate":9026,"partly":9027,"precious":9028,"polis":9029,"1990s":9030,"passes":9031,"Hospital":9032,"approved":9033,"Romania":9034,"ivity":9035,"beaten":9036,"possession":9037,"behavior":9038,"Anthony":9039,"CA":9040,"Dale":9041,"Ice":9042,"Mons":9043,"MUS":9044,"Sally":9045,"dawn":9046,"jing":9047,"mr":9048,"ligh":9049,"Inc":9050,"landed":9051,"lessly":9052,"volunte":9053,"distin":9054,"1960s":9055,"testing":9056,"presidential":9057,"engineer":9058,"subjects":9059,"Check":9060,"Spring":9061,"diagno":9062,"Bir":9063,"Det":9064,"Hart":9065,"iet":9066,"wart":9067,"thread":9068,"bee":9069,"entry":9070,"amoun":9071,"neat":9072,"nowhere":9073,"dem":9074,"deli":9075,"essentially":9076,"primar":9077,"Forget":9078,"1952":9079,"1958":9080,"telephone":9081,"albums":9082,"Tomorrow":9083,"thesis":9084,"expecting":9085,"episodes":9086,"oxygen":9087,"conduct":9088,"wicked":9089,"delicious":9090,"probability":9091,"Dem":9092,"EX":9093,"Lion":9094,"NC":9095,"NARR":9096,"Pot":9097,"Ret":9098,"SW":9099,"cattle":9100,"ec":9101,"hated":9102,"iving":9103,"seats":9104,"optim":9105,"causing":9106,"tier":9107,"divine":9108,"arson":9109,"dynam":9110,"dull":9111,"Real":9112,"fron":9113,"lesson":9114,"sixteen":9115,"faction":9116,"sooner":9117,"starred":9118,"Among":9119,"amental":9120,"Muslim":9121,"NOT":9122,"mystery":9123,"reputation":9124,"Iraq":9125,"96":9126,"Gene":9127,"pse":9128,"inent":9129,"altogether":9130,"ester":9131,"icia":9132,"pee":9133,"illegal":9134,"Hell":9135,"uled":9136,"berry":9137,"ciences":9138,"posing":9139,"hire":9140,"frank":9141,"parad":9142,"producing":9143,"OULD":9144,"cott":9145,"Harrison":9146,"purposes":9147,"uesday":9148,"messages":9149,"Luther":9150,"prepare":9151,"Lisa":9152,"cigaret":9153,"Lam":9154,"Vis":9155,"cough":9156,"inches":9157,"anium":9158,"ington":9159,"stan":9160,"irts":9161,"una":9162,"aining":9163,"iffer":9164,"bug":9165,"awake":9166,"math":9167,"counting":9168,"compass":9169,"pulling":9170,"ighth":9171,"extent":9172,"Syd":9173,"kyo":9174,"projects":9175,"collabor":9176,"principle":9177,"documents":9178,"Slyne":9179,"NARRATOR":9180,"Nur":9181,"Ran":9182,"Same":9183,"ii":9184,"vacc":9185,"org":9186,"andy":9187,"oblig":9188,"fulness":9189,"smooth":9190,"Armen":9191,"ggie":9192,"spoon":9193,"Build":9194,"Congrat":9195,"Hugh":9196,"baseball":9197,"threatened":9198,"fortunate":9199,"historic":9200,"citizen":9201,"pronoun":9202,".&":9203,"Base":9204,"Born":9205,"Money":9206,"Nay":9207,"aud":9208,"cub":9209,"vary":9210,"yield":9211,"inform":9212,"robot":9213,"chim":9214,"etime":9215,"usa":9216,"notable":9217,"cakes":9218,"guards":9219,"stores":9220,"attached":9221,"beings":9222,"Norman":9223,"1961":9224,"classic":9225,"amongst":9226,"Internet":9227,"Footnote":9228,"Raj":9229,"negoti":9230,"Picardie":9231,"2nd":9232,"Fif":9233,"Ut":9234,"bass":9235,"pically":9236,"anced":9237,"adults":9238,"context":9239,"rak":9240,"brow":9241,"precise":9242,"Devil":9243,"differences":9244,"THER":9245,"champ":9246,"weethe":9247,"shoe":9248,"covering":9249,"1948":9250,"USA":9251,"properties":9252,"odecahedron":9253,"Jerry":9254,"GET":9255,"Campbell":9256,"thirteen":9257,"Save":9258,"Soph":9259,"rust":9260,"theatre":9261,"issa":9262,"isol":9263,"dios":9264,"guide":9265,"curren":9266,"logists":9267,"bush":9268,"gger":9269,"ighs":9270,"govern":9271,"Hope":9272,"classical":9273,"invasion":9274,"harmon":9275,"reaching":9276,"strongly":9277,"Ministry":9278,"superior":9279,"photos":9280,"session":9281,"Despite":9282,"Girls":9283,"seventeen":9284,"latest":9285,"journalist":9286,"invented":9287,"Congratulations":9288,"Sounds":9289,"Vin":9290,"nig":9291,"lims":9292,"agers":9293,"unconscious":9294,"thorough":9295,"bourne":9296,"initially":9297,"Freud":9298,"Egyp":9299,"94":9300,"Card":9301,"Kno":9302,"OH":9303,"Pur":9304,"Yan":9305,"ape":9306,"hits":9307,"narr":9308,"dol":9309,"unhappy":9310,"perce":9311,"Engine":9312,"quires":9313,"cotton":9314,"ixon":9315,"confident":9316,"joining":9317,"association":9318,"pirates":9319,"Olympic":9320,"category":9321,"exercise":9322,"Cop":9323,"dump":9324,"evol":9325,"jar":9326,"arc":9327,"acquired":9328,"rival":9329,"agency":9330,"articles":9331,"enda":9332,"useless":9333,"pride":9334,"newly":9335,"format":9336,"internal":9337,"consult":9338,"ucking":9339,"spirits":9340,"developing":9341,"Christianity":9342,"constructed":9343,"regarding":9344,"parallel":9345,"3rd":9346,"FA":9347,"Gas":9348,"Jon":9349,"Kil":9350,"LRB":9351,"lers":9352,"zone":9353,"toler":9354,"hears":9355,"soap":9356,"abol":9357,"Thou":9358,"shif":9359,"backs":9360,"downstairs":9361,"intent":9362,"standards":9363,"genus":9364,"singles":9365,"THIS":9366,"gged":9367,"fier":9368,"Series":9369,"Kelly":9370,"loyd":9371,"throwing":9372,"dedicated":9373,"bacter":9374,"models":9375,"intelligence":9376,"desperate":9377,"Wednesday":9378,"88":9379,"Lai":9380,"Pitt":9381,"RRB":9382,"WWE":9383,"cers":9384,"mouse":9385,"inju":9386,"recur":9387,"enote":9388,"encourage":9389,"arse":9390,"icies":9391,"haw":9392,"roots":9393,"lio":9394,"pei":9395,"ilton":9396,"trap":9397,"plates":9398,"...!":9399,"foc":9400,"wherever":9401,"lieutenant":9402,"Always":9403,"youngest":9404,"distant":9405,"1942":9406,"successfully":9407,"virus":9408,"Laura":9409,"Polish":9410,"hosted":9411,"Panama":9412,"Sidenote":9413,"Matthew":9414,"ILL":9415,"injured":9416,"technical":9417,"Liz":9418,"Vill":9419,"hind":9420,"mour":9421,"nations":9422,"rag":9423,"wars":9424,"theater":9425,"enne":9426,"essee":9427,"aco":9428,"gosh":9429,"constit":9430,"offers":9431,"renamed":9432,"headquarters":9433,"engines":9434,"1949":9435,"gently":9436,"ruined":9437,"Jews":9438,"Suf":9439,"index":9440,"repeat":9441,"constantly":9442,"slipped":9443,"Hollywood":9444,"Tennessee":9445,"Sydney":9446,"Bri":9447,"Clear":9448,"Ned":9449,"Nik":9450,"bars":9451,"eed":9452,"sis":9453,"zoo":9454,"instit":9455,"render":9456,"peasant":9457,"shield":9458,"ifer":9459,"rescue":9460,"offering":9461,"intention":9462,"tenance":9463,"Tokyo":9464,"topher":9465,"servants":9466,"ARD":9467,"1943":9468,"1946":9469,"1959":9470,"Christians":9471,"aboard":9472,"ulties":9473,"taxes":9474,"argue":9475,"Yoon":9476,"mysterious":9477,"Following":9478,"Der":9479,"Fur":9480,"Nel":9481,"UM":9482,"bilities":9483,"pond":9484,"sna":9485,"tox":9486,"acles":9487,"wig":9488,"rivers":9489,"outs":9490,"neath":9491,"ules":9492,"holy":9493,"Ancient":9494,"heading":9495,"hurts":9496,"1950":9497,"wondered":9498,"protected":9499,"arrive":9500,"privile":9501,"principles":9502,"rapidly":9503,"writers":9504,"permanent":9505,"Field":9506,"Ki":9507,"KNOW":9508,"WS":9509,"inner":9510,"stic":9511,"oty":9512,"solo":9513,"ifu":9514,"sav":9515,"raising":9516,"blew":9517,"buck":9518,"vessels":9519,"Bey":9520,"rows":9521,"movements":9522,"Gran":9523,"wishes":9524,"seventh":9525,"computers":9526,"expressed":9527,"Deput":9528,"uttered":9529,"emotion":9530,"newspapers":9531,"relatively":9532,"ethnic":9533,"organizations":9534,"confirmed":9535,"87":9536,"Cook":9537,"NER":9538,"Set":9539,"Sum":9540,"Wis":9541,"bis":9542,"cart":9543,"eco":9544,"phase":9545,"reply":9546,"esc":9547,"seized":9548,"modif":9549,"opens":9550,"assigned":9551,"intense":9552,"Unless":9553,"Rollo":9554,"greatly":9555,"IND":9556,"THING":9557,"Conserv":9558,"Color":9559,"ruin":9560,"involve":9561,"excite":9562,"creatures":9563,"duties":9564,"gorith":9565,"Patrick":9566,"fantastic":9567,"resource":9568,"primarily":9569,"120":9570,"52":9571,"54":9572,"Az":9573,"Bry":9574,"Ev":9575,"Fat":9576,"Lav":9577,"Slo":9578,"TI":9579,"Tuesday":9580,"VI":9581,"dwell":9582,"oli":9583,"pus":9584,"isen":9585,"semi":9586,"chop":9587,"cope":9588,"pock":9589,"emperor":9590,"writes":9591,"Beth":9592,"Develo":9593,"shower":9594,"policies":9595,"valid":9596,"glance":9597,"Moz":9598,"crimes":9599,"Grant":9600,"wheels":9601,"secretary":9602,"selection":9603,"Apple":9604,"Judy":9605,"distribution":9606,"Franz":9607,"debate":9608,"adventure":9609,"Prom":9610,"dign":9611,"fred":9612,"yl":9613,"amid":9614,"tery":9615,"abilities":9616,"concrete":9617,"compete":9618,"lasted":9619,"loop":9620,"slave":9621,"hurricane":9622,"inosa":9623,"porter":9624,"swift":9625,"opportunities":9626,"Origin":9627,"bubbles":9628,"scheme":9629,"Clark":9630,"assault":9631,"provinces":9632,"59":9633,"Burn":9634,"Cru":9635,"Mort":9636,"abe":9637,"zon":9638,"beans":9639,"limb":9640,"rip":9641,"abi":9642,"agle":9643,"loving":9644,"trunk":9645,"pole":9646,"item":9647,"serves":9648,"tainment":9649,"closing":9650,"Molly":9651,"Holl":9652,"emphas":9653,"wooden":9654,"grandma":9655,"recognition":9656,"literary":9657,"roughly":9658,"license":9659,"celebrated":9660,"sighs":9661,"Television":9662,"Hitler":9663,"weetheart":9664,"PH":9665,"SN":9666,"faint":9667,"mph":9668,"ala":9669,"ication":9670,"eties":9671,"goat":9672,"ille":9673,"Stud":9674,"Left":9675,"survey":9676,"ashes":9677,"fires":9678,"nearer":9679,"Lock":9680,"Austen":9681,"concerns":9682,"Enough":9683,"Luke":9684,"definition":9685,"accused":9686,"Electr":9687,"instruments":9688,"vacation":9689,"begged":9690,"wrestling":9691,"obtained":9692,"Certain":9693,"Pretty":9694,"AG":9695,"Bos":9696,"Cher":9697,"Cass":9698,"CAN":9699,"DR":9700,"Ep":9701,"Kings":9702,"thedr":9703,"owing":9704,"users":9705,"agne":9706,"pless":9707,"Chang":9708,"ensity":9709,"Reagan":9710,"laura":9711,"worldwide":9712,"planes":9713,"greet":9714,"1940":9715,"Peace":9716,"squad":9717,"competed":9718,"railroad":9719,"companion":9720,"prayer":9721,"survived":9722,"Lynd":9723,"tickets":9724,"affairs":9725,"Turkish":9726,"splendid":9727,"Avenue":9728,"Bio":9729,"Dri":9730,"Eu":9731,"Hou":9732,"Karen":9733,"NFL":9734,"cure":9735,"dot":9736,"efficient":9737,"effici":9738,"fake":9739,"fice":9740,"hug":9741,"vex":9742,"rop":9743,"wives":9744,"keen":9745,"fever":9746,"wolf":9747,"affili":9748,"goodbye":9749,"longest":9750,"Allah":9751,"courts":9752,"elephant":9753,"passengers":9754,"eases":9755,"boring":9756,"titled":9757,"1938":9758,"idae":9759,"potato":9760,"Maryland":9761,"deeply":9762,"Bobby":9763,"platforms":9764,"whispered":9765,"incredible":9766,"WITH":9767,"Corn":9768,"Loo":9769,"knight":9770,"pap":9771,"aro":9772,"stack":9773,"geon":9774,"cla":9775,"awards":9776,"hibit":9777,"Bee":9778,"lessons":9779,"Tolom":9780,"continent":9781,"animated":9782,"1939":9783,"defence":9784,"memories":9785,"storage":9786,"ACK":9787,"Terri":9788,"onathan":9789,"evident":9790,"Yugo":9791,"Hotel":9792,"sample":9793,"Taylor":9794,"Tolombeh":9795,"Gary":9796,"Jonathan":9797,"Nations":9798,"Napo":9799,"Round":9800,"dale":9801,"gles":9802,"pump":9803,"wounds":9804,"restr":9805,"whoops":9806,"chin":9807,"cement":9808,"united":9809,"femin":9810,"prob":9811,"owns":9812,"Carlos":9813,"Drink":9814,"1955":9815,"Charlotte":9816,"arrival":9817,"exception":9818,"containing":9819,"considerable":9820,"Alexand":9821,"Victor":9822,"paintings":9823,"Taipei":9824,"poetry":9825,"apologize":9826,"remote":9827,"Suffolk":9828,"Cri":9829,"Flo":9830,"MAR":9831,"Pay":9832,"PRO":9833,"tune":9834,"algorith":9835,"icos":9836,"ige":9837,"whoever":9838,"spill":9839,"awesome":9840,"curtain":9841,"Grace":9842,"1953":9843,"Place":9844,"starring":9845,"Muslims":9846,"Portugu":9847,"earliest":9848,"honestly":9849,"demanded":9850,"alien":9851,"consciousness":9852,"Mountains":9853,"Gardens":9854,"crisis":9855,"Bangladesh":9856,"earthquake":9857,"Gib":9858,"Kay":9859,"bby":9860,"gins":9861,"vable":9862,"ww":9863,"wax":9864,"thi":9865,"encounter":9866,"asia":9867,"ott":9868,"entit":9869,"kel":9870,"decent":9871,"decre":9872,"sailing":9873,"aft":9874,"diseases":9875,"ilda":9876,"monarch":9877,"medium":9878,"Indeed":9879,"shole":9880,"treasure":9881,"deaths":9882,"tests":9883,"filling":9884,"gradually":9885,"pushing":9886,"frozen":9887,"Research":9888,"achieved":9889,"thedral":9890,"Horn":9891,"Oak":9892,"Psy":9893,"Sighs":9894,"Var":9895,"bish":9896,"bark":9897,"fest":9898,"gif":9899,"nan":9900,"yum":9901,"urer":9902,"pover":9903,"quis":9904,"aston":9905,"Solo":9906,"hore":9907,"gras":9908,"clar":9909,"merry":9910,"perspect":9911,"ameter":9912,"cham":9913,"passenger":9914,"170":9915,"searching":9916,"churches":9917,"grief":9918,"immediate":9919,"Shiv":9920,"stretched":9921,"Career":9922,"rhyth":9923,"Otto":9924,"mounted":9925,"Low":9926,"ND":9927,"Raw":9928,"instein":9929,"torian":9930,"beard":9931,"ione":9932,"shining":9933,"Being":9934,"cray":9935,"genius":9936,"Histor":9937,"factors":9938,"Adams":9939,"Baron":9940,"extensive":9941,"brig":9942,"faithful":9943,"Lisbon":9944,"explor":9945,"Protestant":9946,"Portuguese":9947,"81":9948,"Dra":9949,"Ren":9950,"ket":9951,"mac":9952,"orient":9953,"leans":9954,"shan":9955,"partners":9956,"pton":9957,"surname":9958,"tribut":9959,"Connor":9960,"facing":9961,"Forest":9962,"formerly":9963,"campus":9964,"relationships":9965,"blowing":9966,"extraordinary":9967,"knee":9968,"contrast":9969,"rarely":9970,"structures":9971,"remarkable":9972,"Chairman":9973,"56":9974,"Dude":9975,"Rem":9976,"Sn":9977,"Wrest":9978,"fetch":9979,"jac":9980,"rors":9981,"vices":9982,"represents":9983,"icop":9984,"owed":9985,"rib":9986,"usal":9987,"prop":9988,"aku":9989,"underneath":9990,"Area":9991,"Boyer":9992,"facts":9993,"Administr":9994,"ilian":9995,"limits":9996,"Christopher":9997,"educated":9998,"Poland":9999,"sensitive":10000,"Wayne":10001,"Larry":10002,"Entertainment":10003,"Labour":10004,"amounts":10005,"Lim":10006,"Pau":10007,"Ral":10008,"ffin":10009,"nun":10010,"tat":10011,"inity":10012,"requires":10013,"isation":10014,"alarm":10015,"Theatre":10016,"lored":10017,"umin":10018,"exposed":10019,"endar":10020,"grun":10021,"divisions":10022,"ordan":10023,"timore":10024,"Security":10025,"farther":10026,"legit":10027,"sounded":10028,"liga":10029,"boxes":10030,"Lucy":10031,"judgment":10032,"imagination":10033,"Finn":10034,"influenced":10035,"motiv":10036,"Imperial":10037,"Judge":10038,"reckon":10039,"distributed":10040,"estimated":10041,"Buddhis":10042,"==":10043,"Fight":10044,"rural":10045,"toss":10046,"edy":10047,"ingly":10048,"seated":10049,"idency":10050,"ghan":10051,"exists":10052,"ako":10053,"visual":10054,"franch":10055,"ternal":10056,"Going":10057,"winds":10058,"officials":10059,"1957":10060,"Austrian":10061,"Baltimore":10062,"rupted":10063,"Premier":10064,"specifically":10065,"bubble":10066,"arrangement":10067,"cticut":10068,"Moore":10069,"):":10070,"4th":10071,"51":10072,"92":10073,"BUT":10074,"IA":10075,"Ugh":10076,"hen":10077,"wins":10078,"thunder":10079,"recovered":10080,"rome":10081,"riot":10082,"pelled":10083,"opposition":10084,"uma":10085,"typically":10086,"Therefore":10087,"ignor":10088,"counsel":10089,"ermine":10090,"Ship":10091,"beds":10092,"facilities":10093,"mistakes":10094,"prisoner":10095,"existed":10096,"Hamilton":10097,"screaming":10098,"troubles":10099,"customers":10100,"Papa":10101,"Connecticut":10102,"72":10103,"Bavar":10104,"Creek":10105,"SU":10106,"cows":10107,"nis":10108,"pas":10109,"tent":10110,"ão":10111,"stamp":10112,"bears":10113,"adjust":10114,"rill":10115,"trace":10116,"divide":10117,"Stat":10118,"presentation":10119,"payment":10120,"Geography":10121,"depending":10122,"Scots":10123,"goddamn":10124,"straw":10125,"Caes":10126,"educational":10127,"anxious":10128,"Assyrian":10129,"Roberts":10130,"Ladies":10131,"excitement":10132,"58":10133,"Jordan":10134,"Kon":10135,"Pict":10136,"SP":10137,"Tun":10138,"jazz":10139,"icians":10140,"ieur":10141,"bron":10142,"Chand":10143,"aval":10144,"server":10145,"visitors":10146,"chemistry":10147,"kinda":10148,"Leo":10149,"functions":10150,"Norway":10151,"Program":10152,"grapher":10153,"1951":10154,"agedy":10155,"Barry":10156,"damaged":10157,"policeman":10158,"representing":10159,"Media":10160,"feeding":10161,"linked":10162,"universities":10163,"equivalent":10164,"Temple":10165,"Personal":10166,"enormous":10167,"Nelson":10168,"Napole":10169,"Amand":10170,"Fle":10171,"Having":10172,"Jour":10173,"VID":10174,"lE":10175,"nonsense":10176,"depression":10177,"sauce":10178,"prices":10179,"Shel":10180,"scrap":10181,"offices":10182,"curi":10183,"Micro":10184,"celebrate":10185,"surrounding":10186,"administrative":10187,"divorced":10188,"sacrifice":10189,"Meanwhile":10190,"Manipur":10191,"Amanda":10192,"FM":10193,"Fame":10194,"GRO":10195,"Ped":10196,"Pun":10197,"Rap":10198,"Us":10199,"bond":10200,"ego":10201,"gender":10202,"lid":10203,"mister":10204,"rin":10205,"chor":10206,"sore":10207,"nels":10208,"cance":10209,"gran":10210,"assass":10211,"scary":10212,"elsewhere":10213,"Organ":10214,"Shah":10215,"1937":10216,"ICE":10217,"frogs":10218,"loads":10219,"introduction":10220,"attempted":10221,"providing":10222,"breathe":10223,"Corporation":10224,"Econom":10225,"injuries":10226,"78":10227,"Cry":10228,"Cel":10229,"Dream":10230,"Lind":10231,"Male":10232,"Snow":10233,"Tower":10234,"fits":10235,"yed":10236,"inspir":10237,"toes":10238,"orchestra":10239,"inger":10240,"chron":10241,"adap":10242,"dox":10243,"peas":10244,"deput":10245,"comic":10246,"exclaimed":10247,"seeking":10248,"cler":10249,"ppers":10250,"scow":10251,"internet":10252,"cleared":10253,"lavery":10254,"Julie":10255,"bands":10256,"bara":10257,"160":10258,"depth":10259,"steady":10260,"Laure":10261,"difficulties":10262,"safely":10263,"panic":10264,"Sara":10265,"hopes":10266,"conducted":10267,"Chuckles":10268,"tremend":10269,"retirement":10270,"envelope":10271,"destruction":10272,"Yugosl":10273,"Denn":10274,"Fig":10275,"Sky":10276,"erick":10277,"itage":10278,"entering":10279,"apples":10280,"cave":10281,"Chile":10282,"warn":10283,"grounds":10284,"Serb":10285,"speaker":10286,"Edin":10287,"strip":10288,"susp":10289,"SCRE":10290,"Shoot":10291,"barely":10292,"gravity":10293,"focused":10294,"Bavaria":10295,"'?":10296,"91":10297,"93":10298,"Aha":10299,"Dall":10300,"Fal":10301,"Gir":10302,"Hom":10303,"Lax":10304,"Made":10305,"MOR":10306,"Rho":10307,"Ul":10308,"og":10309,"rude":10310,"uits":10311,"iner":10312,"staring":10313,"behalf":10314,"chlor":10315,"feld":10316,"backwards":10317,"landing":10318,"fuge":10319,"northeast":10320,"insist":10321,"osity":10322,"Indep":10323,"slaves":10324,"True":10325,"placing":10326,"organic":10327,"particles":10328,"equally":10329,"EST":10330,"funds":10331,"Crown":10332,"racing":10333,"Daisy":10334,"transferred":10335,"Monsieur":10336,"Bird":10337,"FO":10338,"Kiss":10339,"gum":10340,"ui":10341,"theastern":10342,"Whit":10343,"cane":10344,"tile":10345,"leton":10346,"vessel":10347,"scare":10348,"fined":10349,"primit":10350,"cury":10351,"Shh":10352,"shares":10353,"addle":10354,"Orleans":10355,"prompt":10356,"Amendment":10357,"appearances":10358,"lamb":10359,"digital":10360,"possessed":10361,"Half":10362,"documentary":10363,"descend":10364,"dunno":10365,"Wolf":10366,"Representatives":10367,"Deputy":10368,"perspective":10369,"Independ":10370,"5th":10371,"?'":10372,"Ath":10373,"FE":10374,"UCK":10375,"tast":10376,"♪♪":10377,"ensure":10378,"itated":10379,"seeds":10380,"ido":10381,"lime":10382,"sher":10383,"oppon":10384,"excess":10385,"igen":10386,"boards":10387,"Neither":10388,"18th":10389,"lighting":10390,"breed":10391,"Mayor":10392,"Coming":10393,"lads":10394,"barrel":10395,"Except":10396,"ringing":10397,"controls":10398,"floating":10399,"determine":10400,"ifying":10401,"sandwich":10402,"voted":10403,"occasionally":10404,"Broadway":10405,"chapter":10406,"feathers":10407,"Network":10408,"Blair":10409,"Cooper":10410,"fierce":10411,"Develop":10412,"Edinburgh":10413,"Lyn":10414,"Mine":10415,"Mars":10416,"RY":10417,"dinosa":10418,"eras":10419,"otion":10420,"abund":10421,"clin":10422,"whereas":10423,"mini":10424,"izon":10425,"conscience":10426,"files":10427,"Dragon":10428,"garbage":10429,"cuff":10430,"Guy":10431,"bills":10432,"chairs":10433,"sequence":10434,"belonged":10435,"foolish":10436,"robber":10437,"performing":10438,"Gyp":10439,"attracted":10440,"Admiral":10441,"bunny":10442,"components":10443,"accounts":10444,"Business":10445,"Whether":10446,"shelter":10447,"Ralph":10448,"71":10449,"Hindu":10450,"Len":10451,"Sem":10452,"Sax":10453,"WOR":10454,"pant":10455,"pardon":10456,"scan":10457,"sack":10458,"atures":10459,"ision":10460,"adm":10461,"imper":10462,"manif":10463,"compos":10464,"essential":10465,"bore":10466,"everyday":10467,"Unlike":10468,"monkey":10469,"fame":10470,"march":10471,"Almost":10472,"Marshall":10473,"foundation":10474,"creep":10475,"priests":10476,"household":10477,"supporting":10478,"ruler":10479,"Sarhad":10480,"fellows":10481,"leadership":10482,"absence":10483,"furniture":10484,"mantle":10485,"Egyptian":10486,"AH":10487,"Cre":10488,"FBI":10489,"gates":10490,"iro":10491,"jer":10492,"jung":10493,"pip":10494,"rates":10495,"rats":10496,"sweetheart":10497,"yοu":10498,"infect":10499,"onso":10500,"recycl":10501,"orous":10502,"Third":10503,"ilst":10504,"trait":10505,"owners":10506,"ansion":10507,"aved":10508,"mercy":10509,"awk":10510,"mono":10511,"supper":10512,"checking":10513,"Box":10514,"appearing":10515,"prominent":10516,"breaks":10517,"palm":10518,"banana":10519,"murderer":10520,"Much":10521,"finishing":10522,"suitable":10523,"COVID":10524,"farmers":10525,"qualified":10526,"employed":10527,"entertainment":10528,"Selena":10529,"Tube":10530,"intellectual":10531,"Edi":10532,"Ya":10533,"lane":10534,"ored":10535,"thirst":10536,"resem":10537,"bearing":10538,"rolling":10539,"adam":10540,"comments":10541,"cker":10542,"clam":10543,"buzz":10544,"talent":10545,"stopping":10546,"Ang":10547,"courses":10548,"vić":10549,"Meite":10550,"Champ":10551,"Poly":10552,"Guys":10553,"refuse":10554,"microphone":10555,"Rachel":10556,"diamond":10557,"attractive":10558,"!!":10559,".!":10560,"76":10561,"Dete":10562,"GI":10563,"dirt":10564,"ien":10565,"kan":10566,"kal":10567,"forbid":10568,"kee":10569,"dock":10570,"abroad":10571,"ups":10572,"aph":10573,"boots":10574,"dont":10575,"Inspector":10576,"ureau":10577,"worker":10578,"pressing":10579,"marine":10580,"Doc":10581,"cents":10582,"Dead":10583,"Brah":10584,"Lewis":10585,"warrant":10586,"musicians":10587,"culiar":10588,"hammer":10589,"Davis":10590,"1936":10591,"creative":10592,"violin":10593,"Belgi":10594,"uela":10595,"Region":10596,"dishes":10597,"nucle":10598,"beliefs":10599,"scarcely":10600,"Several":10601,"Hawaii":10602,"poverty":10603,"Caesar":10604,"Ax":10605,"Eve":10606,"MEN":10607,"Sis":10608,"fts":10609,"inging":10610,"sector":10611,"accompan":10612,"chase":10613,"christ":10614,"cod":10615,"nephe":10616,"mances":10617,"ulating":10618,"feared":10619,"tiger":10620,"scattered":10621,"Form":10622,"casting":10623,"effectively":10624,"trusted":10625,"unex":10626,"meantime":10627,"refers":10628,"philosopher":10629,"conclusion":10630,"labour":10631,"clouds":10632,"expanded":10633,"Lynde":10634,"entitled":10635,"Bou":10636,"Baker":10637,"Full":10638,"Las":10639,"Pacqu":10640,"Ry":10641,"WN":10642,"bam":10643,"cated":10644,"culti":10645,"hut":10646,"jur":10647,"kar":10648,"vital":10649,"informed":10650,"asshole":10651,"neuro":10652,"convent":10653,"confirm":10654,"iga":10655,"Anderson":10656,"spy":10657,"spark":10658,"spray":10659,"attan":10660,"genu":10661,"decades":10662,"Project":10663,"Plus":10664,"protein":10665,"panel":10666,"softly":10667,"Lawrence":10668,"execution":10669,"categor":10670,"assumed":10671,"Modern":10672,"Philippines":10673,"Pacquiao":10674,"Adri":10675,"ABC":10676,"Cold":10677,"Dist":10678,"Event":10679,"Nin":10680,"Native":10681,"fence":10682,"iety":10683,"lamp":10684,"wreck":10685,"enthus":10686,"rod":10687,"romance":10688,"chips":10689,"liance":10690,"coins":10691,"ett":10692,"ambul":10693,"Thought":10694,"peak":10695,"ishna":10696,"ideo":10697,"oland":10698,"bleeding":10699,"disaster":10700,"scul":10701,"flesh":10702,"versus":10703,"insult":10704,"farmer":10705,"shah":10706,"ggy":10707,"followers":10708,"skip":10709,"porters":10710,"landscape":10711,"statue":10712,"Madam":10713,"prints":10714,"housing":10715,"thology":10716,"impressed":10717,"Murray":10718,"lifetime":10719,"applications":10720,"delighted":10721,"Vegas":10722,"Foundation":10723,"kittie":10724,"battery":10725,"academic":10726,"Meitei":10727,"Ara":10728,"Boo":10729,"Cool":10730,"Fant":10731,"Gent":10732,"IGHT":10733,"Mack":10734,"Sound":10735,"ccer":10736,"diction":10737,"eighth":10738,"tables":10739,"anes":10740,"itter":10741,"iland":10742,"exceed":10743,"navig":10744,"divers":10745,"disappear":10746,"disappointed":10747,"Dove":10748,"genetic":10749,"helpful":10750,"chee":10751,"ugal":10752,"laying":10753,"Clare":10754,"Seriously":10755,"radiation":10756,"instantly":10757,"crops":10758,"cookie":10759,"briefly":10760,"patterns":10761,"Windows":10762,"infection":10763,"primitive":10764,"accompanied":10765,"53":10766,"DV":10767,"NHL":10768,"Wake":10769,"tis":10770,"outer":10771,"altar":10772,"arose":10773,"stadium":10774,"ayan":10775,"accord":10776,"shark":10777,"hollow":10778,"uda":10779,"guid":10780,"cared":10781,"triangle":10782,"denom":10783,"colleagues":10784,"pencil":10785,"midnight":10786,"Step":10787,"welfare":10788,"speaks":10789,"madam":10790,"tailor":10791,"Hurricane":10792,"kicked":10793,"Brothers":10794,"Community":10795,"aspects":10796,"techniques":10797,"rendered":10798,"agricultural":10799,"Indonesia":10800,"miserable":10801,"1000":10802,"Dak":10803,"GU":10804,"Rain":10805,"Uk":10806,"Vas":10807,"Yale":10808,"cage":10809,"eze":10810,"lah":10811,"mask":10812,"othy":10813,"rane":10814,"slavery":10815,"tion":10816,"tide":10817,"infant":10818,"theo":10819,"tow":10820,"edi":10821,"edges":10822,"orf":10823,"uted":10824,"Whoo":10825,"homo":10826,"offs":10827,"assess":10828,"despair":10829,"insane":10830,"Shir":10831,"Mayweather":10832,"approval":10833,"travelling":10834,"judges":10835,"secrets":10836,"Pola":10837,"memorial":10838,"races":10839,"Said":10840,"Author":10841,"participate":10842,"Laughs":10843,"ultimately":10844,"Sudden":10845,"governments":10846,"Houston":10847,"Development":10848,"genuine":10849,"74":10850,"Bac":10851,"DY":10852,"Dance":10853,"Jae":10854,"Nich":10855,"Wy":10856,"Wes":10857,"bors":10858,"iries":10859,"lac":10860,"recall":10861,"ori":10862,"bees":10863,"roit":10864,"immig":10865,"peculiar":10866,"antee":10867,"plug":10868,"click":10869,"dynasty":10870,"sery":10871,"athlet":10872,"helicop":10873,"drank":10874,"Mario":10875,"cares":10876,"iversary":10877,"relevant":10878,"programming":10879,"magnet":10880,"Minnes":10881,"touching":10882,"practically":10883,"militia":10884,"Small":10885,"Madame":10886,"routes":10887,"matrix":10888,"Nazi":10889,"Truth":10890,"Colorado":10891,"900":10892,"Cze":10893,"Easy":10894,"Kam":10895,"MR":10896,"Oli":10897,"Pas":10898,"Rot":10899,"SON":10900,"culation":10901,"dat":10902,"gage":10903,"hitting":10904,"mare":10905,"institution":10906,"restrict":10907,"eness":10908,"lix":10909,"improved":10910,"abstr":10911,"therap":10912,"sometime":10913,"atell":10914,"naught":10915,"forming":10916,"flush":10917,"Brus":10918,"airplane":10919,"secondary":10920,"shaking":10921,"missions":10922,"ART":10923,"Add":10924,"receiving":10925,"250":10926,"Quite":10927,"fluid":10928,"surprising":10929,"electronic":10930,"discussed":10931,"crop":10932,"smoking":10933,"criticism":10934,"shouted":10935,"Platform":10936,"69":10937,"DC":10938,"Glad":10939,"Mam":10940,"Sad":10941,"YE":10942,"cable":10943,"uct":10944,"inser":10945,"chip":10946,"wipe":10947,"adapt":10948,"rians":10949,"abdo":10950,"usage":10951,"peep":10952,"nold":10953,"umble":10954,"gel":10955,"spons":10956,"firms":10957,"Allison":10958,"17th":10959,"meets":10960,"Gray":10961,"Harris":10962,"THEY":10963,"UST":10964,"designs":10965,"travelled":10966,"mistress":10967,"options":10968,"Sandy":10969,"sorrow":10970,"Robinson":10971,"alphabet":10972,"Looking":10973,"73":10974,"700":10975,"Crow":10976,"Food":10977,"Gill":10978,"Jason":10979,"Jenn":10980,"Mama":10981,"Nixon":10982,"Pi":10983,"Rio":10984,"Wick":10985,"ais":10986,"ethan":10987,"lined":10988,"issi":10989,"itis":10990,"lete":10991,"roid":10992,"convince":10993,"ahn":10994,"astro":10995,"naval":10996,"eline":10997,"grain":10998,"assador":10999,"retreat":11000,"kindly":11001,"nerves":11002,"treas":11003,"copper":11004,"suggests":11005,"Franklin":11006,"resulted":11007,"packed":11008,"package":11009,"BETH":11010,"Reser":11011,"fraud":11012,"indicated":11013,"favourite":11014,"translated":11015,"vehicles":11016,"resistance":11017,"Ariz":11018,"divorce":11019,"Jenny":11020,"conservative":11021,"Kerman":11022,"Tonight":11023,"discipline":11024,"supplies":11025,"fascin":11026,"ifferent":11027,"institutions":11028,"62":11029,"Dig":11030,"JUL":11031,"Lot":11032,"Page":11033,"ln":11034,"lves":11035,"mild":11036,"mals":11037,"pier":11038,"sung":11039,"tid":11040,"infer":11041,"melt":11042,"hai":11043,"abuse":11044,"boot":11045,"selfish":11046,"Univers":11047,"izza":11048,"helor":11049,"Alicia":11050,"founding":11051,"Ontar":11052,"cuts":11053,"tested":11054,"casual":11055,"ESS":11056,"midst":11057,"Space":11058,"axis":11059,"Phone":11060,"Speaking":11061,"bench":11062,"multiply":11063,"Otherwise":11064,"cookies":11065,"sharks":11066,"vereign":11067,"municipal":11068,"Welsh":11069,"rushed":11070,"Islamic":11071,"Claire":11072,"Nancy":11073,"Square":11074,"PLAY":11075,"ranean":11076,"Kermanshah":11077,"Amb":11078,"Agent":11079,"Fars":11080,"Kid":11081,"OS":11082,"isms":11083,"encing":11084,"bells":11085,"liqu":11086,"quet":11087,"ppy":11088,"uding":11089,"embr":11090,"mines":11091,"flows":11092,"parking":11093,"crimin":11094,"Orange":11095,"hopefully":11096,"Speaker":11097,"crook":11098,"participated":11099,"affection":11100,"detective":11101,"solemn":11102,"translation":11103,"minimum":11104,"dreadful":11105,"nodded":11106,"escort":11107,"Napoleon":11108,"Dallas":11109,"nephew":11110,"Ontario":11111,"\"'":11112,"79":11113,"82":11114,"Dod":11115,"Especially":11116,"Ji":11117,"Stor":11118,"Tw":11119,"bund":11120,"gap":11121,"jim":11122,"phis":11123,"pace":11124,"paste":11125,"sits":11126,"tact":11127,"aly":11128,"itate":11129,"vertex":11130,"irrel":11131,"unlike":11132,"goin":11133,"sharing":11134,"trun":11135,"rescu":11136,"butt":11137,"ateur":11138,"brick":11139,"ssip":11140,"premi":11141,"glory":11142,"relatives":11143,"Orchestra":11144,"Exam":11145,"sweat":11146,"trading":11147,"Earl":11148,"Jesse":11149,"attempts":11150,"performances":11151,"rubber":11152,"weakness":11153,"maintained":11154,"eldest":11155,"SOME":11156,"lux":11157,"ruption":11158,"Popeye":11159,"universal":11160,"Ricky":11161,"Francesco":11162,"quantity":11163,"%.":11164,"CR":11165,"Cæ":11166,"Cou":11167,"Fac":11168,"Ridge":11169,"SR":11170,"kur":11171,"maker":11172,"ashore":11173,"stages":11174,"bels":11175,"rogen":11176,"coin":11177,"uncertain":11178,"unfortunately":11179,"deeper":11180,"tragedy":11181,"exit":11182,"geome":11183,"1919":11184,"blin":11185,"fairies":11186,"fles":11187,"duke":11188,"believes":11189,"mothers":11190,"Boys":11191,"deny":11192,"Execut":11193,"songwriter":11194,"Josh":11195,"invite":11196,"fairs":11197,"iki":11198,"dreaming":11199,"Perry":11200,"LAUS":11201,"1934":11202,"recovery":11203,"burnt":11204,"Medic":11205,"impul":11206,"Regional":11207,"Billboard":11208,"impressive":11209,"innit":11210,"butterfly":11211,"scholars":11212,"chuckles":11213,"lighthouse":11214,"Further":11215,"Minnesota":11216,"Brussels":11217,"Kha":11218,"KLAUS":11219,"Mess":11220,"Nash":11221,"Ol":11222,"vate":11223,"refuge":11224,"isa":11225,"beef":11226,"chances":11227,"amendment":11228,"imprison":11229,"unning":11230,"yourselves":11231,"avi":11232,"obst":11233,"flour":11234,"helpless":11235,"Section":11236,"kills":11237,"triumph":11238,"walks":11239,"stays":11240,"faculty":11241,"Gee":11242,"Foreign":11243,"businesses":11244,"considering":11245,"ridge":11246,"Jackie":11247,"cups":11248,"addressed":11249,"approaching":11250,"gorge":11251,"Upon":11252,"civilization":11253,"Apparently":11254,"residents":11255,"procedure":11256,"Bhaer":11257,"subsequently":11258,"guarantee":11259,"Building":11260,"Detective":11261,"JULlE":11262,"KLAUSNER":11263,");":11264,"84":11265,"Clay":11266,"DER":11267,"GUN":11268,"Ky":11269,"Pos":11270,"bind":11271,"echo":11272,"pairs":11273,"veland":11274,"chill":11275,"limp":11276,"weed":11277,"shy":11278,"quack":11279,"external":11280,"1918":11281,"downtown":11282,"disorder":11283,"bucks":11284,"pson":11285,"Deh":11286,"surrender":11287,"consin":11288,"transmit":11289,"barn":11290,"1950s":11291,"locations":11292,"circuit":11293,"Corps":11294,"Cheers":11295,"candy":11296,"thodox":11297,"blessed":11298,"situations":11299,"Beautiful":11300,"bacteria":11301,"Jose":11302,"Lan":11303,"Lane":11304,"Tit":11305,"Use":11306,"dick":11307,"rade":11308,"rational":11309,"‎,":11310,"orter":11311,"icial":11312,"artific":11313,"resign":11314,"flav":11315,"caravan":11316,"colours":11317,"synd":11318,"logic":11319,"insula":11320,"warri":11321,"kidn":11322,"hurried":11323,"returns":11324,"Manchester":11325,"dropping":11326,"13th":11327,"penny":11328,"Mickey":11329,"portray":11330,"describes":11331,"representative":11332,"patience":11333,"Surely":11334,"pigs":11335,"Louisiana":11336,"executed":11337,"frequent":11338,"tunnel":11339,"predict":11340,"mortal":11341,"martial":11342,"infinite":11343,"Wisconsin":11344,"GN":11345,"Kang":11346,"Nag":11347,"Rout":11348,"Sult":11349,"battles":11350,"intr":11351,"llen":11352,"idays":11353,"deliber":11354,"antis":11355,"Heart":11356,"feast":11357,"clown":11358,"monitor":11359,"wrap":11360,"carto":11361,"Near":11362,"regiment":11363,"tribe":11364,"substance":11365,"topic":11366,"calendar":11367,"layer":11368,"stern":11369,"drops":11370,"Walk":11371,"Species":11372,"Maced":11373,"funding":11374,"Terry":11375,"grocer":11376,"trucks":11377,"liberty":11378,"shouting":11379,"chiat":11380,"dragged":11381,"revenue":11382,"junior":11383,"Diego":11384,"accurate":11385,"Gulf":11386,"Brooklyn":11387,"franchise":11388,"Cæsar":11389,"Bed":11390,"Dyn":11391,"Eat":11392,"FR":11393,"Hud":11394,"Jin":11395,"Story":11396,"Wag":11397,"tan":11398,"wagon":11399,"thors":11400,"rec":11401,"solar":11402,"wels":11403,"compreh":11404,"exhibition":11405,"Nobel":11406,"tales":11407,"Cox":11408,"interior":11409,"closet":11410,"cheek":11411,"realise":11412,"Juan":11413,"statements":11414,"cries":11415,"presently":11416,"Chap":11417,"freak":11418,"publication":11419,"processes":11420,"involves":11421,"religions":11422,"Final":11423,"neighbors":11424,"opinions":11425,"oxid":11426,"crowded":11427,"occasions":11428,"cooked":11429,"Memor":11430,"Isabel":11431,"mammals":11432,"acceleration":11433,"igenous":11434,"Sarhadi":11435,"DVD":11436,"lahoma":11437,"Fem":11438,"Ground":11439,"Hoc":11440,"Lloyd":11441,"Usu":11442,"hh":11443,"zard":11444,"inqu":11445,"aning":11446,"anthro":11447,"theories":11448,"attorney":11449,"het":11450,"sections":11451,"aya":11452,"acre":11453,"lyrics":11454,"soever":11455,"coinc":11456,"irs":11457,"impro":11458,"aboo":11459,"ilation":11460,"trag":11461,"quote":11462,"1928":11463,"Somal":11464,"sprang":11465,"bru":11466,"intest":11467,"Sebas":11468,"venture":11469,"warming":11470,"Moscow":11471,"ails":11472,"painter":11473,"Abra":11474,"fuckin":11475,"periods":11476,"loyal":11477,"occurs":11478,"SHE":11479,"jumping":11480,"Cleveland":11481,"measured":11482,"candidates":11483,"schedule":11484,"disturb":11485,"distinguished":11486,"pockets":11487,"Suddenly":11488,"Agency":11489,"Ivan":11490,"Kaz":11491,"Lau":11492,"Mes":11493,"Tol":11494,"Yi":11495,"fs":11496,"lum":11497,"tang":11498,"yon":11499,"thal":11500,"thom":11501,"revi":11502,"oro":11503,"oria":11504,"esy":11505,"chen":11506,"nearest":11507,"pear":11508,"YouTube":11509,"pling":11510,"novels":11511,"prosper":11512,"gear":11513,"Inca":11514,"Unfortunately":11515,"happily":11516,"Dog":11517,"lightly":11518,"Arm":11519,"Julia":11520,"differently":11521,"ailing":11522,"shocked":11523,"directions":11524,"Country":11525,"ARS":11526,"fighter":11527,"sentiment":11528,"Warren":11529,"burden":11530,"Emmy":11531,"Vienna":11532,"Mommy":11533,"assistance":11534,"Peters":11535,"employment":11536,"anxiety":11537,"Hungarian":11538,"sacrific":11539,"technique":11540,"assignment":11541,"Certainly":11542,"awkward":11543,"Bowl":11544,"Gam":11545,"Iron":11546,"Might":11547,"Pin":11548,"Scient":11549,"YT":11550,"knot":11551,"sank":11552,"recru":11553,"eta":11554,"doggie":11555,"trapped":11556,"poster":11557,"presum":11558,"mons":11559,"charity":11560,"transition":11561,"distress":11562,"facility":11563,"Abd":11564,"expansion":11565,"USE":11566,"generations":11567,"Quest":11568,"combat":11569,"Bennet":11570,"Course":11571,"WHO":11572,"Oklahoma":11573,"Prefecture":11574,"Angel":11575,"fatal":11576,"SHO":11577,"ranked":11578,"Transport":11579,"Jefferson":11580,"Miy":11581,"vulner":11582,"magnific":11583,"GRUNTING":11584,"Amazon":11585,"disgusting":11586,"Arizona":11587,"!'":11588,"Bour":11589,"Chel":11590,"DIC":11591,"Einstein":11592,"Kirk":11593,"Katherine":11594,"LING":11595,"Nam":11596,"fict":11597,"kat":11598,"ré":11599,"swell":11600,"ān":11601,"orbit":11602,"velt":11603,"implic":11604,"uration":11605,"peek":11606,"dece":11607,"stove":11608,"strings":11609,"lighted":11610,"ATION":11611,"humanity":11612,"purse":11613,"Yorkshire":11614,"foods":11615,"grows":11616,"Spir":11617,"1935":11618,"techno":11619,"electron":11620,"sticks":11621,"peaceful":11622,"Fern":11623,"Upper":11624,"satisf":11625,"reveal":11626,"conception":11627,"HOYT":11628,"Clause":11629,"stretch":11630,"VERY":11631,"wisdom":11632,"blanket":11633,"proposal":11634,"efficiency":11635,"Apo":11636,"Fried":11637,"Kle":11638,"Nation":11639,"PER":11640,"iac":11641,"mature":11642,"oy":11643,"praised":11644,"wre":11645,"yers":11646,"rejected":11647,"yout":11648,"belly":11649,"lily":11650,"imie":11651,"dore":11652,"mol":11653,"uster":11654,"reader":11655,"Belie":11656,"ffalo":11657,"Bron":11658,"stealing":11659,"freely":11660,"Polit":11661,"consideration":11662,"gressive":11663,"routine":11664,"scientist":11665,"GOT":11666,"conductor":11667,"Solomon":11668,"Gang":11669,"Gerald":11670,"HERE":11671,"Hicks":11672,"Roose":11673,"borders":11674,"cater":11675,"hint":11676,"oath":11677,"pine":11678,"tissue":11679,"vamp":11680,"assure":11681,"stake":11682,"beloved":11683,"acious":11684,"adays":11685,"myth":11686,"convention":11687,"olas":11688,"Stadium":11689,"Rogers":11690,"vised":11691,"earning":11692,"pretending":11693,"rounds":11694,"lowers":11695,"annah":11696,"sleepy":11697,"designated":11698,"silk":11699,"Syria":11700,"Phill":11701,"fundamental":11702,"humili":11703,"nursery":11704,"Communist":11705,"owell":11706,"Swedish":11707,"estimate":11708,"Detroit":11709,"Holland":11710,"Journal":11711,"tremendous":11712,"Gentle":11713,"Roosevelt":11714,"Catherine":11715,"EC":11716,"IB":11717,"Ja":11718,"NBA":11719,"hatch":11720,"satell":11721,"andal":11722,"beep":11723,"liable":11724,"immen":11725,"doctr":11726,"abled":11727,"nell":11728,"Youth":11729,"resigned":11730,"ahed":11731,"1900":11732,"Door":11733,"carries":11734,"attribut":11735,"Marshal":11736,"Dev":11737,"Mohammad":11738,"tribes":11739,"subur":11740,"Indust":11741,"Afghan":11742,"Chah":11743,"concerning":11744,"crystal":11745,"grandmother":11746,"1932":11747,"Highness":11748,"Darwin":11749,"assured":11750,"exerc":11751,"purchase":11752,"interpretation":11753,"heimer":11754,"Persian":11755,"Lucas":11756,"restored":11757,"delivery":11758,"Belgium":11759,"Abraham":11760,"Bow":11761,"Fro":11762,"Gab":11763,"Jas":11764,"Kate":11765,"ML":11766,"Taye":11767,"Wat":11768,"rell":11769,"weary":11770,"mos":11771,"proportion":11772,"1929":11773,"diale":11774,"compounds":11775,"chell":11776,"leges":11777,"Maimie":11778,"iterranean":11779,"respir":11780,"twist":11781,"confusion":11782,"clients":11783,"enjoying":11784,"taxi":11785,"Championships":11786,"voting":11787,"Frederick":11788,"Jeffrey":11789,"intelligent":11790,"LAUGHS":11791,"slope":11792,"Argentina":11793,"Pitts":11794,"Age":11795,"Beng":11796,"Cand":11797,"Gus":11798,"Hig":11799,"Jake":11800,"OL":11801,"Tall":11802,"Tel":11803,"Treat":11804,"Tiger":11805,"bend":11806,"hoo":11807,"infr":11808,"eron":11809,"erals":11810,"ario":11811,"stam":11812,"idodecahedron":11813,"rily":11814,"historian":11815,"bol":11816,"blown":11817,"spaces":11818,"aches":11819,"distract":11820,"consent":11821,"shaw":11822,"recorder":11823,"ancestors":11824,"Services":11825,"networks":11826,"Walker":11827,"Atlanta":11828,"sequel":11829,"commanded":11830,"Medical":11831,"variable":11832,"belonging":11833,"anchor":11834,"punished":11835,"consequences":11836,"converted":11837,"Bernard":11838,"explosion":11839,"exhausted":11840,"Dennis":11841,"Ukrain":11842,"DA":11843,"Imag":11844,"Pon":11845,"Raf":11846,"Room":11847,"Sah":11848,"Saf":11849,"Spen":11850,"WAY":11851,"dent":11852,"vals":11853,"anas":11854,"recon":11855,"orphan":11856,"alter":11857,"oft":11858,"chatter":11859,"colored":11860,"alloc":11861,"tily":11862,"brut":11863,"undes":11864,"authors":11865,"disagree":11866,"anks":11867,"wrapped":11868,"tails":11869,"derived":11870,"compound":11871,"subscri":11872,"vocal":11873,"Maur":11874,"swept":11875,"Calm":11876,"extension":11877,"souls":11878,"gesture":11879,"hunger":11880,"sympathy":11881,"occupation":11882,"promotion":11883,"Craw":11884,"Domin":11885,"Faith":11886,"puzzle":11887,"Hockey":11888,"Cit":11889,"Dark":11890,"Fan":11891,"Gol":11892,"MC":11893,"Sign":11894,"Tak":11895,"yay":11896,"onge":11897,"reverse":11898,"archae":11899,"whilst":11900,"accent":11901,"imir":11902,"neur":11903,"Thirty":11904,"dee":11905,"deleg":11906,"conspir":11907,"contemporary":11908,"essay":11909,"1917":11910,"rape":11911,"ferry":11912,"monaster":11913,"thrust":11914,"intern":11915,"surve":11916,"Together":11917,"lists":11918,"Prote":11919,"anniversary":11920,"onym":11921,"Queens":11922,"electrical":11923,"Mediterranean":11924,"links":11925,"jamin":11926,"contrary":11927,"Swiss":11928,"Denmark":11929,"measures":11930,"troubled":11931,"astron":11932,"Stanley":11933,"argued":11934,"Rabbit":11935,"MUSIC":11936,"evolved":11937,"Sebastian":11938,"immense":11939,"\";":11940,"(),":11941,"Bun":11942,"DS":11943,"Fucking":11944,"Lang":11945,"Lower":11946,"Mans":11947,"Ore":11948,"XT":11949,"rays":11950,"ère":11951,"alike":11952,"aron":11953,"stiff":11954,"veter":11955,"sob":11956,"ainted":11957,"bored":11958,"fruits":11959,"charming":11960,"solutions":11961,"Norwe":11962,"Rights":11963,"aneously":11964,"choices":11965,"markets":11966,"Feel":11967,"Anybody":11968,"flex":11969,"generous":11970,"popularity":11971,"ROM":11972,"suspected":11973,"kerchief":11974,"RIO":11975,"cabinet":11976,"torians":11977,"Confederate":11978,"Armenian":11979,"rhythm":11980,"Dakota":11981,"Avi":11982,"Cot":11983,"Diam":11984,"HIS":11985,"Lily":11986,"Liver":11987,"Nature":11988,"Rub":11989,"Vene":11990,"hence":11991,"rud":11992,"vated":11993,"rebell":11994,"accus":11995,"oton":11996,"lier":11997,"uncomfortable":11998,"feud":11999,"worm":12000,"prophe":12001,"suits":12002,"aching":12003,"ppi":12004,"Costa":12005,"desired":12006,"Alfred":12007,"Devon":12008,"colony":12009,"buses":12010,"engagement":12011,"Affairs":12012,"Hero":12013,"controvers":12014,"dealt":12015,"reaches":12016,"array":12017,"terribly":12018,"destination":12019,"fucker":12020,"Vivie":12021,"cules":12022,"arrows":12023,"indicate":12024,"mechanism":12025,"climbed":12026,"Federation":12027,"bullshit":12028,"Craig":12029,"pursue":12030,"Technology":12031,"Cuba":12032,"neutral":12033,"mathematics":12034,"Krishna":12035,"gifts":12036,"Tayebi":12037,"61":12038,"Cow":12039,"MON":12040,"Sav":12041,"Vlad":12042,"Wars":12043,"gau":12044,"gled":12045,"mast":12046,"mia":12047,"oven":12048,"pile":12049,"vak":12050,"aspir":12051,"arte":12052,"uran":12053,"peo":12054,"shone":12055,"nomination":12056,"resulting":12057,"1913":12058,"1927":12059,"berries":12060,"nails":12061,"naima":12062,"ouses":12063,"oles":12064,"counted":12065,"cheaper":12066,"iolet":12067,"solic":12068,"cription":12069,"Price":12070,"penet":12071,"southeast":12072,"Mongo":12073,"Christine":12074,"creates":12075,"suggestion":12076,"catching":12077,"Republicans":12078,"ninth":12079,"cameras":12080,"brains":12081,"Hills":12082,"prayers":12083,"frequency":12084,"ranks":12085,"buttons":12086,"Antonio":12087,"Cabin":12088,"whistle":12089,"cigarette":12090,"pronounced":12091,"constitu":12092,"Jai":12093,"Liter":12094,"Video":12095,"Ward":12096,"Zone":12097,"lace":12098,"mult":12099,"sab":12100,"uch":12101,"reh":12102,"renew":12103,"tore":12104,"ashi":12105,"wilight":12106,"iry":12107,"dos":12108,"congress":12109,"inder":12110,"ichi":12111,"disc":12112,"spel":12113,"max":12114,"contents":12115,"lessness":12116,"pointing":12117,"membership":12118,"wallet":12119,"simpl":12120,"ifications":12121,"aneous":12122,"rington":12123,"ATT":12124,"grams":12125,"pause":12126,"cuits":12127,"Barbara":12128,"succession":12129,"boarding":12130,"REE":12131,"armies":12132,"Davy":12133,"learnt":12134,"GHS":12135,"Benjamin":12136,"holidays":12137,"mixt":12138,"audible":12139,"humor":12140,"Merry":12141,"approached":12142,"RIGHT":12143,"coward":12144,"Studios":12145,"alogue":12146,"satisfaction":12147,"Delta":12148,"polyhedron":12149,"scheduled":12150,"Admiralty":12151,"Falls":12152,"component":12153,"employees":12154,"Grammy":12155,"bloke":12156,"Demi":12157,"dignity":12158,"usalem":12159,"SCREAM":12160,"Due":12161,"Dug":12162,"Knight":12163,"Send":12164,"dough":12165,"ole":12166,"vague":12167,"thic":12168,"recover":12169,"liff":12170,"deem":12171,"golf":12172,"trash":12173,"convex":12174,"artistic":12175,"1914":12176,"1924":12177,"william":12178,"firing":12179,"descent":12180,"warned":12181,"16th":12182,"promote":12183,"ATTER":12184,"harsh":12185,"Guess":12186,"Charusa":12187,"Quiet":12188,"traditions":12189,"graphic":12190,"recognised":12191,"separation":12192,"Crit":12193,"DOOR":12194,"regularly":12195,"collar":12196,"protecting":12197,"Karl":12198,"sailors":12199,"Melbourne":12200,"consistent":12201,"blessing":12202,"adventures":12203,"preserved":12204,"Laughing":12205,"deputy":12206,"Usually":12207,"8th":12208,"Case":12209,"Census":12210,"Dash":12211,"Hamp":12212,"LM":12213,"Pil":12214,"UH":12215,"cm":12216,"jerk":12217,"kers":12218,"mie":12219,"pets":12220,"praise":12221,"rack":12222,"behave":12223,"upside":12224,"congrat":12225,"ums":12226,"Week":12227,"istinct":12228,"daylight":12229,"icken":12230,"strangers":12231,"finance":12232,"Allied":12233,"colum":12234,"irlines":12235,"joking":12236,"Newton":12237,"produces":12238,"smallest":12239,"coverage":12240,"classified":12241,"approve":12242,"Mississi":12243,"CHUCK":12244,"salary":12245,"1933":12246,"trol":12247,"representation":12248,"candle":12249,"Morris":12250,"Portugal":12251,"Angela":12252,"Jerusalem":12253,"Ferrier":12254,"threatening":12255,"comedian":12256,"pills":12257,"texts":12258,"trailer":12259,"Springs":12260,"behaviour":12261,"embarrassing":12262,"bridges":12263,"ignore":12264,"encouraged":12265,"convenient":12266,"insects":12267,"jungle":12268,"cheeks":12269,"Ain":12270,"Ade":12271,"Bret":12272,"Mis":12273,"Mig":12274,"Nad":12275,"Pir":12276,"Rat":12277,"VII":12278,"WANT":12279,"dared":12280,"xy":12281,"tock":12282,"seal":12283,"amuse":12284,"output":12285,"outta":12286,"deaf":12287,"deals":12288,"define":12289,"iler":12290,"spots":12291,"udge":12292,"sized":12293,"Allies":12294,"Brid":12295,"tennis":12296,"earl":12297,"surd":12298,"logies":12299,"THERE":12300,"steep":12301,"Convention":12302,"bargain":12303,"fights":12304,"sunshine":12305,"tourist":12306,"aysia":12307,"Library":12308,"waist":12309,"explore":12310,"concluded":12311,"reduction":12312,"spinning":12313,"organisation":12314,"preparation":12315,"Hunter":12316,"1930s":12317,"fabric":12318,"protocol":12319,"ambulance":12320,"Memorial":12321,"?!":12322,"Aah":12323,"CAR":12324,"Gh":12325,"Lt":12326,"QU":12327,"flights":12328,"hattan":12329,"jin":12330,"junk":12331,"tension":12332,"redi":12333,"reception":12334,"alert":12335,"secu":12336,"iders":12337,"doin":12338,"caf":12339,"provision":12340,"sheets":12341,"nail":12342,"wolves":12343,"backpack":12344,"adequ":12345,"disgu":12346,"makeup":12347,"handling":12348,"Alber":12349,"Around":12350,"earnest":12351,"identical":12352,"unted":12353,"nerve":12354,"aleh":12355,"denied":12356,"Carib":12357,"nicely":12358,"deadly":12359,"horizon":12360,"traits":12361,"messenger":12362,"planted":12363,"Design":12364,"Glen":12365,"assem":12366,"select":12367,"mysteries":12368,"chemicals":12369,"Gilbert":12370,"Puer":12371,"purchased":12372,"vegetables":12373,"Administration":12374,"Athlet":12375,"7th":12376,"Labor":12377,"Sex":12378,"Scand":12379,"bai":12380,"fet":12381,"lou":12382,"inge":12383,"Hear":12384,"tible":12385,"diameter":12386,"landlord":12387,"ensed":12388,"interrupted":12389,"Antar":12390,"comprom":12391,"visiting":12392,"Artic":12393,"Fruit":12394,"glor":12395,"muscle":12396,"slap":12397,"Geoff":12398,"Colon":12399,"businessman":12400,"Monte":12401,"cleaned":12402,"cliff":12403,"traveling":12404,"mistaken":12405,"striking":12406,"treaty":12407,"APRIO":12408,"Glass":12409,"demands":12410,"pillow":12411,"strategic":12412,"contribution":12413,"Graham":12414,"advertising":12415,"suspicious":12416,"procedures":12417,"Relax":12418,"Croatian":12419,"elevator":12420,"incorporated":12421,"propag":12422,"unexpected":12423,"DICAPRIO":12424,"Norwegian":12425,"Basket":12426,"Close":12427,"Name":12428,"PD":12429,"Zh":12430,"cine":12431,"punk":12432,"{\\":12433,"toe":12434,"alex":12435,"acon":12436,"negle":12437,"modest":12438,"shin":12439,"females":12440,"1921":12441,"ieval":12442,"elle":12443,"hog":12444,"clay":12445,"carpet":12446,"criter":12447,"polar":12448,"parks":12449,"curve":12450,"maintenance":12451,"believing":12452,"ANS":12453,"ANY":12454,"15th":12455,"signals":12456,"eats":12457,"Meet":12458,"Manhattan":12459,"choir":12460,"Harvard":12461,"Austin":12462,"increases":12463,"1931":12464,"fucked":12465,"continuous":12466,"petition":12467,"Malaysia":12468,"Helen":12469,"psychiat":12470,"percentage":12471,"sensation":12472,"mummy":12473,"liberal":12474,"criticized":12475,"Borough":12476,"Bradford":12477,"observation":12478,"Collins":12479,"icosidodecahedron":12480,"thiop":12481,"Edith":12482,"naughty":12483,"Route":12484,"Liverpool":12485,".-":12486,"Ach":12487,"Fuk":12488,"Fitz":12489,"GAS":12490,"HER":12491,"Mach":12492,"Stell":12493,"UC":12494,"couch":12495,"gown":12496,"ür":12497,"ingredi":12498,"alda":12499,"melo":12500,"hath":12501,"ceiling":12502,"condem":12503,"comot":12504,"oused":12505,"Deep":12506,"mploy":12507,"mush":12508,"aze":12509,"Comput":12510,"coron":12511,"corre":12512,"Clinton":12513,"tomato":12514,"circus":12515,"destiny":12516,"Samuel":12517,"Wouldn":12518,"experiments":12519,"accessible":12520,"evac":12521,"communicate":12522,"Democrats":12523,"Doug":12524,"CEO":12525,"phenomen":12526,"shipped":12527,"Teddy":12528,"Ronald":12529,"Total":12530,"Joyce":12531,"fossil":12532,"distinction":12533,"inspiration":12534,"tragic":12535,"Spirit":12536,"Bart":12537,"Brig":12538,"Drop":12539,"Ethiop":12540,"Fund":12541,"Flowers":12542,"Jama":12543,"Kor":12544,"Raven":12545,"Sty":12546,"aqu":12547,"mou":12548,"qi":12549,"sip":12550,"thel":12551,"atar":12552,"republic":12553,"reactions":12554,"tops":12555,"stared":12556,"versi":12557,"weld":12558,"absurd":12559,"pean":12560,"contempt":12561,"illery":12562,"exter":12563,"ista":12564,"centime":12565,"Reed":12566,"cyl":12567,"muscles":12568,"drill":12569,"drift":12570,"painful":12571,"hydr":12572,"Joan":12573,"organised":12574,"testim":12575,"Harvey":12576,"dealer":12577,"Stewart":12578,"rocket":12579,"Peru":12580,"practices":12581,"posted":12582,"defensive":12583,"bullets":12584,"Belle":12585,"scores":12586,"knocking":12587,"symme":12588,"assets":12589,"arguments":12590,"Caroline":12591,"correctly":12592,"corporate":12593,"lectures":12594,"folded":12595,"Oriental":12596,"purely":12597,"Hardy":12598,"convicted":12599,"sustainable":12600,"Mitchell":12601,"dynamic":12602,"vaccine":12603,"sculpt":12604,"ahedron":12605,"Mississippi":12606,"63":12607,"GER":12608,"Il":12609,"Pull":12610,"WELL":12611,"bree":12612,"bted":12613,"dried":12614,"pad":12615,"zan":12616,"án":12617,"leather":12618,"beam":12619,"amateur":12620,"notion":12621,"Andre":12622,"Sol":12623,"Noah":12624,"perpet":12625,"olin":12626,"minate":12627,"bully":12628,"Coach":12629,"handkerchief":12630,"Marcus":12631,"compare":12632,"colonel":12633,"parag":12634,"Note":12635,"designer":12636,"miracle":12637,"unemploy":12638,"Madrid":12639,"IDE":12640,"basement":12641,"Milton":12642,"Catholics":12643,"Delaware":12644,"Member":12645,"concentration":12646,"Sheriff":12647,"agriculture":12648,"Operation":12649,"becca":12650,"thoroughly":12651,"legitimate":12652,"adapted":12653,"Venez":12654,"columns":12655,"Bid":12656,"Chase":12657,"CBS":12658,"LSB":12659,"Nong":12660,"Saw":12661,"Zoo":12662,"aun":12663,"bonds":12664,"erie":12665,"thet":12666,"resolution":12667,"torial":12668,"ardo":12669,"hee":12670,"stitch":12671,"amm":12672,"usions":12673,"quot":12674,"lett":12675,"udd":12676,"serial":12677,".\"--":12678,"handled":12679,"Alz":12680,"Brun":12681,"homework":12682,"Sey":12683,"realised":12684,"productive":12685,"powered":12686,"brian":12687,"localities":12688,"involving":12689,"quarrel":12690,"Lords":12691,"hanged":12692,"repair":12693,"explains":12694,"Medal":12695,"OFF":12696,"ritual":12697,"ABOUT":12698,"Hungary":12699,"drums":12700,"challenged":12701,"algorithm":12702,"Microsoft":12703,"artificial":12704,"Klein":12705,"Pittsburgh":12706,"Athen":12707,"Either":12708,"IO":12709,"Kel":12710,"Nu":12711,"Ott":12712,"RSB":12713,"Sul":12714,"aa":12715,"jet":12716,"nik":12717,"rical":12718,"whel":12719,"wages":12720,"thre":12721,"remarked":12722,"ando":12723,"beck":12724,"advoc":12725,"amph":12726,"Theo":12727,"agre":12728,"unfortunate":12729,"depressed":12730,"gossip":12731,"Itanium":12732,"nobles":12733,"prosecut":12734,"1925":12735,"angular":12736,"spr":12737,"Chal":12738,"visits":12739,"mustn":12740,"layout":12741,"Leader":12742,"stell":12743,"gging":12744,"solvent":12745,"trend":12746,"ordering":12747,"ativity":12748,"politicians":12749,"Colum":12750,"Harold":12751,"paused":12752,"Key":12753,"twisted":12754,"respectively":12755,"companions":12756,"Nathan":12757,"mechanical":12758,"Sharon":12759,"Cemetery":12760,"writings":12761,"Jessica":12762,"democracy":12763,"marginal":12764,"ifully":12765,"Wrestling":12766,"fictional":12767,"Bot":12768,"BER":12769,"Rand":12770,"Spart":12771,"Slow":12772,"Sleep":12773,"VIII":12774,"dwar":12775,"ees":12776,"gus":12777,"hilda":12778,"vas":12779,"icon":12780,"entre":12781,"socks":12782,"liest":12783,"rik":12784,"locomot":12785,"trous":12786,"cans":12787,"applause":12788,"resort":12789,"sures":12790,"1915":12791,"1926":12792,"inevit":12793,"omb":12794,"divid":12795,"partial":12796,"merch":12797,"colm":12798,"namely":12799,"regards":12800,"kindness":12801,"untary":12802,"brew":12803,"decides":12804,"Trade":12805,"harbour":12806,"Anyone":12807,"mingham":12808,"Perfect":12809,"bottles":12810,"terrified":12811,"clip":12812,"definite":12813,"footballer":12814,"Highland":12815,"babe":12816,"activist":12817,"kissing":12818,"Madison":12819,"GOOD":12820,"Honest":12821,"communications":12822,"philosoph":12823,"bothered":12824,"Croce":12825,"switched":12826,"climbing":12827,"danced":12828,"widow":12829,"Hands":12830,"certific":12831,"registered":12832,"Phoen":12833,"Birmingham":12834,"Epis":12835,"gorgeous":12836,"Dynasty":12837,"peoples":12838,"Caribbean":12839,"Bast":12840,"Jere":12841,"Mut":12842,"Nah":12843,"NBC":12844,"Pick":12845,"Word":12846,"bicy":12847,"fers":12848,"gly":12849,"sins":12850,"twent":12851,"uan":12852,"xide":12853,"thum":12854,"hex":12855,"whip":12856,"enters":12857,"chasing":12858,"rifle":12859,"deer":12860,"shiver":12861,"suff":12862,"elic":12863,"elabor":12864,"ishes":12865,"clan":12866,"offensive":12867,"drown":12868,"polite":12869,"insisted":12870,"resting":12871,"Justin":12872,"fewer":12873,"filmed":12874,"controversi":12875,"vanished":12876,"hosts":12877,"Malcolm":12878,"Disco":12879,"celebration":12880,"pillar":12881,"Arabia":12882,"Obviously":12883,"Members":12884,"requirements":12885,"reserve":12886,"establishment":12887,"Nazis":12888,"organisms":12889,"torture":12890,"eyed":12891,"legislation":12892,"accomplished":12893,"Bloody":12894,"José":12895,"currency":12896,"Oregon":12897,"controversy":12898,"Alzheimer":12899,"Aud":12900,"Action":12901,"Cart":12902,"Catch":12903,"Mik":12904,"Non":12905,"Sie":12906,"bade":12907,"dash":12908,"groom":12909,"tο":12910,"inves":12911,"invisible":12912,"vell":12913,"riac":12914,"irrit":12915,"agencies":12916,"antib":12917,"artillery":12918,"composition":12919,"exhibit":12920,"1923":12921,"permit":12922,"acey":12923,"aude":12924,"Code":12925,"flame":12926,"INK":12927,"mainland":12928,"balloon":12929,"decade":12930,"kidney":12931,"Blake":12932,"Felix":12933,"pathetic":12934,"Lost":12935,"ibal":12936,"ibility":12937,"couver":12938,"radi":12939,"Report":12940,"loyalty":12941,"Broo":12942,"smells":12943,"sailor":12944,"Boyd":12945,"Arabic":12946,"Vancouver":12947,"junction":12948,"delicate":12949,"LAUGHTER":12950,"diagram":12951,"customer":12952,"lungs":12953,"nitrogen":12954,"categories":12955,"Afghanistan":12956,"mixture":12957,"110":12958,"Ages":12959,"BL":12960,"CP":12961,"Dum":12962,"GS":12963,"Ike":12964,"Mou":12965,"Ober":12966,"Py":12967,"jug":12968,"pyr":12969,"rations":12970,"rons":12971,"sworn":12972,"wret":12973,"theat":12974,"rejo":12975,"sealed":12976,"unity":12977,"shorter":12978,"lovers":12979,"mythology":12980,"Heavy":12981,"mankind":12982,"caval":12983,"indigenous":12984,"1922":12985,"blade":12986,"blows":12987,"divin":12988,"needle":12989,"crick":12990,"Roll":12991,"Alaska":12992,"closure":12993,"genes":12994,"surgeon":12995,"chapel":12996,"triple":12997,"Trinity":12998,"lowest":12999,"Colin":13000,"collecting":13001,"Pole":13002,"invaded":13003,"summon":13004,"borne":13005,"ivals":13006,"publisher":13007,"agonal":13008,"Belgian":13009,"Grandpa":13010,"gloves":13011,"‎.‎.":13012,"Audi":13013,"acquaint":13014,"partnership":13015,"consumer":13016,"molecules":13017,"alleged":13018,"dispute":13019,"snakes":13020,"magnificent":13021,"Believe":13022,"Gentlemen":13023,"Kir":13024,"Mob":13025,"Niger":13026,"Saudi":13027,"Yang":13028,"agh":13029,"bout":13030,"density":13031,"ologist":13032,"pne":13033,"sends":13034,"wage":13035,"zig":13036,"rehears":13037,"isure":13038,"towel":13039,"acing":13040,"forgetting":13041,"cann":13042,"formations":13043,"counties":13044,"Ros":13045,"Marilla":13046,"crept":13047,"lighter":13048,"jokes":13049,"engage":13050,"Johann":13051,"eternal":13052,"Abby":13053,"promises":13054,"operates":13055,"controlling":13056,"communes":13057,"flee":13058,"swallow":13059,"Prior":13060,"posts":13061,"banned":13062,"ICK":13063,"referring":13064,"dependent":13065,"raph":13066,"masters":13067,"umbai":13068,"AKE":13069,"Break":13070,"qualities":13071,"struggling":13072,"preferred":13073,"Clara":13074,"priority":13075,"Brandon":13076,"diplo":13077,"WOMAN":13078,"instrumental":13079,"suspicion":13080,"inflation":13081,"jacent":13082,"manifest":13083,"Executive":13084,"vulnerable":13085,"peekaboo":13086,"Puerto":13087,"controversial":13088,".;":13089,"07":13090,"Bach":13091,"Rud":13092,"Sac":13093,"evalu":13094,"flip":13095,"lass":13096,"maps":13097,"oat":13098,"pizza":13099,"swer":13100,"hare":13101,"roar":13102,"fork":13103,"verted":13104,"rimp":13105,"dose":13106,"agenda":13107,"lore":13108,"managing":13109,"propose":13110,"expo":13111,"hospit":13112,"Inside":13113,"diary":13114,"angles":13115,"marching":13116,"Allan":13117,"Marion":13118,"Forgive":13119,"Shin":13120,"aza":13121,"filming":13122,"continental":13123,"sterdam":13124,"Harper":13125,"21st":13126,"sexy":13127,"answering":13128,"Enjoy":13129,"Amsterdam":13130,"sticky":13131,"physic":13132,"Similar":13133,"Olya":13134,"COME":13135,"heroes":13136,"rubbish":13137,"Matcham":13138,"commerce":13139,"tricks":13140,"ultimate":13141,"nickname":13142,"Michelle":13143,"Junior":13144,"Utah":13145,"curtains":13146,"Pictures":13147,"abundant":13148,"helicopter":13149,"bundle":13150,"Away":13151,"BLE":13152,"Kin":13153,"Kind":13154,"Khal":13155,"Kids":13156,"Oscar":13157,"Pul":13158,"Rena":13159,"Spl":13160,"],":13161,"__":13162,"lust":13163,"ois":13164,"alt":13165,"accompany":13166,"sober":13167,"soccer":13168,"ags":13169,"ifies":13170,"estyle":13171,"grin":13172,"phon":13173,"drummer":13174,"Need":13175,"Branch":13176,"tenth":13177,"lazy":13178,"subsid":13179,"producers":13180,"holder":13181,"queer":13182,"END":13183,"extinct":13184,"circles":13185,"southwest":13186,"processing":13187,"Romanian":13188,"Private":13189,"dressing":13190,"dresses":13191,"LET":13192,"dining":13193,"characteristic":13194,"characteristics":13195,"acceptable":13196,"audio":13197,"physically":13198,"loading":13199,"Living":13200,"Others":13201,"featuring":13202,"Cambridge":13203,"vertices":13204,"Murphy":13205,"responded":13206,"gathering":13207,"requested":13208,"galax":13209,"consumption":13210,"begging":13211,"calculated":13212,"rugby":13213,"Sofla":13214,"Vietnamese":13215,"................":13216,"Pierre":13217,"Lionel":13218,"Baseball":13219,"Ottoman":13220,"recycling":13221,"Czech":13222,"##":13223,"Agr":13224,"Bright":13225,"Bless":13226,"Bundes":13227,"Dol":13228,"Eva":13229,"Gate":13230,"Hat":13231,"Riley":13232,"Shad":13233,"Sport":13234,"Tamp":13235,"Vie":13236,"kka":13237,"lD":13238,"lend":13239,"mice":13240,"rants":13241,"ée":13242,"alay":13243,"este":13244,"lemon":13245,"whi":13246,"forgiven":13247,"terminal":13248,"cemetery":13249,"shh":13250,"Whose":13251,"convey":13252,"manip":13253,"cancel":13254,"illo":13255,"ela":13256,"clue":13257,"Ohh":13258,"overwhel":13259,"braska":13260,"Chun":13261,"guer":13262,"intim":13263,"counts":13264,"flung":13265,"Deal":13266,"eleg":13267,"legally":13268,"winners":13269,"appet":13270,"fighters":13271,"Management":13272,"struction":13273,"ucing":13274,"Works":13275,"penalty":13276,"attacking":13277,"Capital":13278,"Seeing":13279,"ennon":13280,"digging":13281,"1904":13282,"gardens":13283,"roller":13284,"survival":13285,"loudly":13286,"shipping":13287,"HOW":13288,"delightful":13289,"Current":13290,"Horse":13291,"restaurants":13292,"atomic":13293,"Friends":13294,"diamonds":13295,"intendent":13296,"peasants":13297,"composers":13298,"Storm":13299,"antibiot":13300,"130":13301,"Dere":13302,"GON":13303,"Mumbai":13304,"NY":13305,"Pie":13306,"Tab":13307,"WW":13308,"aer":13309,"ditch":13310,"pione":13311,"react":13312,"arians":13313,"heir":13314,"heap":13315,"robe":13316,"sovereign":13317,"aller":13318,"manners":13319,"illusion":13320,"gee":13321,"inks":13322,"brass":13323,"backed":13324,"prick":13325,"cargo":13326,"prejud":13327,"Rebecca":13328,"colleges":13329,"Bristol":13330,"pub":13331,"insky":13332,"Commer":13333,"vocate":13334,"hyper":13335,"sweep":13336,"classroom":13337,"collections":13338,"damned":13339,"dreamed":13340,"rainbow":13341,"worrying":13342,"claiming":13343,"Suppose":13344,"marketing":13345,"hedge":13346,"Magazine":13347,"Stock":13348,"URL":13349,"puppy":13350,"recommended":13351,"Brazilian":13352,"automatically":13353,"voyage":13354,"diagnosed":13355,"juris":13356,"Along":13357,"Cad":13358,"Diana":13359,"GM":13360,"Linda":13361,"Mason":13362,"Mister":13363,"PL":13364,"Wright":13365,"_The":13366,"bou":13367,"kicking":13368,"sive":13369,"uki":13370,"input":13371,"attain":13372,"isha":13373,"heels":13374,"stad":13375,"llers":13376,"wasting":13377,"verb":13378,"domain":13379,"neys":13380,"apor":13381,"oped":13382,"umi":13383,"ishment":13384,"asser":13385,"portions":13386,"retro":13387,"monument":13388,"ensional":13389,"Marian":13390,"lightning":13391,"Seem":13392,"regulations":13393,"Whoever":13394,"simp":13395,"anni":13396,"profound":13397,"profile":13398,"bump":13399,"tructure":13400,"Local":13401,"titude":13402,"Italians":13403,"Walt":13404,"terrific":13405,"secretly":13406,"ruling":13407,"engineers":13408,"Finland":13409,"Smart":13410,"influential":13411,"discussing":13412,"anticip":13413,"psych":13414,"losses":13415,"reflect":13416,"tendency":13417,"Batman":13418,"SIGHS":13419,"Garden":13420,"astronom":13421,"advertise":13422,"preparing":13423,"sneak":13424,"betrayed":13425,"pissed":13426,"frankly":13427,"clause":13428,"Eventually":13429,"diversity":13430,"guidance":13431,"Imagine":13432,"Hampshire":13433,"\"\".":13434,"04":13435,"Hose":13436,"JUST":13437,"Nig":13438,"Ply":13439,"Rip":13440,"Swi":13441,"bows":13442,"pm":13443,"poo":13444,"rah":13445,"wyn":13446,"zh":13447,"ès":13448,"isan":13449,"sting":13450,"habits":13451,"codes":13452,"abama":13453,"shirts":13454,"trai":13455,"graves":13456,"cio":13457,"overseas":13458,"spreading":13459,"scoring":13460,"medieval":13461,"finest":13462,"cession":13463,"closes":13464,"Arnold":13465,"Sean":13466,"breeding":13467,"logically":13468,"ggle":13469,"Comple":13470,"populations":13471,"hearted":13472,"drawer":13473,"hara":13474,"harvest":13475,"ruins":13476,"searched":13477,"squire":13478,"generated":13479,"virgin":13480,"Romans":13481,"Greater":13482,"exceptions":13483,"bowed":13484,"cooling":13485,"objective":13486,"Greeks":13487,"Market":13488,"boundaries":13489,"patron":13490,"Radha":13491,"symbols":13492,"surviving":13493,"secured":13494,"Railroad":13495,"consisted":13496,"detect":13497,"shadows":13498,"Metropolitan":13499,"laboratory":13500,"Ellen":13501,"horns":13502,"Catal":13503,"embarrassed":13504,"Isaac":13505,"SPEAKING":13506,"batteries":13507,"Drive":13508,"evidently":13509,"grasp":13510,"bronze":13511,"Lauren":13512,"Scandin":13513,"Bess":13514,"Bureau":13515,"Dur":13516,"Hus":13517,"Op":13518,"Sri":13519,"aes":13520,"bats":13521,"ell":13522,"elo":13523,"fere":13524,"foul":13525,"gut":13526,"hates":13527,"pence":13528,"rho":13529,"sse":13530,"ske":13531,"ía":13532,"remo":13533,"1912":13534,"inea":13535,"thentic":13536,"issance":13537,"Nebraska":13538,"Defin":13539,"fract":13540,"cheating":13541,"regul":13542,"lame":13543,"Leban":13544,"believable":13545,"ailed":13546,"minded":13547,"voir":13548,"Trump":13549,"murders":13550,"privacy":13551,"tourists":13552,"recognise":13553,"devoted":13554,"stantial":13555,"Cambrian":13556,"1909":13557,"Joey":13558,"strengthen":13559,"iffs":13560,"bombs":13561,"biological":13562,"Rocky":13563,"PlayStation":13564,"Natal":13565,"witnesses":13566,"Squad":13567,"ghosts":13568,"relieved":13569,"Venice":13570,"virtue":13571,"shalt":13572,"borrowed":13573,"Leonard":13574,"Bulgar":13575,"Sophie":13576,"narrative":13577,"Authority":13578,"Macedonia":13579,"thomas":13580,"secutor":13581,"Basketball":13582,"AFC":13583,"Bol":13584,"Dong":13585,"Hm":13586,"Ny":13587,"Rest":13588,"Sciences":13589,"Yvon":13590,"athe":13591,"coff":13592,"fist":13593,"mbr":13594,"idi":13595,"adjacent":13596,"somed":13597,"cogn":13598,"deeds":13599,"quad":13600,"themes":13601,"permitted":13602,"clerk":13603,"overcome":13604,"guin":13605,"burial":13606,"scrub":13607,"odor":13608,"hika":13609,"crust":13610,"prey":13611,"cester":13612,"Alabama":13613,"compens":13614,"tense":13615,"fraction":13616,"chet":13617,"Seth":13618,"persist":13619,"jewel":13620,"charm":13621,"simult":13622,"lawyers":13623,"sketch":13624,"examined":13625,"locking":13626,"extend":13627,"chestr":13628,"radical":13629,"departure":13630,"Environment":13631,"Suzu":13632,"plication":13633,"Salem":13634,"treating":13635,"electrons":13636,"corners":13637,"Bald":13638,"camps":13639,"medication":13640,"licence":13641,"Strange":13642,"senses":13643,"turb":13644,"Fremantle":13645,"reminds":13646,"contributions":13647,"motorcycle":13648,"scenario":13649,"wealthy":13650,"dancer":13651,"traditionally":13652,"Conservative":13653,"Draft":13654,"robbery":13655,"impulse":13656,"satellite":13657,"Gabri":13658,"testimony":13659,"paragraph":13660,"Plymouth":13661,"9th":13662,"Dim":13663,"Emer":13664,"GA":13665,"Hannah":13666,"MI":13667,"Ming":13668,"Mater":13669,"RING":13670,"Wl":13671,"Wheat":13672,"lick":13673,"oak":13674,"vs":13675,"inate":13676,"tobac":13677,"llie":13678,"imperial":13679,"estone":13680,"quer":13681,"suffici":13682,"Anders":13683,"boast":13684,"1910":13685,"eless":13686,"Nope":13687,"ministers":13688,"observe":13689,"ptic":13690,"marched":13691,"crum":13692,"drain":13693,"drowned":13694,"Martha":13695,"Bru":13696,"brook":13697,"caps":13698,"pedo":13699,"sitcom":13700,"12th":13701,"Aboriginal":13702,"140":13703,"publicly":13704,"portrait":13705,"Phys":13706,"snatch":13707,"incere":13708,"ratio":13709,"biology":13710,"fantasy":13711,"instruction":13712,"dimensional":13713,"flowing":13714,"arrangements":13715,"minority":13716,"improvement":13717,"Ellis":13718,"preserve":13719,"Commissioner":13720,"increasingly":13721,"commissioned":13722,"arguing":13723,"Gibbs":13724,"Chandler":13725,"thirsty":13726,"geometry":13727,"trousers":13728,"Derek":13729,"Langu":13730,"Nep":13731,"Pit":13732,"Pink":13733,"Ring":13734,"Sor":13735,"Side":13736,"TT":13737,"VO":13738,"hub":13739,"iard":13740,"matt":13741,"swore":13742,"vom":13743,"ön":13744,"inspector":13745,"inaudible":13746,"stub":13747,"haul":13748,"forcing":13749,"chy":13750,"chased":13751,"aments":13752,"outing":13753,"moist":13754,"mosque":13755,"constr":13756,"residence":13757,"shelf":13758,"1916":13759,"adeh":13760,"dismissed":13761,"disgrace":13762,"scales":13763,"interfere":13764,"compli":13765,"coloured":13766,"elector":13767,"glow":13768,"glanced":13769,"signing":13770,"Grab":13771,"pays":13772,"grapes":13773,"expense":13774,"Danish":13775,"Edgar":13776,"Salz":13777,"Speak":13778,"imagined":13779,"continuing":13780,"Haj":13781,"paths":13782,"dioces":13783,"Raja":13784,"globe":13785,"Romeo":13786,"complaint":13787,"manufacturing":13788,"equipped":13789,"exclusive":13790,"delayed":13791,"Global":13792,"collapse":13793,"toxic":13794,"datab":13795,"sponsor":13796,"fascinating":13797,"Abdul":13798,"Crawford":13799,"Jeremy":13800,"exposure":13801,",.":13802,"Bé":13803,"Different":13804,"Hum":13805,"Jar":13806,"Jur":13807,"Nina":13808,"Pearl":13809,"Vance":13810,"WP":13811,"Woo":13812,"Wiz":13813,"jab":13814,"khar":13815,"mme":13816,"makers":13817,"pand":13818,"poured":13819,"uto":13820,"zzy":13821,"inau":13822,"incar":13823,"ento":13824,"esa":13825,"meals":13826,"llor":13827,"roast":13828,"wilt":13829,"urgent":13830,"trav":13831,"sui":13832,"geograph":13833,"shells":13834,"yelling":13835,"nae":13836,"haste":13837,"gues":13838,"ferences":13839,"Front":13840,"ledge":13841,"inclined":13842,"azines":13843,"atively":13844,"signature":13845,"Prad":13846,"OUND":13847,"Getting":13848,"apprent":13849,"ranking":13850,"honored":13851,"Syriac":13852,"graphics":13853,"traveled":13854,"channels":13855,"Helena":13856,"Burke":13857,"Cambo":13858,"Ferr":13859,"Couldn":13860,"Majnun":13861,"occasional":13862,"Applause":13863,"Princi":13864,"bacon":13865,"reflection":13866,"screwed":13867,"sighed":13868,"defendant":13869,"severely":13870,"guitarist":13871,"consequence":13872,"dominant":13873,"styles":13874,"Giralda":13875,"magnetic":13876,"Reserve":13877,"Hudson":13878,"Spencer":13879,"criteria":13880,"tobacco":13881,"6th":13882,"Ado":13883,"Aub":13884,"Bam":13885,"Cary":13886,"Rangers":13887,"Sier":13888,"Wu":13889,"bb":13890,"bir":13891,"iary":13892,"oa":13893,"pies":13894,"thorn":13895,"asi":13896,"wasted":13897,"chir":13898,"charts":13899,"wires":13900,"usen":13901,"aggressive":13902,"worries":13903,"tires":13904,"export":13905,"istical":13906,"ieth":13907,"inkle":13908,"ppen":13909,"forehead":13910,"hither":13911,"izar":13912,"flames":13913,"crashed":13914,"Alb":13915,"Alli":13916,"lasting":13917,"shapes":13918,"slam":13919,"Ernest":13920,"filed":13921,"apparent":13922,"colleague":13923,"invitation":13924,"guessed":13925,"reporting":13926,"instinct":13927,"ballet":13928,"defended":13929,"graduation":13930,"snap":13931,"references":13932,"Valent":13933,"Maggie":13934,"deserved":13935,"Bagh":13936,"reflected":13937,"honourable":13938,"neighbourhood":13939,"Thailand":13940,"amoto":13941,"employee":13942,"obliged":13943,"privilege":13944,"yummy":13945,"tattoo":13946,"christmas":13947,"rescued":13948,"Examples":13949,":\"":13950,"Bain":13951,"CAP":13952,"ET":13953,"Ext":13954,"Fol":13955,"GT":13956,"Gust":13957,"Ian":13958,"Kab":13959,"Till":13960,"cad":13961,"eches":13962,"ffe":13963,"fitting":13964,"liness":13965,"nar":13966,"nity":13967,"och":13968,"pard":13969,"saint":13970,"saddle":13971,"wra":13972,"zinc":13973,"reno":13974,"resolved":13975,"enser":13976,"alliance":13977,"mead":13978,"lease":13979,"sticking":13980,"verte":13981,"administer":13982,"sophis":13983,"eton":13984,"absent":13985,"outfit":13986,"antine":13987,"congreg":13988,"apes":13989,"extract":13990,"diaper":13991,"offence":13992,"spider":13993,"minar":13994,"minster":13995,"bucket":13996,"supreme":13997,"puff":13998,"Att":13999,"subway":14000,"Constant":14001,"topics":14002,"openly":14003,"Orthodox":14004,"transformation":14005,"Excellent":14006,"weekly":14007,"pursuit":14008,"Perkins":14009,"supports":14010,"Quar":14011,"LEO":14012,"arrives":14013,"petrol":14014,"firmly":14015,"temperatures":14016,"sharply":14017,"assembly":14018,"1890":14019,"contracts":14020,"consisting":14021,"leaning":14022,"pulse":14023,"Leslie":14024,"conviction":14025,"wandering":14026,"democratic":14027,"Gallery":14028,"precisely":14029,"crayons":14030,"opponent":14031,"abstract":14032,"presumably":14033,"Chelsea":14034,"pneum":14035,"Yvonne":14036,"-(":14037,"08":14038,"Aaron":14039,"Clo":14040,"Lennon":14041,"Pain":14042,"Sant":14043,"Teach":14044,"Tham":14045,"WA":14046,"cca":14047,"pistol":14048,"”.":14049,"atus":14050,"refresh":14051,"heal":14052,"soo":14053,"weep":14054,"dode":14055,"usively":14056,"wholly":14057,"seeming":14058,"Init":14059,"Information":14060,"Stupid":14061,"Chance":14062,"authentic":14063,"readers":14064,"Anglo":14065,"dub":14066,"Beck":14067,"contri":14068,"Alger":14069,"Abbey":14070,"14th":14071,"wheat":14072,"misery":14073,"twins":14074,"instin":14075,"grandson":14076,"LED":14077,"Highway":14078,"explaining":14079,"moderate":14080,"announcement":14081,"Wasn":14082,"blocked":14083,"Cricket":14084,"1905":14085,"DOWN":14086,"associate":14087,"significance":14088,"Tyler":14089,"Archie":14090,"Horace":14091,"Peninsula":14092,"stabbed":14093,"subsequent":14094,"crawl":14095,"NCAA":14096,"champions":14097,"vampire":14098,"glorious":14099,"DAY":14100,"Kyle":14101,"Lag":14102,"Lucky":14103,"Nit":14104,"Pave":14105,"Powell":14106,"Ris":14107,"Und":14108,"Zim":14109,"lene":14110,"vag":14111,"waking":14112,"thither":14113,"onwards":14114,"eda":14115,"acknowled":14116,"agg":14117,"agram":14118,"mock":14119,"defect":14120,"defic":14121,"trump":14122,"mans":14123,"tips":14124,"quiz":14125,"igma":14126,"bolt":14127,"whore":14128,"ounce":14129,"afa":14130,"brows":14131,"achi":14132,"Answer":14133,"attach":14134,"finals":14135,"itionally":14136,"friger":14137,"jelly":14138,"pretended":14139,"barrier":14140,"sentenced":14141,"societies":14142,"plainly":14143,"shortest":14144,"steadily":14145,"Steel":14146,"magazines":14147,"starving":14148,"Syrian":14149,"defending":14150,"grades":14151,"travels":14152,"Richmond":14153,"bulk":14154,"grip":14155,"Palm":14156,"humour":14157,"1902":14158,"Ferdin":14159,"Miles":14160,"emerged":14161,"defeating":14162,"Obama":14163,"LAUGHING":14164,"colonial":14165,"inherited":14166,"stimul":14167,"conquer":14168,"organs":14169,"pipes":14170,"Medicine":14171,"Berm":14172,"Came":14173,"Cai":14174,"Freed":14175,"HIM":14176,"IX":14177,"PP":14178,"Pack":14179,"Sic":14180,"Scre":14181,"SCH":14182,"WER":14183,"fus":14184,"ique":14185,"lun":14186,"mund":14187,"pend":14188,"rhe":14189,"wides":14190,"thie":14191,"anor":14192,"atro":14193,"orph":14194,"orchestr":14195,"mete":14196,"icans":14197,"accum":14198,"Thor":14199,"pep":14200,"lobby":14201,"ulum":14202,"cathedral":14203,"reducing":14204,"mining":14205,"furious":14206,"Read":14207,"timing":14208,"1800":14209,"Arctic":14210,"angels":14211,"ugs":14212,"valuation":14213,"personnel":14214,"restrial":14215,"relate":14216,"cribed":14217,"lawn":14218,"layers":14219,"Logan":14220,"picks":14221,"Russell":14222,"Bali":14223,"scope":14224,"construct":14225,"responsibilities":14226,"COM":14227,"experts":14228,"racial":14229,"dimensions":14230,"farewell":14231,"coalition":14232,"manufactured":14233,"concentrate":14234,"confession":14235,"vocals":14236,"Municip":14237,"Globe":14238,"attraction":14239,"Kurdish":14240,"CONT":14241,"tornado":14242,"restore":14243,"comparison":14244,"crushed":14245,"compassion":14246,"savage":14247,"modified":14248,"WORK":14249,"gauge":14250,"CHUCKLES":14251,"Columbus":14252,"\"-":14253,"Eyes":14254,"Emb":14255,"Eagle":14256,"FF":14257,"Hence":14258,"Ole":14259,"Swan":14260,"TON":14261,"Wan":14262,"Zero":14263,"ctory":14264,"flock":14265,"pra":14266,"sings":14267,"wu":14268,"οn":14269,"remarks":14270,"oral":14271,"itudes":14272,"ofthe":14273,"stout":14274,"icting":14275,"soy":14276,"riages":14277,"withdraw":14278,"uscript":14279,"therine":14280,"Heming":14281,"whatsoever":14282,"coma":14283,"catherine":14284,"propri":14285,"donkey":14286,"overnight":14287,"intu":14288,"presidency":14289,"scandal":14290,"marsh":14291,"intercept":14292,"interference":14293,"dual":14294,"chef":14295,"chains":14296,"volumes":14297,"numbered":14298,"archy":14299,"skirts":14300,"transaction":14301,"viewed":14302,"Mei":14303,"metic":14304,"Abb":14305,"Within":14306,"generate":14307,"Emerson":14308,"Buzz":14309,"connections":14310,"cultures":14311,"physician":14312,"Diet":14313,"hatred":14314,"Portland":14315,"digit":14316,"1908":14317,"coastal":14318,"economics":14319,"Iranian":14320,"hunter":14321,"Appe":14322,"nurses":14323,"deserted":14324,"Petty":14325,"measuring":14326,"civilian":14327,"Miranda":14328,"elementary":14329,"integrated":14330,"diplom":14331,"photographs":14332,"gratitude":14333,"Bahrain":14334,"installed":14335,"mathematical":14336,"Return":14337,"cottage":14338,"Village":14339,"probable":14340,"forbidden":14341,"therapy":14342,"Cotton":14343,"Diamond":14344,"adequate":14345,"entrepre":14346,"Elli":14347,"Fra":14348,"Haut":14349,"JO":14350,"Mak":14351,"Pod":14352,"Prest":14353,"Sard":14354,"Touch":14355,"Wit":14356,"bble":14357,"cH":14358,"cited":14359,"gments":14360,"goose":14361,"i1":14362,"smu":14363,"‎?":14364,"inspe":14365,"anche":14366,"revers":14367,"enable":14368,"edo":14369,"heating":14370,"libr":14371,"neth":14372,"nowadays":14373,"aggreg":14374,"Sold":14375,"Infant":14376,"avian":14377,"bugs":14378,"reads":14379,"obsc":14380,"obsess":14381,"monk":14382,"fails":14383,"happier":14384,"Coven":14385,"dug":14386,"prec":14387,"headache":14388,"Relig":14389,"ffff":14390,"orsen":14391,"Cons":14392,"passport":14393,"10th":14394,"skull":14395,"shallow":14396,"footage":14397,"queue":14398,"freeze":14399,"freezing":14400,"garments":14401,"summit":14402,"messed":14403,"Philoso":14404,"advise":14405,"influences":14406,"motive":14407,"Turks":14408,"declare":14409,"fools":14410,"utterly":14411,"Nevertheless":14412,"Kenta":14413,"championships":14414,"reminded":14415,"contributed":14416,"sync":14417,"ceremonies":14418,"Ariel":14419,"framework":14420,"pitched":14421,"Commonwealth":14422,"Paulie":14423,"curiosity":14424,"cancelled":14425,"suspended":14426,"liquor":14427,"kidnapped":14428,"monastery":14429,"Ferdinand":14430,"Hemingway":14431,"??":14432,"DI":14433,"Est":14434,"Ish":14435,"Kum":14436,"Lay":14437,"Nana":14438,"Pep":14439,"Stra":14440,"TAL":14441,"TWO":14442,"Wong":14443,"YELL":14444,"bil":14445,"fried":14446,"moo":14447,"sest":14448,"sciences":14449,"wider":14450,"oni":14451,"enforce":14452,"arrog":14453,"stum":14454,"static":14455,"vering":14456,"amer":14457,"amar":14458,"ambi":14459,"historians":14460,"likewise":14461,"ittens":14462,"email":14463,"maj":14464,"hier":14465,"Ant":14466,"ducks":14467,"helm":14468,"Bear":14469,"prede":14470,"nightmare":14471,"Canal":14472,"subtle":14473,"farming":14474,"shade":14475,"101":14476,"onda":14477,"viewers":14478,"Foon":14479,"organize":14480,"Harbor":14481,"speakers":14482,"CHAR":14483,"Walsh":14484,"arriving":14485,"publishing":14486,"Henri":14487,"hostile":14488,"specim":14489,"ginger":14490,"uttering":14491,"detailed":14492,"Murder":14493,"80ffff":14494,"fashioned":14495,"Daily":14496,"ALLY":14497,"dragons":14498,"hibited":14499,"Juliet":14500,"Esther":14501,"Jenna":14502,"SPEAKER":14503,"incredibly":14504,"nigga":14505,"kettle":14506,"Economics":14507,"clergy":14508,"Yugoslavia":14509,"warrior":14510,"Bengal":14511,"Maurice":14512,"Vladimir":14513,"Thames":14514,"cH80ffff":14515,"Bent":14516,"Cors":14517,"DP":14518,"Grun":14519,"HBO":14520,"Sony":14521,"Tl":14522,"Taking":14523,"Winst":14524,"blos":14525,"cence":14526,"lakes":14527,"mount":14528,"natives":14529,"incur":14530,"inscri":14531,"err":14532,"aton":14533,"replacing":14534,"refriger":14535,"isons":14536,"arbit":14537,"leys":14538,"aca":14539,"ente":14540,"ambit":14541,"ambig":14542,"ulu":14543,"fees":14544,"nove":14545,"proven":14546,"omi":14547,"asses":14548,"anga":14549,"overhead":14550,"Stal":14551,"printer":14552,"Annie":14553,"athlete":14554,"irect":14555,"nevertheless":14556,"contamin":14557,"Mari":14558,"closest":14559,"Whenever":14560,"gible":14561,"valve":14562,"farms":14563,"Indies":14564,"morality":14565,"hardware":14566,"stume":14567,"dense":14568,"Making":14569,"possibilities":14570,"Prus":14571,"Chamber":14572,"communist":14573,"equations":14574,"Shaw":14575,"competitive":14576,"commands":14577,"witter":14578,"1907":14579,"Military":14580,"Freddy":14581,"Garcia":14582,"innov":14583,"heavens":14584,"cruise":14585,"complaints":14586,"squeeze":14587,"complications":14588,"Julian":14589,"Assyrians":14590,"inflamm":14591,"beasts":14592,"CLARE":14593,"Facebook":14594,"coordinates":14595,"Promise":14596,"grunting":14597,"infections":14598,"rebellion":14599,"cavalry":14600,"Bundesliga":14601,"Salzburg":14602,",[":14603,"Easter":14604,"Ful":14605,"Hob":14606,"Kö":14607,"Loc":14608,"Mitch":14609,"Sue":14610,"Skin":14611,"Trent":14612,"Wer":14613,"]:":14614,"jaw":14615,"oons":14616,"sincere":14617,"inward":14618,"inquired":14619,"asters":14620,"heated":14621,"icate":14622,"idol":14623,"riots":14624,"Thunder":14625,"unions":14626,"plunder":14627,"fears":14628,"heritage":14629,"explic":14630,"1911":14631,"Butter":14632,"iaz":14633,"Ches":14634,"posal":14635,"scor":14636,"scram":14637,"Isle":14638,"genre":14639,"realm":14640,"Model":14641,"ANK":14642,"sleeve":14643,"Excell":14644,"monthly":14645,"shorts":14646,"sunk":14647,"mischief":14648,"Westminster":14649,"competing":14650,"fixing":14651,"APP":14652,"wilder":14653,"printing":14654,"Milan":14655,"nationally":14656,"Freddie":14657,"Hyde":14658,"Interest":14659,"debuted":14660,"Griff":14661,"psychological":14662,"passionate":14663,"SPEAKS":14664,"Porter":14665,"wandered":14666,"reinforce":14667,"Potter":14668,"Sophia":14669,"dinosaur":14670,"certificate":14671,"bicycle":14672,"Natalie":14673,"Alliance":14674,"pneumonia":14675,"\":":14676,"3D":14677,"Bit":14678,"DID":14679,"Fab":14680,"Row":14681,"Scr":14682,"Xi":14683,"awoke":14684,"fag":14685,"rr":14686,"rides":14687,"saints":14688,"ture":14689,"tweet":14690,"uum":14691,"yup":14692,"ār":14693,"altered":14694,"memo":14695,"icular":14696,"roses":14697,"utili":14698,"wears":14699,"arel":14700,"dominated":14701,"Throw":14702,"conquest":14703,"console":14704,"fection":14705,"resur":14706,"respected":14707,"illance":14708,"caution":14709,"ights":14710,"iels":14711,"elbow":14712,"blues":14713,"iano":14714,"phal":14715,"longed":14716,"Colo":14717,"cartr":14718,"visitor":14719,"Attorney":14720,"THINK":14721,"Shutter":14722,"Canon":14723,"rises":14724,"mbi":14725,"reluct":14726,"customs":14727,"temples":14728,"Warner":14729,"ORGE":14730,"respons":14731,"blacksmith":14732,"Barcel":14733,"Keith":14734,"territories":14735,"Buffalo":14736,"diesel":14737,"burns":14738,"Atlantis":14739,"Finance":14740,"Parker":14741,"Dublin":14742,"destroying":14743,"Cameron":14744,"Hamlet":14745,"Mikey":14746,"voters":14747,"hunts":14748,"Hasan":14749,"itarian":14750,"temporarily":14751,"conversations":14752,"eliminated":14753,"samples":14754,"alcoholic":14755,"proceeded":14756,"width":14757,"Testament":14758,"revolutionary":14759,"conveni":14760,"constitutional":14761,"absorbed":14762,"fossils":14763,"browser":14764,"swiftly":14765,"limbs":14766,"admire":14767,"Champions":14768,"luxury":14769,"onymous":14770,"Venezuela":14771,"Ottawa":14772,"GONNA":14773,"Baldwin":14774,"sophistic":14775,"predecess":14776,"Ag":14777,"Eye":14778,"Farm":14779,"GB":14780,"Gaga":14781,"Hide":14782,"Iike":14783,"Ll":14784,"Less":14785,"Mü":14786,"Nico":14787,"Om":14788,"Pra":14789,"Roland":14790,"Tate":14791,"Twitter":14792,"blog":14793,"fry":14794,"mns":14795,"aned":14796,"rely":14797,"meh":14798,"whales":14799,"advocate":14800,"costume":14801,"pod":14802,"conversion":14803,"manuscript":14804,"nomi":14805,"compelled":14806,"1901":14807,"astics":14808,"ousy":14809,"blah":14810,"clas":14811,"spine":14812,"backup":14813,"parted":14814,"torpedo":14815,"Chess":14816,"sizes":14817,"retained":14818,"prefecture":14819,"Marine":14820,"Rev":14821,"Donna":14822,"Leima":14823,"ugga":14824,"surrendered":14825,"INA":14826,"chaos":14827,"Goddamn":14828,"Indo":14829,"treason":14830,"autumn":14831,"continually":14832,"soundtrack":14833,"Fellow":14834,"particle":14835,"recep":14836,"Jew":14837,"sunlight":14838,"departments":14839,"grandpa":14840,"Support":14841,"strikes":14842,"Quebec":14843,"Sallie":14844,"masses":14845,"sensible":14846,"Mercury":14847,"coaching":14848,"approaches":14849,"directors":14850,"Moreover":14851,"1869":14852,"settlements":14853,"Delhi":14854,"bachelor":14855,"dimin":14856,"progressive":14857,"screams":14858,"Mustang":14859,"trembling":14860,"neighbours":14861,"tapes":14862,"desperately":14863,"residential":14864,"automatic":14865,"poems":14866,"Workers":14867,"hydrogen":14868,"drafted":14869,"electro":14870,"collapsed":14871,"Axel":14872,"Nicholas":14873,"coincidence":14874,"Sierra":14875,"02":14876,"Abu":14877,"BB":14878,"Bis":14879,"Cum":14880,"Cale":14881,"DL":14882,"Ef":14883,"Eld":14884,"Fir":14885,"Gann":14886,"Hare":14887,"Kho":14888,"LON":14889,"Matter":14890,"POR":14891,"Sang":14892,"SAM":14893,"Scream":14894,"Todd":14895,"VIE":14896,"dus":14897,"dain":14898,"mies":14899,"pud":14900,"inven":14901,"revel":14902,"enh":14903,"heed":14904,"stere":14905,"stained":14906,"icious":14907,"segment":14908,"acha":14909,"acres":14910,"idal":14911,"wiped":14912,"cox":14913,"doms":14914,"uru":14915,"consecut":14916,"Hebrew":14917,"safer":14918,"exe":14919,"Years":14920,"retain":14921,"formally":14922,"speeches":14923,"izen":14924,"issions":14925,"cruit":14926,"handful":14927,"Roth":14928,"deriv":14929,"supporters":14930,"jolly":14931,"cycles":14932,"vio":14933,"substantial":14934,"relativity":14935,"Notting":14936,"planets":14937,"transformed":14938,"barbar":14939,"Tracy":14940,"footsteps":14941,"corpse":14942,"recordings":14943,"freight":14944,"rades":14945,"Symph":14946,"computing":14947,"suggesting":14948,"photographer":14949,"ctively":14950,"croo":14951,"vertical":14952,"decline":14953,"pige":14954,"credited":14955,"Bravo":14956,"transportation":14957,"Tamil":14958,"Andrews":14959,"elderly":14960,"encouraging":14961,"conquered":14962,"volunteers":14963,"premiered":14964,"resignation":14965,"Sultan":14966,"doctrine":14967,"phenomenon":14968,"centimeters":14969,"Agric":14970,"antibiotics":14971,"Barcelona":14972,"05":14973,"AF":14974,"AU":14975,"ACH":14976,"Dunk":14977,"Hod":14978,"Jab":14979,"Java":14980,"MU":14981,"NAS":14982,"PM":14983,"Tris":14984,"Tax":14985,"gul":14986,"iors":14987,"nests":14988,"oct":14989,"pread":14990,"tends":14991,"vian":14992,"reject":14993,"torious":14994,"leisure":14995,"stating":14996,"beats":14997,"lian":14998,"rim":14999,"wept":15000,"outstanding":15001,"urt":15002,"unpleasant":15003,"deed":15004,"confront":15005,"ources":15006,"Weather":15007,"query":15008,"mentally":15009,"navy":15010,"ishan":15011,"perception":15012,"epic":15013,"cling":15014,"clap":15015,"Change":15016,"sibly":15017,"ptions":15018,"scorn":15019,"Roc":15020,"prev":15021,"Nev":15022,"smack":15023,"condenser":15024,"Forces":15025,"rung":15026,"trigger":15027,"sorted":15028,"Meth":15029,"examination":15030,"Hog":15031,"hurting":15032,"fortnight":15033,"profits":15034,"questioning":15035,"fastest":15036,"coup":15037,"villain":15038,"Cathedral":15039,"snub":15040,"packing":15041,"variation":15042,"1906":15043,"addresses":15044,"ACE":15045,"Previously":15046,"Pantho":15047,"prayed":15048,"boundary":15049,"investigate":15050,"bothering":15051,"employer":15052,"significantly":15053,"mechanics":15054,"Mira":15055,"Trevor":15056,"Enterprise":15057,"protests":15058,"Gregor":15059,"descended":15060,"proposals":15061,"--------":15062,"Commons":15063,"TAIN":15064,"endeav":15065,"gurt":15066,"deposit":15067,"Historic":15068,"homosexual":15069,"Dodge":15070,"infras":15071,"conspiracy":15072,"ingredients":15073,"twentieth":15074,"removal":15075,"Blow":15076,"EVERY":15077,"Fres":15078,"Ghost":15079,"Hir":15080,"Hoo":15081,"NAT":15082,"Sme":15083,"Vick":15084,"fitted":15085,"lain":15086,"mall":15087,"nings":15088,"scold":15089,"zie":15090,"inated":15091,"heck":15092,"whale":15093,"acular":15094,"riers":15095,"urance":15096,"poles":15097,"hima":15098,"bob":15099,"hash":15100,"spont":15101,"Stri":15102,"ohen":15103,"discri":15104,"intimate":15105,"strain":15106,"awfully":15107,"flashed":15108,"timber":15109,"frust":15110,"prizes":15111,"regulation":15112,"brella":15113,"keepers":15114,"steak":15115,"risen":15116,"mindfulness":15117,"solitary":15118,"fiance":15119,"Provin":15120,"velocity":15121,"OUGH":15122,"animation":15123,"rider":15124,"Plant":15125,"circulation":15126,"checks":15127,"procession":15128,"respectable":15129,"stripes":15130,"Frankie":15131,"Senior":15132,"ACT":15133,"niece":15134,"taller":15135,"Radhika":15136,"bombing":15137,"focusing":15138,"struggled":15139,"pianist":15140,"istocr":15141,"exclusively":15142,"wrestler":15143,"Travis":15144,"Gregory":15145,"tubes":15146,"Munich":15147,"flir":15148,"Tournament":15149,"advised":15150,"Mandalay":15151,"Rhine":15152,"guarante":15153,"inherit":15154,"Starting":15155,"canoes":15156,"perceived":15157,"syndrome":15158,"anthropo":15159,"Scientists":15160,"satisfy":15161,"Jamaica":15162,"512":15163,"Cinc":15164,"Gav":15165,"Ghar":15166,"HEN":15167,"Jung":15168,"Kra":15169,"Mered":15170,"Plot":15171,"Reven":15172,"Tend":15173,"Wen":15174,"cured":15175,"danc":15176,"eves":15177,"euro":15178,"git":15179,"iards":15180,"ké":15181,"oz":15182,"olla":15183,"swo":15184,"swords":15185,"tad":15186,"uz":15187,"vod":15188,"wy":15189,"atics":15190,"arn":15191,"healing":15192,"ications":15193,"behold":15194,"withdrew":15195,"nee":15196,"teles":15197,"contrad":15198,"caut":15199,"Android":15200,"indign":15201,"indirect":15202,"oodle":15203,"Inn":15204,"spher":15205,"sians":15206,"sergeant":15207,"failing":15208,"interchange":15209,"Rein":15210,"Sevent":15211,"labe":15212,"Motor":15213,"Concha":15214,"fathers":15215,"void":15216,"Express":15217,"distances":15218,"basin":15219,"cule":15220,"aimed":15221,"swung":15222,"Plummer":15223,"concerts":15224,"ITV":15225,"bald":15226,"balanced":15227,"Russ":15228,"bella":15229,"industries":15230,"spotted":15231,"necklace":15232,"Lovely":15233,"amazed":15234,"sympa":15235,"Careful":15236,"rabbits":15237,"affects":15238,"diabet":15239,"challenges":15240,"onomous":15241,"GRUNTS":15242,"Croatia":15243,"ignorance":15244,"Adrian":15245,"YEAH":15246,"Wagner":15247,"Athens":15248,"Phoenix":15249,"cricketer":15250,"oatmeal":15251,"Seems":15252,"Hoseyn":15253,"Gabriel":15254,"widespread":15255,"Meredith":15256,"Bapt":15257,"Cus":15258,"Creat":15259,"Dow":15260,"Faw":15261,"Jump":15262,"Oft":15263,"Rug":15264,
[...]
